#version: 0.2
Ġ t
Ġ a
i n
h e
r e
o n
e r
Ġ s
Ġt he
o r
a t
n d
Ġ w
Ġ c
o u
i t
e s
e n
Ġ f
i s
in g
Ġ o
Ġ p
Ġ b
a n
a l
e d
a r
Ġt o
Ġ in
Ġa nd
Ġ m
Ġo f
i c
l e
i on
Ġ d
o m
a s
Ġ h
i l
en t
Ġt h
r o
s t
Ġ l
v e
Ġ re
Ġ y
c t
e t
Ġ S
Ġ e
Ġ C
Ġ n
Ġ g
Ġf or
Ġy ou
â Ģ
e l
Ġ on
i d
o l
o w
Ġ is
a y
Ġ A
o t
r a
at ion
u s
c e
i g
c h
Ġ M
l y
Ġb e
Ġ I
it h
i m
Ġ T
a m
u t
u r
v er
Ġ P
a d
Ġs t
Ġw ith
i r
Ġ B
t er
Ġth at
il l
u l
u n
Ġ D
Ġp ro
g e
er s
Ġ it
Ġa n
âĢ Ļ
he r
Ġa s
Ġa l
Ġw h
ou t
Ġ R
Ġ 2
m ent
i f
Ġ 1
s e
Ġ F
p p
o o
Ġa t
Ġc on
ou r
k e
Ġ or
es s
es t
at e
Ġ H
Ġa re
c k
a b
Ġ (
Ġc om
Ġ L
Ġ W
r om
r i
Ġw e
Ġ he
Ġh a
Ġ G
o re
is t
or t
e w
Ġ E
T he
it y
e m
ig h
p e
Ġ v
Ġ N
u re
Ġyou r
Ġs e
u m
Ġb y
q u
Ġe x
l d
Ġf rom
ar t
i ve
a nd
l o
an t
Ġd e
u st
n t
a in
al l
t h
i es
Ġ r
Ġs h
re s
Ġc h
Ġth is
Ġ us
ar d
u p
0 0
Ġha ve
Ġw ill
o s
Ġw as
u d
Ġ O
Ġ âĢ
Ġc an
igh t
Ġ le
Ġ J
' s
o d
Ġs u
i al
o st
o p
e ar
i v
om e
o c
t e
in e
a g
Ġp l
ic e
a ge
id e
Ġa b
as t
0 1
a re
Ġn ot
el l
or k
r ou
Ġ U
ct ion
a k
i p
ou ld
a c
p er
f f
Ġal l
Ġcom p
Ġa d
ic h
g h
Ġd o
r y
Ġ j
a ck
i re
Ġh as
p t
ab le
Ġn e
oo k
Ġ k
e ct
i a
c c
a ke
in d
Ġ -
a il
b er
at ed
f or
d u
Ġ K
Ġ up
it e
on e
Ġ en
Ġ2 01
Ġm ore
Ġw he
t her
. .
oo d
o g
Ġm e
on g
as e
Ġ out
ĠS t
i z
ĠT he
Ġcon t
Ġ our
an s
Ġ V
a p
an ce
Ġb ut
e re
ig n
er v
ic al
Ġ 3
u b
Ġab out
im e
Ġs o
ic k
ar y
ou s
ion s
i e
re e
Ġthe ir
Ġof f
Ġa pp
Ġt e
Ġc l
Ġ im
u e
a ch
Ġwh ich
a ct
c l
ĠC h
ar k
ĠI n
or d
i b
ou nt
Ġon e
a ce
as s
for m
ation s
u nd
Ġre s
Ġw ork
Ġm an
ver y
Ġn ew
s o
ul t
e p
Ġ un
l l
i le
Ġm y
Ġs a
am e
Ġwh o
on d
Ġp er
o ve
T h
re at
Ġ qu
r u
i ke
p l
Ġy ear
p ort
Ġ "
al ly
res s
en ce
Ġthe y
ow n
a v
Ġg o
ent s
it ion
Ġp art
t o
ay s
Ġo ther
Ġt ra
Ġd is
Ġan y
Ġh is
or s
Ġ Y
Ġa r
Ġre c
il d
Ġs c
Ġ ro
is h
in t
Ġal so
ing s
Ġa cc
Ġt ime
m er
Ġa g
Ġs p
ver s
en s
n e
Ġe v
Ġg et
Ġs pe
in k
Ġp re
) .
Ġo ver
ou nd
ĠâĢ ľ
i an
ol d
Ġs ome
l ic
an k
âĢ Ŀ
Ġ 4
d ay
Ġl ike
Ġ if
or y
Ġbe en
ra m
ter n
an g
Ġ 5
I n
re d
at er
o v
Ġd es
ir st
n ing
Ġit s
cl ud
ol l
ĠâĢ ĵ
r ic
w n
o ol
Ġne ed
e nd
Ġs erv
Ġpro v
an c
Ġa m
Ġwhe n
Ġk n
Ġthe m
Ġw ould
Ġh ow
i ew
o b
Ġwh at
Ġad d
Ġcom m
on s
f ter
Ġp e
Ġf e
f t
Ġthe re
Ġ &
Ġt r
at es
W h
u al
rou gh
e c
ation al
ment s
he d
am p
ou gh
Ġin clud
l p
x t
Ġb u
Ġwe re
Ġt w
c om
Ġpro du
Th is
Ġus e
j ect
it t
Ġc o
Ġsu pp
Ġf irst
ĠT h
p h
Ġm ake
s s
le ct
el y
on t
Ġh ad
Ġin to
o se
Ġ1 9
Ġj ust
Ġhe lp
Ġre g
Ġin d
a w
ic es
is s
n g
W e
it ies
Ġ .
Ġth an
us e
is e
Ġp h
w e
in ess
f ere
en c
l es
i ous
ĠC om
at ing
f ul
Ġe m
ĠP ro
op le
e k
Ġsa id
Ġ her
Ġl ook
und er
Ġ 6
ad e
an y
Ġp r
ur n
Ġb et
) ,
ĠU n
c ial
y st
ĠR e
an ge
form ation
t s
rou nd
Ġth rough
us iness
Ġc ol
Ġ ra
Ġon ly
at h
if ic
Ġcon s
b s
ve lo
Ġ under
ro w
Ġa fter
he n
Ġb ack
Ġm ost
o y
Ġst ud
Ġtw o
Ġw ell
Ġin v
al s
Ġn o
Ġl oc
Ġpe ople
Ġ ent
Ġ $
as ed
Ġkn ow
o int
or ld
Ġa ct
c ess
er m
ot h
Ġim p
ow er
ra ct
le ase
a ir
h ip
t ing
Ġse c
w ard
ve l
ol og
Ġs et
Ġm ay
yst em
i ed
Ġbe c
velo p
I f
Ġf l
Ġn ow
id ent
Ġex per
i o
er t
il ity
! !
ur ing
Ġm in
Ġf in
ar ch
ure s
l and
g et
Ġ 7
Ġhe re
Ġin formation
it ed
' t
Ġin st
Ġas s
ic s
if e
t y
Ġre l
ers on
ak ing
Ġ '
b le
et h
il y
Ġse e
ou n
ĠD e
i ence
Ġe very
pe ct
al th
r it
g an
Ġp ost
Ġ ke
as h
ib le
f ore
Ġs he
re n
Ġa v
Ġa c
Ġin c
Ġwhe re
n er
Ġw ant
Ġyear s
Ġc he
i x
Ġthe se
Ġs m
ul l
ch ool
g ram
Ġpl ay
Ġdes ign
a x
at ive
Ġg ood
y s
Ġc ar
Ġ1 0
Ġre m
l ine
Ġ 8
Ġh igh
en er
ĠN ew
p r
Ġin s
al e
it s
Ġb usiness
ĠS h
Ġb est
ic t
a use
Ġv is
ark et
Ġst art
Ġd ay
u g
Ġp res
Ġp os
Ġre qu
Ġg u
a z
Ġh ome
u ch
ri b
Ġm on
I t
Ġman y
he s
ul ar
i vers
Ġsh ould
Ġg reat
Ġ2 00
at a
ou se
i ent
Ġm em
Ġo wn
el f
Ġd if
ch n
Ġd own
p en
Ġc ould
Ġw ay
Ġc all
Ġb el
Ġsh ow
Ġb l
ire ct
Ġr ight
Ġ very
Ġm od
ĠC l
Ġsupp ort
v en
Ġe ff
Ġf ind
ĠA r
Ġthe n
Ġde c
u es
v iew
oll ow
ĠH e
Ġprodu ct
Ġt ake
Ġat t
le t
ust om
Ġc ur
Ġl ast
Ġde velop
Ġ 9
o ck
a h
Ġtr ans
Ġ i
rou p
Ġb r
i er
e e
Ġre ad
d er
Ġsu ch
ag es
Wh at
i k
c es
Ġar t
o k
c ed
Ġin te
a ve
Ġs ystem
Ġdis c
Ġm ade
Ġle ad
t on
Ġag ain
al k
Ġn um
Ġm ed
ot her
Ġprov id
ar m
Ġfor m
ĠW h
in ing
Ġ ed
Ġd et
in s
in es
ri v
at ch
Ġte am
Ġc re
ub lic
ar n
Y ou
Ġf am
s h
Ġbe fore
re st
i el
d e
Ġb o
Ġm uch
Ġp ol
ion al
un ity
Ġl ong
Ġwe ek
Ġl ist
00 0
Ġpro gram
et s
Ġev en
Ġus ed
Ġad v
Ġw orld
Ġin ter
H ow
w ay
ere d
Ġav ail
Ġsu b
Ġc ount
Ġe nd
as on
l ed
ĠS e
m an
Ġp erson
ort h
Ġa ut
ĠL e
Ġre t
en e
ĠW e
a u
Ġf ree
Ġs ur
it al
ĠT e
Ġf ollow
re nt
Ġb ook
ction s
Ġs er
.. .
iz e
re ad
ol ut
Ġre p
Ġbe ing
ĠS c
Ġto p
Ġha nd
or n
Ġinclud ing
Ġpro ject
we en
iv es
r al
in ce
Ġd el
. ,
us s
Ġm arket
Ġc ustom
Ġc our
oc i
Ġg ra
Ġd on
ĠA l
ĠA d
ĠE x
Ġex p
Ġcomp any
ter s
Ġserv ice
Ġe ach
n ce
Ġus ing
Ġdif fere
Ġpro f
Ġavail able
Ġdo es
F or
ce pt
ĠA n
Ġpl ace
c o
Ġs im
Ġpl an
Ġ Q
b ers
at her
al ity
Ġd id
Ġbet ween
olog y
Ġth ink
Ġr un
ĠP l
el s
Ġre port
Ġf ound
Ġpro cess
Ġs k
iv ing
Ġmon th
at ure
ar s
ut e
Ġv al
Ġch ild
p le
Ġc r
ivers ity
Ġde f
u c
ver n
er ing
re en
Ġo pen
ĠI nd
er n
Ġc ent
r id
er y
out h
Ġc are
Ġ 0
Ġth ose
ant s
Ġst r
Ġl ife
Ġ /
et y
Ġc le
1 0
Ġd ata
Ġl ove
Ġch ar
Ġa round
Ġ1 2
iel d
v ing
Ġbec ause
Ġf un
Ġte chn
Ġbu ild
Ġs ign
Ġwh ile
Ġor gan
ire d
g y
ro ss
mer ic
ri end
ĠC on
n ess
Ġp ur
Ġc lo
r ist
Ġne xt
ain t
ĠC ol
Ġb oth
Ġst ate
ak es
Ġ2 0
in a
v ed
Ġnum ber
ĠI t
Ġe as
Ġserv ices
Ġ ide
at ur
Ġapp ro
lo y
iz ed
Ġc or
o ot
o h
Ġp oint
Ġin t
w ork
Ġan n
Ġd uring
ĠP h
ĠF or
g g
r ation
Ġl ar
i qu
Ġf il
E R
ot e
w are
Ġ Z
am es
Ġth ree
c on
ĠU S
at or
im es
Ġhe alth
is hed
ot t
ĠY ou
Ġis s
Ġvis it
Ġd irect
, ,
ĠC ent
t he
A s
Ġo pt
Ġre ce
Ġre f
Ġs ame
i or
Ġg roup
ĠCom m
Ġex t
2 01
Ġwe bs
Ġs chool
i um
od e
Ġg ener
a ut
ĠB e
Ġb lo
ĠM an
Ġspe cial
ow s
Ġsec ond
Ġh im
ĠC o
S t
Ġp ay
b e
Ġph ot
5 0
Ġcon f
age ment
l ess
Ġs om
Ġc ost
u ally
Ġw ater
t t
Ġst ill
le y
Ġin f
Ġp at
ro om
Ġt y
i ver
ĠI s
Ġf ull
ĠR es
Ġme et
Ġdiffere nt
in ed
Ġinte rest
p loy
ĠT r
Ġ201 8
Ġs l
Ġv ar
Ġsm all
m s
ank s
is ion
Ġqu est
Ġst and
Ġcur rent
ĠA meric
Ġ1 8
Ġp ass
ra nd
Ġw in
Ġre st
3 0
Ġv iew
cc ess
Ġcl ass
Ġo per
Ġexper ience
Ġprov ide
Ġhe ad
ĠB l
ill ion
a j
lo ad
enc y
Ġto day
2 0
tern ational
Ġacc ess
Ġd ist
ist s
Ġpart ic
p s
r on
Ġm ust
Ġ Â
iss ion
Ġper form
ard s
Ġo b
Ġapp lic
Ġ ve
v ent
Ġ ,
ĠS p
w ays
Ġcont in
Ġim port
Ġke ep
ĠA nd
an n
Ġha pp
itt le
Ġres p
Ġs ay
us h
Ġcont act
our s
Ġl ight
Ġpos s
1 9
Ġpro per
ro l
Ġle t
ord ing
Ġgo ing
T o
Ġth ough
Ġp ublic
in al
Ġare a
le ction
ical ly
Ġon line
at t
are d
Ġto o
ĠUn iversity
om m
Ġre al
ĠâĢ ĺ
en g
Ġp lease
Ġinv est
od y
A nd
A n
Ġfam ily
Ġan other
Ġo pp
Ġor der
Ġche ck
Ġwebs ite
Ġf ew
Ġe qu
Ġspe c
Ġcom e
Ġres ult
I N
Ġloc al
m e
ir on
v es
Ġen g
ir d
u ro
e x
oc ial
Ġb ig
ĠM ar
Ġp ut
i ents
m in
p or
one y
R e
Ġs ite
Ġev ent
l ing
Ġf riend
vern ment
i pp
if ied
Ġw r
Ġre ally
ru ct
b o
Ġb ro
Ġp age
ĠE ng
st and
at s
p os
Ġt est
Ġs al
Ġg ive
ur y
he re
Ġt ri
Ġ1 1
en n
Ġs ince
Ġg ame
Ġinc re
Ġwith out
H e
ur s
m ber
te nd
Ġeff ect
c ent
pe nd
Ġd ays
em ber
Ġp rom
Ġpres ent
Ġbet ter
Ġle vel
as ter
is ed
Ġre se
Ġdet ail
Ġro om
d ition
l ish
a f
Ġcomp le
Ġv ide
o f
ĠC an
ic le
Ġind ust
Ġg row
Ġs ure
g ed
Ġf ac
ne y
Ġe ar
Ġn ame
The re
ain s
w w
um p
Ġagain st
Ġstud ents
Ġp ower
Ġg r
Ġg l
Ġ est
Ġwork ing
Ġ1 5
Ġt ry
ĠC ar
us ic
Ġa ir
Ġc ap
j oy
ĠR o
Ġoff er
Ġo ld
ĠS erv
O N
ra ph
Ġst re
Ġwith in
ĠT ra
Ġm et
ot s
Ġproduct s
a i
h or
Ġex c
Ġb re
A N
Ġact iv
o pe
is ter
Ġd ri
âĢ ¦
Ġl ittle
Ġprof ess
ent ly
an e
iz ation
Ġoff ic
a pp
Ġch ange
if y
ĠO r
Ġlook ing
m ed
e ver
Ġpro ble
Ġimp ro
b y
ent ial
Ġbel ow
a ff
ut es
ri es
p art
ĠCh rist
Ġl a
Ġmem bers
et work
1 2
is m
Ġ3 0
Ġp ract
Ġcomm unity
s elf
a im
ab ility
Ġp op
ill s
Ġbu y
Ġf ood
ĠA ss
ĠF l
Ġacc ount
Ġfe el
d ing
g in
Ġn ear
Ġb ased
Ġb as
Ġl aw
os s
Ġun t
un e
is ing
ĠC ount
C h
S o
fere nce
Ġc ert
ar ing
Ġth ings
at ely
ĠTh is
ĠA pp
Ġle g
Ġas k
Ġal ways
Ġre view
Ġa ff
Ġadd ition
ĠâĢ Ķ
Ġcon st
Ġl ess
Ġab le
E S
th ing
or ing
Ġqu ality
Ġl ink
Ġsa f
A T
Ġ X
O n
i am
s on
Ġchild ren
oh n
Ġe lect
Ġsu ccess
Ġex pl
Ġm ov
Ġf our
it es
a per
Ġl ine
ate g
ĠP r
Ġs ing
A R
v iron
id er
e b
s c
Ġm aking
ri pt
en se
Ġt erm
eth ing
Ġdevelop ment
y m
Ġg ot
Ġem ploy
it c
Ġde v
Ġc amp
ĠM ed
Ġf und
Ġf act
Ġpro te
Ġch ang
it ions
1 1
u f
Ġh ard
if t
Ġd em
Ġcon c
Ġ201 9
Ġ201 7
ĠA ll
Ġimport ant
ĠM ay
ĠCom p
Ġc ase
Ġh ouse
Ġh ist
ene f
Ġe l
iv id
B ut
at ter
O R
ra p
un ic
ater ial
Ġen joy
olut ion
ord s
u ck
Ġf r
Ġc a
Ġle arn
? ?
Ġj ob
Ġunt il
ro p
du ct
iqu e
A l
Ġcour se
ĠO ff
Ġcount ry
n ect
om en
W hen
em s
or ies
pe cial
Ġc reat
ĠM in
Ġal ong
or m
Ġfollow ing
ĠF r
Ġall ow
Ġpr ice
as es
le ment
Ġ et
ut ure
con om
Ġs w
ent ion
ur ity
b ook
Ġbe h
Ġinst all
Ġn ight
ĠC ity
Ġse ason
f er
ĠA m
y n
Ġem ail
Ġd ra
s ide
v ious
it ing
Ġ ..
g er
Ġex pect
Ġsom ething
Ġt em
Ġadd ress
viron ment
ie ve
re t
id s
Ġ1 6
Ġj o
ĠA s
Ġnew s
n ers
are nt
Ġc ity
ĠR ep
iv ed
read y
Ġs ide
Ġt urn
Ġed uc
O ur
o or
Ġcl ick
Ġ :
b al
ĠE uro
Ġ1 4
Ġh ot
ĠA ust
f ect
in ation
Ġlar ge
res ent
ĠO n
Ġvide o
our ce
ore d
Ġ vers
iv en
Ġp ack
o ice
Ġb ed
Ġso ft
Ġrese arch
og raph
ol id
Ġcre ate
D o
ĠS outh
Ġl and
1 5
aj or
Ġl ive
Ġbe aut
Ġm ight
Ġto ol
Ġm ult
uf act
Ġsh ort
Ġab ove
Ġm oney
Ġl o
Ġto get
ĠA pr
Ġup d
p ro
W ith
y le
Ġt able
Ġtoget her
os p
A ll
u pp
Ġn on
ĠS te
Ġsh are
ĠSt ate
rib ut
r ing
amp le
Ġh old
A S
Ġp ast
Ġt reat
Ġm ove
Ġha ving
l ished
Ġperson al
i enc
ĠN ational
up er
oc u
oc us
Ġb enef
Ġneed s
Ġl ot
Ġco ver
at ic
in c
Ġal ready
Ġopp ort
ir m
Ġm il
al f
ĠS chool
Ġ201 6
. "
Ġwh y
ĠG u
Ġposs ible
ĠB o
our n
Ġret urn
ward s
Ġp ot
Ġs ocial
s w
Ġgo vernment
ĠT o
ĠM e
un ch
Ġw ind
Ġm illion
Ġ ...
Ġa way
Ġac ross
Ġf av
ure d
Ġre le
Ġt imes
ric t
r is
Ġke y
Ġinclud e
ĠJ ohn
Ġ1 3
Ġcont rol
Ġt alk
Ġm ar
Ġst e
ob ile
it ive
Ġindust ry
if ul
ĠE n
ĠC ont
Ġcomp et
Ġ1 7
il le
ĠP ark
o ver
Ġle ft
a pe
Ġann oun
Ġl ow
Ġf ore
Ġeas y
ĠCount y
as k
y l
Ġf uture
um an
Ġrequ ire
E N
Ġwe b
an ies
ĠWh at
ight s
ĠIn st
Ġcall ed
Ġp ort
Ġr ange
Ġc e
Ġ x
id es
Ġm usic
Ġm aterial
ĠN orth
on es
Ġ2 4
ĠC he
Ġman agement
ĠJ an
Ġunder stand
u ff
Ġt ax
ic y
her s
ĠUn ited
is k
ĠD es
Ġw all
au gh
le ge
Ġcl aim
Ġ1 00
Ġst ep
Ġs um
Ġp riv
A d
c le
Ġf ield
ver t
o pp
Ġt re
ur al
1 8
A L
ific ation
er al
Ġor ig
ru ction
Ġk ind
is c
Ġdisc uss
er r
Ġtra ining
Ġne ver
Ġp ict
Ġm ain
I S
c y
s ure
Ġd i
p ar
Ġmin utes
ĠEuro pe
Ġ es
Ġ2 5
Ġbr ing
Ġp ar
Ġbec ome
ur ther
ĠH ow
anc es
anc ial
Ġval ue
ur ch
ivid ual
Ġwork s
c ome
ĠApr il
il ities
Ġ19 9
ip s
Ġm ajor
id d
st er
Ġse ver
g o
I C
Ġme an
w h
ĠC al
Ġ #
P ro
oo se
Ġde al
Ġs ays
Ġl im
' m
Ġc ou
omm end
Ġm en
ĠAmeric an
Ġoff ice
Ġh ost
ro ll
g le
Ġm ach
ĠP ol
ain ed
ur ance
eth od
Ġcle an
1 6
g r
Ġh ours
Ġpur ch
oun c
S h
Ġfe at
il t
Ġbuild ing
Ġc ut
Ġse lect
1 4
Ġp ub
ĠN e
Ġre du
Ġv ol
ib r
lo bal
Ġf lo
Ġacc ording
b all
Ġc ard
Ġoffic ial
2 5
Ġw rit
ab or
Ġf ile
i od
Ġn etwork
ĠG o
C l
n es
3 3
g es
n ow
ul ation
Ġsever al
our ces
Ġproper ty
o on
Ġcomp let
Ġst ore
re am
ĠIn c
Ġother s
Ġb rand
ĠB ro
ĠAust ral
Ġf ocus
Ġb ody
Ġman ag
re w
Ġp ress
Ġse arch
ĠY ork
Ġto t
ak en
ĠD o
Ġ |
ĠU K
Ġclo s
Ġser ies
Ġmed ia
R E
Ġstud y
Ġo cc
Ġaut hor
ab ly
P lease
Ġd one
ad a
Ġan al
b r
Ġd ocu
Ġp ri
Ġle ast
' re
Ġloc ated
op y
Ġoff ers
Ġper fect
Ġind ividual
Ġquest ions
Ġcomp anies
Ġcom b
Ġtra vel
Ġen vironment
ct or
pl ay
Ġ201 5
Ġimpro ve
um b
c ript
ell ing
um e
ie f
res h
Ġrec ommend
ac es
Ġapplic ation
l i
Ġl og
ĠB ar
A C
Ġf ar
I s
on y
I T
Ġ ident
i ans
ĠA g
Ġ z
Ġe ver
Ġb ar
Ġst aff
ĠW orld
Ġman ufact
Ġcomple te
ain ing
Ġsp ace
et er
itc hen
Ġinv ol
le x
f ort
Ġc al
Ġl at
ĠCent er
ra ft
Ġide as
Ġth ing
Ġch all
ĠHe alth
Ġ Ġ
Ġpartic ip
ĠM c
ĠM arch
ir l
Ġh ig
ĠP art
ĠQ u
Ġtechn ology
ĠI m
ĠW est
Ġet c
' ll
Ġs ize
Ġme ans
ĠD ep
E x
iv al
Ġm ess
ent al
Ġst ory
Ġen c
itt ed
ĠS ec
- -
ĠO ct
ĠS m
Ġd r
ig ital
Ġty pe
ounc il
Ġget ting
ĠJ u
Ġon ce
g est
B e
ip ment
Ġvar i
in o
Ġw a
Ġw alk
Ġam ong
Ġe conom
ĠE m
Ġcustom ers
A t
Ġblo g
c rib
Ġhe art
Ġse nd
u ary
Ġqu ick
Ġm akes
Ġf urther
Ġh ope
Ġl ik
ir t
2 00
Ġpr int
Ġpost ed
ĠC or
atur al
n ov
Ġm aint
ĠIn ternational
it her
ear ch
Ġmem ber
Ġhe ld
pl ace
Ġrequ est
ĠP res
Ġcle ar
ĠH igh
ĠRe g
t en
Ġf ive
rid ay
Ġapp ear
u ed
E D
c hed
red it
Ġst ay
ro du
Ġear ly
ĠG od
ast ic
Ġ201 4
ic ro
Ġdetail s
ĠA f
un ities
h am
Ġ [
ĠA b
c ing
Ġan t
Ġ5 0
a ur
Ġcon nect
Ġbeaut iful
/ /
an a
' ve
Ġs ale
un g
Ġprofess ional
Ġo il
Ġyou ng
Ġper cent
ĠG e
Ġmonth s
ut er
Ġm ethod
ec ut
Ġw on
Ġc ode
Ġkn own
Ġass ist
1 7
it or
b ack
Ġs it
og n
Ġcont ent
Ġd ate
ĠSe pt
A fter
Ġresp ons
ond on
m ost
Ġwh ite
min ist
ib ility
ĠE d
Ġdown load
s el
ĠP re
Ġs ol
Ġth ird
led ge
Ġm ind
Ġper iod
Ġbre ak
m it
at ors
atur day
Ġrep resent
r s
u x
a id
Ġtra ck
ill ed
Ġen er
: //
Ġrequ ired
Ġto ok
Ġstr ong
o ber
Ġrec ord
z e
im ate
Ġperform ance
ar ning
ĠN o
Ġm ot
it ch
Ġp ie
Ġdo ing
tern et
Ġty p
Ġt aking
Ġfriend s
Ġf re
ac y
Ġg iven
Ġstart ed
Ġre d
Ġbe gin
Ġlat est
o le
Ġcom es
Ġsing le
Ġb it
M y
ĠJ une
Ġfr ont
ĠA ug
c er
ĠD ay
Ġreg ist
Ġbo x
Ġadd ed
n ot
e f
he l
Ġproble m
or g
Ġl iving
ra d
ĠD r
y ear
Ġd ue
ĠH ouse
1 3
g ing
Ġp an
Ġus er
ĠA t
Ġd ou
us her
ĠAss oci
es e
ach ing
re et
ive ly
Ġy et
ĠSt ud
ĠAr t
Ġsal es
Ġa ud
C om
Ġf ire
Ġvers ion
Ġin ternational
ap s
S T
t ime
op s
Ġv ia
Ġclo se
Ġag ree
Ġev ents
Ġw ood
Ġm iss
ĠW ill
ĠH ar
Ġvar ious
as ing
Ġquest ion
ĠV al
ab les
c hes
id ence
ĠG r
Ġcont ract
Ġf oot
Ġiss ues
A M
Ġfe ature
Ġmeet ing
Ġprovid es
Ġe le
ĠF eb
c he
and s
Ġen ough
it ure
ĠB u
Ġfin al
Ġbl ack
Ġhist ory
Ġc ame
m y
Ġw omen
Ġart icle
Ġeng ine
Ġsec urity
ĠE l
port s
ver age
Ġp ick
Ġp ark
2 4
Ġam ount
Ġm om
und ay
olut ions
Ġrece ive
ĠI f
Ġt our
Ġc ult
i ate
ĠA ut
Ġte xt
ĠP ar
ove mber
ĠY our
l er
ĠC r
6 0
Ġcomm unic
Ġare as
Ġdesign ed
Ġa ge
ang u
ĠÂ £
Ġf ace
Ġpart y
ou d
e es
y d
Ġt ell
Ġr isk
8 7
ff ic
o x
ĠF riday
am b
nd er
Ġc oll
Ġan sw
Ġde b
Ġsoft ware
oo gle
u k
Ġof ten
ĠW ed
e ad
ak er
h ib
ar get
Ġw ond
ag n
ĠL ondon
Ġprovid ed
it ut
Ġfin ancial
Ġme as
Ġspec ific
Ġl ater
for d
Ġpre p
ĠS aturday
y e
Ġm or
Ġro ad
Ġiss ue
Ġener gy
Ġs ound
Ġcustom er
Ġp ric
he ad
Ġpoint s
Ġpartic ular
Ġresult s
at form
il ar
cl us
ing ton
9 9
ond ay
Ġat tend
Ġw atch
Ġcurrent ly
ĠP er
Ġpl ant
ĠS w
Ġex am
Ġex ample
a ign
art ment
Ġph one
ful ly
O T
am er
re g
m as
Ġh om
Ġeduc ation
Ġp aper
ĠT w
anc ed
Ġexper ienc
f l
8 0
Ġst at
ĠR ec
ĠSt ates
pecial ly
ĠD irect
Ġ2 1
Ġaut om
r ight
ĠG roup
ou ch
Ġfor ward
Ġide a
Ġchar act
Ġcon d
Ġcom ing
Ġ201 3
Ġfeat ures
Ġa ch
Ġt aken
ir c
Ġent ry
im um
Ġ- -
w ood
air s
Ġincre ase
4 0
Ġb ath
Ġcert ain
Ġfav or
ens ive
ul es
Ġs ent
Ġpre vious
Ġfun ction
Ġg ames
Ġcomm on
ri ed
Ġim age
itt en
is es
Ġrec ently
urn iture
p ut
com ing
Ġve h
ad em
Ġsim ple
, âĢĿ
c ast
ĠServ ice
Ġh alf
A P
re ct
it te
ĠJu ly
ĠSept ember
Ġass oci
g ress
Ġp arent
ur g
Ġimp act
ĠD av
el come
ĠM y
art h
Ġh uman
Ġwhe ther
Ġd am
ĠJan uary
Th at
ĠM on
u ation
Ġproject s
Ġb ra
a ul
e y
Ġin it
Ġn ational
Ġeff ort
Ġbo ard
Ġce le
v ille
ce mber
Ġc ook
Ġag o
Ġex ist
ĠA ir
Wh y
ard en
Ġre ason
ourn al
Ġfor mer
Ġus ers
Ġso on
ĠCh ina
Ġcons ider
is on
Ġactiv ities
f ace
id ed
,, ,,
Ġtot al
Ġrec ent
Ġrel ations
az ing
Ġwho le
Ġen sure
Ġs elf
ĠS unday
Ġsystem s
Ġmod el
or age
Ġ ?
Ġpop ular
Ġpot ential
Ġhapp en
v al
Ġ ess
2 2
at ory
est s
Ġun ique
Ġreg ard
us ed
Ġrel ated
ess ion
ĠN ovember
Ġt it
Ġs ix
ar ter
ĠF in
ail y
ĠP e
her n
Ġcontin ue
Ġm ark
ĠB usiness
ĠA ct
Ġblo ck
Ġm obile
om an
Ġcol or
Ġpos ition
H ere
ĠW ork
mer cial
ĠS he
ĠH ome
m m
P h
am ed
th ough
O S
Ġp ain
Ġse en
ĠServ ices
ĠW ind
Ġcre ated
E C
Ġ2 2
Ġpriv ate
Ġthough t
Ġa ction
am a
Ġinclud es
l ier
ĠPres ident
Ġ201 2
O ne
p ly
ĠS al
Ġac cept
Ġcl ients
Ġf ail
Ġapp ly
Ġins p
p m
Ġlead ing
Ġrece ived
C an
ĠAf ric
Ġsu gg
ĠS er
Ġlead ers
Ġf all
Ġequ ipment
The y
u le
Ġk itchen
Ġpol it
Ġr ate
Ġprodu ction
Ġest ab
Ġd om
Ġe ither
a pt
Ġpl ans
Ġprote ct
Ġsc reen
" .
Ġw ent
Ġsh all
ĠOct ober
Ġm ix
Ġse ction
Ġde g
ruct ure
Ġb ase
Ġneed ed
ĠW ith
ip le
Ġrun ning
ĠA c
Ġf ul
ĠDes ign
!! !
ĠDep artment
Ġc and
Ġro le
Ġh tt
âĢ Ķ
urs day
Ġopt ions
Ġact ually
l in
ĠInd ia
ic les
ru ary
Ġph ys
Ġstud ent
Ġb ott
ve y
Ġspe nd
U S
g s
ĠM onday
Ġgener al
er c
Ġf ast
ĠS an
itt ing
Ġw ar
Ġsome one
ag ue
Ġto wn
Ġread y
Ġc rit
Ġint rodu
Ġrec ogn
Ġsc he
Ġmach ine
g round
n a
it ute
Ġob ject
Ġsub ject
Ġext ra
ĠAug ust
Ġaddition al
et t
Ġg old
Ġent er
ag ing
Ġ +
Ġm at
b or
ed s
ĠTe chn
Ġres pect
ĠF ace
Ġcons um
ĠDe cember
Ġch oose
Ġpol icy
el t
Ġdis play
Ġprovid ing
o id
ab y
E T
ĠI nt
Ġorig inal
ĠB r
Ġ4 0
Ġr ound
Ġpl atform
Ġcamp aign
dition al
N e
Ġa ward
Ġst yle
m on
m b
Ġopport unity
h ing
Ġs uper
2 3
Ġknow ledge
Ġpract ice
o ke
ĠD is
ke nd
ĠW ar
du c
N ow
Ġn atural
Ġbeh ind
Ġes pecially
ĠP at
o e
ĠS ystem
Ġle arning
hip s
Ġhapp y
ĠB ook
ĠCol lege
ĠS k
Ġ2 3
ĠG ener
Ġreg ular
e pend
Ġdri ve
Ġto ld
Ġre lease
ĠL aw
Ġcol lect
osp ital
ĠS o
ĠG l
i ol
ac hed
Ġne cess
âĢĿ .
am s
Ġpart ners
ues day
ĠP ort
ĠAmeric a
Ġt ick
Ġin j
Ġchang es
oci ety
ĠBl ack
Ġt arget
E L
ir th
nes day
m ing
Ġm ount
P l
cript ion
ov ed
Ġv ot
Ġgrow th
i res
Ġmarket ing
Ġd igital
Ġst ock
Ġevery thing
ĠC our
ĠC ouncil
Ġw ays
ĠEng lish
Ġg iving
Ġshow s
b ased
Ġo p
Ġmed ical
Ġout side
al d
il es
Ġg round
ĠPro f
Ġopt ion
Ġb ank
itte e
O M
ibr ary
ĠSt reet
Ġb us
ens ion
The se
Ġdoes n
ar a
Ġsk ills
Ġm atch
Ġcl ub
Ġdif f
bo ard
ĠB rit
idd le
Ġf ram
Ġweek s
ou ra
Ã ©
Ġloc ation
Ġdocu ment
e al
if f
Ġdid n
Ġb all
Ġinf l
Ġsum mer
P S
Ġw orth
Ġannoun ced
ĠT V
Ġan im
Ġw ide
Ġeff ic
Ġf it
Ġp ers
i pe
u el
er ve
N o
a ult
Ġle ave
ys is
Ġfam il
Ġg lobal
Ġins urance
I D
a ction
p ress
Ġyour self
ic ated
sel ves
Ġl ay
ig ation
Ġar ch
Ġlook s
Ġra d
Ġqu al
ĠA re
ĠR uss
ap an
it ter
ell ent
Ġproble ms
l ight
Ġs ell
Ġal most
Ġc redit
Ġh on
Ġmod ern
Ġtreat ment
Ġcons ult
Ġs olution
ber t
O U
ar i
em pt
ĠTh ursday
Ġcour t
o ff
ĠAssoci ation
ĠM ich
ĠR ed
ĠF ree
ĠE ast
Ġs at
Ġstand ard
angu age
Ġb orn
Ġatt ack
ell ow
Ġpres ident
ĠFeb ruary
U n
Ġpro b
Ġent ire
Ġl ic
id ents
Ġinclud ed
ĠTr ans
Ġst op
Ġimp lement
ish ing
S he
ĠCh ar
ke y
Ġwond er
i et
Ġte ac
av ing
rid ge
ĠAustral ia
ĠP ost
Ġphot os
Ġphot o
i ation
Ġevery one
Ġins ide
Ġdet erm
Ġ2 7
ĠCal if
ac ed
Ġbel ieve
Ġjo in
N ew
u ra
Ġdra w
en ior
ĠG oogle
ove red
Ġ2 6
ab in
ĠOff ice
Ġ2 8
v est
4 5
O L
ĠO f
Ġsim ilar
Ġcent er
h a
Ġs qu
it er
Ġmor ning
Ġa verage
u ge
Ġc ool
op h
Ġread ing
Ġcol lection
Ġwr itten
ĠFace book
s ing
ra w
m a
iz ing
Ġbu ilt
al y
ĠIn s
g ra
Ġprogram s
Ġsaf ety
2 6
j ust
Ġc ell
ri ve
Ġpri or
Ġcomp uter
Ġsugg est
Ġ ill
Ġb ad
al t
Ġs ong
ĠA nt
tern al
ill ing
Ġdev ice
Ġth anks
ĠM r
Ġwe e
.. ..
av y
Ġthrough out
l im
Ġt ru
ĠL a
ĠG erm
I L
ist ry
on st
Ġf ix
Ġs we
es ter
âĢ ĵ
Ġdo or
Ġdec or
Ġfil m
ic ult
ĠA ng
o es
2 7
ir ing
r ay
Ġse par
Ġde part
g u
Ġp ages
un t
IN G
Ġs ource
Ġs il
ed eral
ĠM arket
Ġorgan ization
) :
Ġconc ern
Th anks
Ġdirect ly
Ġs olutions
ĠD ist
Ġw ord
Ġt akes
ĠT uesday
Ġpre vent
i very
m ission
Ġl ate
ĠC ons
Ġam azing
Ġcount ries
Ġch oice
_ _
Ġcom fort
a res
or ge
Ġf resh
Ġpurch ase
Ġin nov
ĠM od
ĠK ing
orn ia
Ġdel iver
ĠWed nesday
ĠChrist mas
Ġw or
en ge
ĠG old
a el
Ġconst ruction
Ġb al
Ġst orage
Ġflo or
ĠCan ada
re c
Ġwee kend
Ġc opy
Ġbook s
Ġab s
f ield
h old
Ġdes crib
Ġcele br
Ġg reen
Ġf urniture
re m
Ġl oss
Ġgo al
Ġb ud
Ġsaf e
Ġlik ely
Ġd est
i ber
Ġs un
Ġcom ment
A D
at ives
Ġtool s
Ġpro pos
ĠE duc
ag s
Ġprom ot
Ġs le
Ġim ages
ĠRo ad
Ġpub lished
ĠIn ter
E O
Ġgl ass
Ġsa ve
Wh ile
Ġem b
Â ®
Ġex ecut
Ġwrit ing
Ġg irl
Ġcost s
Ġterm s
as te
Ġk ids
ĠU p
Ġp le
z z
Ġre nt
Ġpart s
Ġit ems
ĠPro gram
Ġad minist
Ġm ag
Ġn ice
Ġcom mercial
Ġexpect ed
ĠNew s
lo ck
opp ing
7 0
Ġt ouch
ĠB ank
ĠW ash
Ġhig her
Ġf irm
ĠG reen
an ch
id ing
ĠO ne
Ġplan ning
Ġwr ite
Ġ ut
ĠP al
Ġor d
ĠH ot
Ġany thing
F rom
Ġmanufact ure
B C
p ose
Ġin form
Ġrele ased
Ġleg al
ur b
Ġexp ress
ĠDe velop
it ation
Ġh it
Ġ201 1
n y
Ġhow ever
2 8
Ġa im
Ġsign ific
Ġcor rect
ĠMan agement
Ġcond itions
2 1
ĠS upp
Ġch ance
Ġfavor ite
Ġres ources
E n
Ġs ens
ĠT H
ĠD on
ĠO ut
Ġne g
Ġ201 0
on se
ĠH er
Ġann ual
Ġreg ul
Ġtry ing
ĠBo ard
h ood
Ġc irc
id a
ist ic
iv ity
Ġany one
Ġw ords
pp er
Ġreport ed
ff ee
err or
ren ch
e ed
Ġdef in
Ġe mer
Ġinterest ed
Ġmess age
Ġro ll
Ġpict ure
Ġchall eng
A re
Ġr ather
um n
ag ed
Ġsim ply
ipp ing
Ġd ed
Ġcharact er
ub e
Ġcl ient
p ri
Cl ick
Ġf ig
ĠC le
ic a
os ed
ĠCl ub
ĠCalif ornia
ol f
Ġde pend
Ġ6 0
Ġcare er
ĠJ apan
riv ing
3 5
h ouse
Ġfe ed
ĠCl ass
Ġm id
ĠEurope an
ce ed
C ont
Ġh olid
ro wn
Ġcon duct
Ġse ek
Ġrest aur
Ġpre t
Ġplay ers
Ġdec ision
Ġ >
ag er
Ġim m
anc y
Ġask ed
Ġmaterial s
ĠS ch
Ġcr usher
Ġbenef its
Ġright s
Ġa w
Ġc ross
ĠG ra
Ġfl ow
Ġm ill
od ay
Ġoff ering
Ġpr im
ou l
Ġpre m
Ġset t
ĠWh ite
Ġinvol ved
r ate
it ect
Ġpol ice
ĠComp any
e ction
m ark
Ġro ck
Ġw ed
Ġ â
Ġm atter
ud e
m at
Ġs old
ĠM ac
ri al
Ġmom ent
r up
ir it
Ġpric es
A cc
ĠAn n
v ant
Ġsu bs
Ġtri p
Ġaff ect
w here
ĠA cc
est ival
in ary
Ġre v
ĠI N
Ġde ath
Ġeffect ive
Ġsk in
pl es
Ġpat ients
Ġrequire ments
Ġd iv
ĠH all
Ġdiff icult
Ġapplic ations
ww w
, "
Ġst ri
s y
Ġc y
Ġl ab
ĠGener al
Ġinter view
C he
Ġcon ne
Ġvari ety
ĠB est
Ġv ict
Ġl ed
Ġreg ion
Ġel se
Ġc oun
Ġse em
D es
Ġd aily
Ġe arn
ĠY ear
Ġc ateg
Ġgra du
d oor
Ġr out
p re
Ġc at
Ġs n
olog ical
Ġenc oura
Ġm ass
in ter
Ġpret ty
7 5
g ar
Ġd at
use um
ograph y
t d
Ġdou ble
2 9
Ġh ous
ĠDav id
Ġg ift
ak ers
Ġits elf
Ġtr ue
ĠRes earch
Ġhot el
Ġwork ed
Ġsupp ly
Ġinst ead
ĠPh il
Ġb i
Ġon es
Ġappro ach
G et
d om
k s
Ġc ause
Ġde ep
Ġsa w
Ġex cept
att le
M S
Ġ *
Ġs us
Ġe p
Ġ2 9
Ġex act
ĠK e
Ġm ention
ĠD el
ough t
Ġnecess ary
Ġp aint
ĠM or
Ġbut ton
s es
c el
Ġdr ink
C on
am ic
ru it
B y
Ġl ives
Ġexper t
Ġfil es
ĠI r
Ġtrans fer
ur t
ĠB ut
s er
Ġupd ate
m itted
Ġcan not
Ġgroup s
re l
Ġf arm
Ġsu it
por ate
es tern
ĠF ound
ĠM ore
Ġqu ite
ĠIs land
ch ange
ad es
Ġplay ing
Ġwind ow
it ary
ĠS pr
. âĢĿ
il s
Ġl ost
Ġbath room
Ġcand id
Ġs ym
st on
ĠI D
re y
pp ed
Ġcon dition
Ġlong er
Ġwe ight
ĠG reat
ac hes
Ġl ower
Ġtra de
Ġapp oint
Ġte le
Ġcou ple
Ġach ieve
ĠWash ington
Ġab ility
Ġeas ily
ĠWind ows
Ġsignific ant
Ġw ish
ro id
ĠB ra
Ġnot e
ven ue
Ġm ax
ĠInd ian
Ġexc ellent
I G
Ġinvest ment
Ġmult iple
ĠD ec
ind ing
. )
ar ies
Ġv ac
Ġbl ue
Ġactiv ity
6 5
I P
ĠN ot
oc ol
Ġ =
Ġ19 8
ĠWe b
ig er
Ġw ww
Ġ ~
ar c
Ġstart ing
Ġparent s
A r
il ing
ĠC are
Ġa f
Ġstr ateg
Ġful ly
Ġopport unities
ĠEduc ation
1 00
as ons
Ġca pt
Ġth ank
Ġha ir
ust ain
r ast
S e
Ġh our
Ġplay er
Ġ ver
Ġst ar
Ġst ra
ĠH ol
Ġhigh ly
c ul
ic o
ad y
b on
v is
ron ic
C C
Th ank
M e
ict ion
Ġgu ide
J ust
Ġtyp es
ĠDevelop ment
d en
d ed
le g
Ġse ems
Ġcont ribut
ĠTe x
Ġinte gr
Ġsuccess ful
Ġdel ivery
Ġlo ad
s et
Ġl anguage
ĠD em
Ġreport s
I ON
ore s
Ġd ru
Ġtit le
n ew
Ġg as
Ġhe ar
Ġdirect or
Ġim med
Ġtr ust
Ġbro ad
Ġapp l
ord er
rough t
I M
Ġup on
Ġorgan iz
Ġpict ures
al es
ĠInst itute
Ġsh op
Ġpie ce
Ġre ach
Ġinst ru
Ġdeg ree
ĠM ill
Ġelect ric
Ġansw er
Ġprob ably
az on
ĠEng ine
Ġbud get
Y our
r d
du le
Ġac qu
L E
Ġde ad
erv ed
en ing
ĠJ ust
pl ate
u it
Ġtra in
Ġadv ice
Ġis n
Ġv iol
Ġregist ered
Ġn amed
Ġcreat ing
Ġveh icle
" ,
Ġn orm
se c
Ġex hib
Ġcar ry
Ġm ap
Ġre place
se e
ĠA P
ĠIn ternet
av es
w ide
in ner
How ever
D e
t ies
ut h
Ġ200 9
Ġ !
lo g
ash ion
ĠUS A
Ġlar gest
er ry
Ġf ine
ĠS ing
Ġcont ain
Ġd ry
ĠM et
ĠP ublic
Ġcoll abor
ĠM em
S ome
Ġc amer
Ġpro gress
Ġchar ge
m ail
or ial
ĠS im
Ġemploy ees
Ġl if
ĠM ag
s p
t ain
ĠI S
Ġtra ditional
Ġteam s
ĠP C
Ġcon ference
Ġgrow ing
D on
un k
Ġall ows
R es
Ġb ur
Ġtrans port
A pp
Ġre ve
Ġj ud
Ġspe ed
Ġg arden
ĠP aul
Ġw arm
all ery
ĠCh urch
pr ise
Ġbed room
' d
r ant
ar ant
am ily
Ġinterest ing
ĠCour t
Ġf ab
ĠS T
Ġthem selves
Ġcap ital
Ġs ites
ĠR iver
Ġbusiness es
Ġw elcome
Ġc abin
ĠI I
Ġdist ribut
ĠDirect or
t ra
ag o
Ġregard ing
in n
Ġdis e
Ġpolit ical
Ġplay ed
Ġquick ly
for ce
own load
Ġdevelop ed
ag ram
Ġgo als
Ġhand s
Ġresp onse
ines e
Ġsub st
Ġlevel s
Ġhtt p
9 0
Ġla unch
he st
ĠP M
Ġind ic
am ent
Ġg en
im ately
Ġde cl
ĠPl an
nd s
Ġb oy
ĠD an
Ġexist ing
Ġg ar
ĠH el
Ġpay ment
Ġs em
ĠTr ump
Ġh y
ĠPro ject
Ġstate ment
Ġschool s
i ra
on a
O r
Ġp ath
ĠS ub
Ġpl us
Ġnot hing
ĠFl or
is f
Ġb irth
Ġa part
ĠB ay
amp ions
3 2
5 00
ĠTex as
Ġt ag
ĠG ood
Ġus ually
ĠJ ack
T e
et imes
ot a
ĠF ore
Ġar r
Ġlet ter
Ġp ow
ĠL td
iv il
olog ies
Ġste el
re ed
Ġpro ced
ac ity
Ġind epend
Ġbenef it
is ions
ĠB el
ĠWill iam
ĠAfric a
Ġg ives
ĠI T
Ġv ote
Ġanal ysis
Ġt ask
Ġm us
Ġbec ame
rap y
ur ation
ĠComm ission
Ġ ri
Ġal tern
Ġwant ed
Ġser ve
ch an
Ġne igh
is ation
4 4
in ated
Ġcomplet ed
Ġst ation
t ed
Ġstre ng
i j
Ġset ting
bo x
ist ics
Ġde p
Ġoff ered
Ġopen ing
Ġp ool
Ġb illion
Ġr ates
Ġun it
in ally
us es
Ġav oid
o oth
Ġm ail
Ġcon vers
Ġa ware
ĠPh ot
y es
un te
Ġex tend
ĠGo vernment
ĠBrit ish
N ot
ĠO pen
An y
is co
ĠM al
eng th
ĠC amp
Ġqu arter
E M
i ant
Ġass ess
Ġhist or
augh ter
ĠR ock
ĠPl ay
n ces
Ġf ight
Ġappro pri
Ġp aid
qu e
Ġstep s
or row
Ġo bs
ipp ed
Ġinfl u
Ġpro t
Ġpl aces
com es
h ol
Ġs up
ĠM icro
y ond
Ġcons ist
por ary
m et
Ġs on
Ġco ffee
O W
Ġt im
ill age
ĠA N
ĠE v
ĠComm unity
Ġwed ding
S c
iz es
Ġsm art
Ġh op
Ġcomple x
5 5
oc r
Ġstr ate
Acc ording
Ġn ut
Ġgo es
Ġad vert
oy al
ph one
Ġmed ic
v in
b um
Ġst age
Ġex erc
ĠJ e
Ġpos itive
Ġmean ing
Ġbott om
Ġstrate gy
ra el
Ġatt empt
Ġlim ited
b and
i able
Ġact ive
sy ch
is l
as c
Ġ3 1
ĠW ater
ear n
Ġdem and
en ance
se mb
ĠSc ience
ush ing
U R
Ġg ave
ang er
Ġbas is
p ite
Ġc ra
ĠB re
rou d
Ġd ress
ĠRep ublic
Ġb atter
Ġd ire
ĠA M
ĠCent re
ĠE lect
ĠAr ch
Ġb aby
om a
L e
b our
ri an
od es
Ġsay ing
Ġprofess ion
Ġwonder ful
y a
ĠG et
ang ing
Ġrem ember
ĠS um
ident ial
P re
ĠM ary
ow l
ĠP ower
Ġch air
ĠO b
a e
Ġa head
Ġh or
Ġn ation
d own
Ġp et
Ġst uff
Ġrelations hip
ĠF irst
Ġs ession
ĠS il
our ney
Ġhe at
Ġhelp s
Ġser ver
Ġref er
ĠOn line
C H
Ġt er
ĠL ife
ĠThe re
Ġreview s
P A
ide red
Ġ200 8
Ġwa it
Ġfamil ies
3 6
b u
es ome
ĠS ur
ĠM at
w ell
hen s
Ġatt ention
clus ive
4 9
c are
Ġre pl
Ġus es
Ġdisc ount
Ġdev ices
Ġpress ure
Ġser ious
8 8
ad d
ant a
Ġimp ress
Ġse ctor
Ġs outh
Ġp m
in ate
om b
anc ing
ann el
Ġd oll
Ġse lection
rib ute
Ġdec ided
ĠC O
Ġst one
oc al
Ġdo g
Ġwho se
Ġannoun ce
Ad d
ĠL ake
Ġf ly
Ġto wards
ĠS pe
erv ation
ĠR ich
Ġbas ic
Ġprote ction
Ġess ential
l a
Ġb and
Ġlead er
Ġwr ong
Ġmil es
Ġ ing
Ġth ous
Ġsp ot
A m
al ed
ill a
w ise
he t
Ġd ro
ĠC ap
lo s
Ġlist ed
Ġe ye
Ġman age
Ġuse ful
Ġexp and
Ġredu ce
ap ter
Ġpart ner
Ġra ce
it iz
Ġpat tern
Ġeconom ic
ĠB en
Ġthink ing
I A
z a
Ġ @
Ġcon cept
Ġhealth y
Ġchall enge
Ġc ash
Ġunderstand ing
b it
im al
Ġcl in
Ġown ers
Ġmov ing
y pe
Ġen h
ĠComm ittee
Ġd ream
ent y
Ġar riv
o very
ĠFound ation
M ore
Ġc ases
ĠM ark
ĠM ount
ĠJ ames
Ġpur pose
ĠDist rict
o in
Ġm other
Ġad just
Ġtem per
h i
Ġt en
D A
I m
ad o
ĠW ood
Ġ ult
ĠS un
ĠF rench
Ġd rop
Ġn orth
ĠM art
Ġcom ments
enc es
Ġt ips
ĠC ong
Ġnum bers
Ġadv ant
Ġdam age
Ġres idents
so ft
W here
Ġh uge
ĠM il
ĠM ach
im b
ĠN etwork
Ġbl ood
ĠCh ild
Ġcult ure
ĠThe y
Ġm aster
Ġf air
Ġselect ed
ĠProf ess
Ġconne ction
3 7
g al
Ġn ature
Ġcommunic ation
Ġc ards
ĠD ata
ert ain
P R
m al
ck s
Ġback ground
Ġtechn ical
ĠEng land
Ġfac ilities
Ġphys ical
L et
w ord
Ġb rought
Ġcomplet ely
Ġs enior
ĠS ocial
ĠO ur
ĠTh at
Ġresp ond
Ġmov ie
Ġmanag er
Ġagree ment
Ġtra ffic
ĠCent ral
k a
ic on
st ate
ĠS l
am ing
Ġr ules
Ġad ult
Ġst ru
Ġsh aring
h ow
i os
Ġdiffere nce
Ġpat ient
ĠFlor ida
Ġpack age
C A
Ġwe ather
ĠCon ference
ĠVal ley
Ġholid ay
ing er
Ġp ull
Ġfe e
Ġhelp ing
Ġrep air
Ġg e
Ġmet al
ov ing
Ġear lier
6 4
L ast
ĠT own
ĠR el
Ġmeas ure
er g
ĠA v
ri ef
âĢĿ ,
B A
im ent
ĠV ol
Ġown er
Ġview s
Ġcontin u
oo per
Ġsh oot
Ġsc ience
sh op
Ġret ail
Ġconf ig
T S
w ith
ĠS ociety
Ġch urch
a ith
ĠS uper
Ġpan el
d es
3 4
Ġgra ph
Ġcent re
Ġhom es
m ore
Ġs and
ĠS y
Ġreg ister
Ġcreat ive
Ġgra nd
I V
Ġst ates
Ġapp rec
ĠPro duct
ĠMich ael
l ike
ro s
Ġl ines
ick s
Ġs y
Ġspe ak
Ġ9 0
Ġsur round
Al so
itut ion
ol es
ra b
Ġh ospital
Ġl ock
Ġse ven
ild ing
az ine
ro te
Ġnot ice
ĠInd ust
Ġbegin ning
3 8
re te
Ġe at
Ġcap acity
inc ip
Ġmen u
Ġp o
ĠH ist
Ġsu ff
Ġche m
Ġadv anced
Ġb row
Ġis land
Ġbe gan
Ġcol lege
!! !!
Ġfin ished
? )
r or
ar ge
pt ion
Ġsp ent
Ġserv ed
Ġcons idered
Ġstat us
S p
Ġm iddle
ra g
Ġdem onst
Ġw id
Ġt al
om s
Ġit em
Ġeven ing
Ġla un
Ġcomp on
ĠSt ar
Ġfin ish
ĠB y
ĠCh inese
Q u
S te
ent ure
ĠT ur
and er
Ġcompet ition
Ġrespons ible
ĠP et
Ġgu id
Ġallow ed
Ġexact ly
M ay
Ġt ur
Ġs ense
ĠP R
ĠR ob
Ġsh own
ĠRe view
I R
ab ase
Ġest ate
Ġchang ed
Ne xt
Ġsat isf
ĠJ es
Ġ3 33
Ġappropri ate
ĠS en
Ġoper ation
Ġoper ations
Ġf old
ĠC ard
Ġev al
Ġpre fer
Ġw ild
Ġgu arant
Ġsche dule
al ing
ad s
ĠQ ue
ĠIs rael
ĠMin ister
Ġbeh av
Ġhig hest
ĠF rom
Ġsp ons
Ġrem ain
Ġ8 0
ĠTe am
Ġsit uation
Ġb ul
ĠS u
ĠS am
ĠS pecial
ĠJ ournal
Ġsec ure
Ġcor ner
stand ing
Ġeffort s
f ree
Ġs ustain
Ġacc om
Ġpre c
ĠM usic
ĠB ig
L C
n own
Ġprodu ce
i xt
Ġm icro
3 9
l or
Ġm er
Ġsh ot
Ġ3 5
Ġsp ring
ec ause
Ġb ill
ĠIn formation
Ġget s
Ġsle ep
g ency
Ġc raft
as y
ĠR et
ĠN ow
b l
Ġf an
Ġpe ace
Ġappro x
Ġb le
Ġst ories
m en
Ġ19 7
Ġcol le
201 9
Ġfund ing
er o
ic ious
ĠS af
Ġst ress
Ġover all
Ġfin ally
Ġaff ord
z y
O nce
p et
Ġ _
ĠM iss
ad ing
ify ing
ĠV e
Ġprocess ing
ĠAng el
Ġinstall ation
Ġassoci ated
f it
n et
Ġjob s
Ġupd ated
Ġinit ial
B S
Ġw oman
ail s
Ġrem ove
Ġincre asing
Ġn ames
Ġded icated
i ers
Ġal bum
Ġinc ome
ĠM ot
am m
Ġout door
Ġswe et
ĠTh om
Y es
m p
Ġp roud
ĠT ime
ĠH ill
Ġsc ient
Ġrele vant
Ġfre qu
Ġestab lished
ĠH is
Ġatt ract
ĠTechn ology
T H
ĠT op
Ġpre d
Ġbel ie
Ġexperienc ed
Ġf ill
um ber
Ġac adem
Ġtri ed
Che ck
S S
n ed
ĠPart y
k en
Ġcomp l
ĠApp le
ĠĠ ĠĠ
i ar
ĠRe al
Ġlink s
Ġarch itect
S ee
Ġsc ore
Ġindividual s
Ġc up
Ġ333 87
Ġas pect
ook ing
Ġ7 0
O P
Ġd ied
lo c
Ġmod els
Ġfollow ed
Ġd ark
ĠâĢ ¦
Ġstre et
v an
y ou
Ġb ag
Ġag ency
Ġval ues
f ast
Ġs ort
Ġc ast
it ely
Ġm ission
Ġd riving
et te
ĠL and
Ġsh ower
ner gy
Ġmil itary
ĠAustral ian
ĠC ustom
Ġst ructure
ign ed
Ġt ree
ort hern
Ġj ourney
enc ies
Ġart ist
ĠAc adem
4 8
Ġd en
Ġal though
Ġmay be
Ġeffic ient
ĠW all
ri e
Ġsc hed
T r
t op
Ġin ternet
in y
ell ig
Ġc ru
ĠP ay
ind er
Ġdocu ments
Ġf ederal
Ġr ank
Ġth reat
i ency
ĠM ex
ut y
ist an
ick en
Ġprodu ced
ĠLe ague
ĠCar ol
9 5
D F
Ġbe ach
Ġhe ard
Ġgo vern
Ġcent ral
Ġcamer a
Ġf ant
ĠF ire
irt ual
ĠTw itter
m ar
Ġbe yond
out hern
ĠF amily
Ġgr ant
ĠT or
ĠR em
omm od
Ġeffect s
B u
R A
Ġc ry
ĠT em
Ġstand ards
ĠL im
Ġpresent ed
3 1
Ġnear ly
ĠSec urity
Ġmot or
k i
Ġw ife
ol ic
ĠF ood
Ġsl ow
w o
Â Ń
sh ire
Ġinf o
augh t
Ġc old
ter m
ual ity
Ġfam ous
ĠBl ue
u ce
Ġf at
Ġfor ce
ul a
Ġsh ared
Ġstra ight
T ra
Ġw ire
Ġad op
ĠMed ia
Ġmult i
rup t
y ing
Ġw ine
Ġcomp ared
ound s
B l
c ont
k y
Ġs ports
Ġg ain
ĠM aster
ac ing
Ġgu ests
S ince
ĠM el
ul ed
te xt
ĠIn vest
Ġsp irit
Ġpost s
Ġche ap
S A
Ġf ans
an o
Ġpro s
ĠCh ic
O D
i ately
Ġp en
ĠP ress
Ġv oice
ĠSc ott
O C
in er
Ġl ength
ĠD iv
Ġ200 7
Ġsom etimes
Ġe ight
ol a
Ġmy self
Ġadd ing
Ġshe l
Ġexperienc es
ĠM ass
ĠBe ach
Ġproper ties
b ed
Ġprim ary
ĠV is
Ġvol unte
Ġchalleng es
l ist
ĠG rand
os h
ib ly
Ġpol ic
ĠMed ic
Ġcomm it
Ġbig gest
Ġsh opping
ĠU N
ber g
Ġtrans l
Ġdri ver
Ġlaw s
at ically
Ġf ashion
Ġl ack
ĠB ur
pp ing
act ive
Ġshow ing
Ġvide os
6 6
ĠA ward
ĠL ou
Ġopen ed
ĠHot el
z er
Ġv an
Ġincre ased
ĠFr anc
Ġop in
H ome
S P
un ning
Ġpie ces
Ġestab lish
D r
n o
ĠG lobal
und red
Ġfe et
Ġform at
Ġinit i
H ave
ĠD i
Ġhe avy
Ġjo ined
F irst
P ost
Ġro b
Ġexper ts
Ġmin imum
Ġsur face
Ġoper ating
w in
ĠN or
ree k
Ġmem ory
Ġdevelop ing
Ġdepart ment
A b
n el
s m
ienc es
E E
ĠV ir
Ġfoot ball
et ic
Ġpl ug
Ġcour ses
4 7
r at
Ġw rote
est ic
Ġpl ants
ous ly
ĠAm azon
Ġdise ase
Ġd ining
Ġl ux
ĠU s
Ġfore ign
r ated
re me
ĠE conom
Ġj oint
Ġcont roll
Ġim ag
201 8
Ġs elling
Ġun iversity
Ġadv ance
Ġinvest ig
Ġcan cer
Ġcont ains
go ing
Ġmaint ain
ap ers
Ġte aching
Ġsp read
Ġw at
il ed
Ġre asons
ĠM ad
Ġeas ier
Ġtest ing
Ġturn ed
Ġm is
ĠC up
ĠA lex
Ġhelp ed
Ġsign ed
Ġiss ued
Ġfriend ly
ĠChrist ian
ĠMed ical
S C
Ġg lo
it a
Ġj ournal
Ġcomm unities
vent ion
Ġun its
Ġdes k
e en
cept ion
ĠCon st
Ġclass es
Ġwe ar
ĠN et
Ġthem e
Ġref lect
Ġclean ing
Ġofficial s
Ġrestaur ant
Ġnorm al
in i
Wh o
Ġfeel ing
ĠJes us
i ance
se qu
Ġkeep ing
U p
ĠT re
ĠUn ion
ĠSh ow
0 4
I nt
ĠP an
ad ian
un ction
ĠF e
Ġlo an
Ġeconom y
E very
Ġl ots
ĠE qu
ĠOr gan
g a
ĠA tt
Ġpower ful
Ġlim it
C T
Ġ ur
ĠK ore
Ġev idence
Ġrel ax
Ġmaint enance
ĠTH E
I F
M A
Ġf ather
ĠI P
ff ect
Ġtick ets
n ight
Ġtop ic
Ġcon ven
Ġfund s
Ġdou b
Ġto w
ĠAr ts
Ġform s
Ġtem plate
b ut
as ure
ĠM ont
Ġsur v
I nd
d o
Ġh um
ay er
Ġmin ing
ar ily
ĠS and
id ge
ĠM er
ĠD et
ĠRep ort
Ġe yes
ĠC A
ĠW ord
ĠCl ick
Ġprovid er
Ġs olid
ĠBro wn
Ġorganiz ations
Ġc as
oo p
ĠL et
ĠL ove
ĠV ict
tern oon
Ġc art
Ġd aughter
all s
ific ate
iqu es
Ph one
r ical
Ġ ice
Ġmed ium
Ġcre am
Ġsecond s
ĠFr ance
W ill
ĠG al
Ġbro ther
Ġocc ur
Ġant i
Ġlaun ched
it ors
ri a
The n
Ġme chan
ĠCol or
Ġhim self
ate ver
EN T
Ġparticular ly
g l
Ġh ar
ĠC ert
Ġco ast
Ġpop ulation
Ġanal y
Ġe lection
il er
Ġl ibrary
ant ly
ip l
Ġrec ords
end er
Ġvisit ors
Ġimmed iately
Ġindepend ent
N ote
T M
a ctions
p oint
v ision
ĠF und
ĠL ab
ĠN Y
Ġstud ies
Ġdetail ed
m iss
ul ations
Ġpl astic
Ġappro ved
ĠGerm any
h aps
Ġn om
ĠIn f
Ġset s
Ġpass ed
is hes
Ġclaim s
c raft
ĠS ol
Ġcl oud
Ġsur vey
d s
ĠF il
Ġse a
ĠSm ith
Ġl oved
Ġst ick
Ġsh ip
Ġacc ommod
fere nces
ĠDe f
Ġcoun ter
c her
ĠL ight
ĠN ov
Ġide al
ĠMan ager
Ġroom s
Ġf lex
Ġst y
ĠL ong
Ġsupport ed
Ġmov ed
at in
en ed
Ġpl aced
Ġsee ing
Ġmove ment
Ġfram e
o ices
ĠC y
Ġprof ile
Ġdiscuss ion
ĠB ill
Ġwork ers
Ġcor porate
app y
Ġleg isl
as er
ult ure
Ġ4 5
Ġwin ter
E W
ur rent
U se
re hens
Ġf ra
ĠT om
Ġ5 00
ĠAnd roid
ocol ate
U N
a it
y er
Ġe gg
Ġapp e
ens es
Ġexpl ore
Ġabs olut
Ġing red
or ney
ĠL ibrary
Ġcol ors
Ġdist rict
Ġcateg ory
T oday
e ch
Ġ u
Ġt rou
or ation
am in
oo st
Ġchang ing
Ġsw itch
Ġfav our
Ġc overed
it ude
ir ation
ĠTr ust
Ġfab ric
Ġre ference
Ġr at
Ġen s
Ġfl ight
Re ad
ĠR ad
Ġhand le
Ġfac ility
Ġleaders hip
Ġadvant age
p aper
ct ors
ĠA L
ĠW hen
Ġserv ing
ĠGe orge
Ġarr ange
c ol
h t
Ġcent ury
ĠOff ic
g en
Ġp oll
ĠE nergy
Ġval id
Ġclos ed
O ther
Ġ er
Ġr ich
ĠJ ew
M an
S E
oth ing
Ġconf irm
Ġbuy ing
Ġsit u
c an
m ond
ar ian
Ġre pe
Ġpart ies
Ġmin ute
is her
Ġco ach
pect ive
Ġ200 0
Ġinstall ed
ret ary
Ġexecut ive
Ġpract ices
ĠW estern
ent ed
ew ork
Ġprom ote
G o
ĠM useum
ĠPro te
ĠAs ia
ĠSer ies
Ġexerc ise
ĠH am
ĠL ist
ant ic
mer ce
Ġgood s
Ġthous ands
Ġt on
Ġl uck
ĠC D
Ġon to
us ing
ĠP lease
ĠSt and
land s
semb ly
N A
b urg
he ther
Ġl iter
Ġex change
Ġsupp l
Ġvis ion
RE E
Ġele ments
Ġdat abase
H el
ce an
ĠD en
ĠAd d
ĠRo bert
Ġtalk ing
P C
r im
Ġrun s
Ġphot ograph
Ġn et
ol ars
ig an
ĠC at
Ġprogram me
Ġmethod s
L A
r ont
Ġs ch
ĠS a
ĠB ack
Ġres ource
Ġext rem
Ġdist ance
Ġest im
Ġregist ration
W ell
l ife
Ġw el
Ġc ities
Ġbe at
Ġro w
g n
Ġc atch
Ġh us
Ġfor get
os ition
Ġen able
Ġdis p
Ġassist ance
Ġdru g
ĠT our
Ġv en
g age
i us
ĠEn ter
Ġcomfort able
Ġdefin itely
Ġprofession als
ĠChic ago
ar io
ĠO per
Ġwin ning
p ond
Ġh undred
Ġe arth
ab ilities
ĠL o
ri p
Ġres ist
Ġaf ternoon
k ins
Ġs now
is ode
Ġsc ale
Ġexc iting
rast ructure
Ġstru gg
it ness
ĠO F
Ġut il
4 6
Ġ error
at re
Ġb an
Ġsh ipping
Ġgreat er
Ġ200 6
ĠHe ad
ĠLe ad
iver se
Ġwa iting
d ate
Ġocc as
Ġprep ared
w est
il i
ĠW omen
ative ly
Ġfind ing
' .
Ġc ore
Ġc itiz
ess ions
Ġfe es
ĠAd minist
ĠCong ress
f ol
em porary
Ġstore s
re ens
al og
Ġro of
ĠAt l
Ġadminist ration
M ake
Ġ ir
Ġyou th
ĠF estival
Ġcar s
Ġsepar ate
h ab
re land
ĠW il
ific ations
Ġinc or
re es
um in
ĠO ld
av en
Ġdesign s
0 5
F ind
Ġc red
Ġd ig
clud ing
Ġb ird
Ġb rief
Ġto ward
Ġfl av
Ġland sc
Ġ eth
ers ey
ac he
R ec
ide o
Ġcol our
Ġf em
Ġth read
ĠT im
ive red
ens ions
Ġsm ooth
Ġenvironment al
Ġsqu are
Ġstreng th
Ġbatter y
Ġc ivil
ig ious
Ġcount y
Ġpark ing
ester day
Ġ ï
ic ip
O ver
b ody
es h
ĠE U
ud d
erson al
Ġown ed
ĠRo om
t r
rom e
Ġteac hers
Ġtru ly
ĠDem ocr
Ġdire ction
T C
f riend
en a
Ġf ish
ic ed
Ġpr incip
Ġra ise
Ð µ
Ġ iron
Ġg one
Ġclass ic
Ġteac her
Ġbal ance
Ġaw esome
ĠH y
ĠCr usher
Ġencoura ge
0 8
M r
Ġ und
le ar
Ġwant s
Ġhappen ed
Ġhous ing
Ġpolic ies
et ing
ĠR oyal
ear s
Ġprep are
ĠSpr ing
Ġcabin et
ar ry
Ġre ached
Ġcall s
Ġopt im
gra de
R ep
c ell
ro ad
Ġk ick
Wh ich
r ative
Ġ ã
er ation
ĠC EO
ĠA ud
ĠI de
Ġv s
Ġpresent ation
Ġrad io
Ġtemper ature
S im
Ġch ief
Ġdisc over
Ġnum er
Ġcrit ical
Ġs port
is er
Ġcomm and
Ġshow ed
por ation
y an
ĠB er
ĠB et
Ġrec ip
Ġlook ed
Ġdescrib ed
4 2
6 8
ĠM us
ĠO h
ap os
Al though
Ġmention ed
m es
ĠL os
Ġse at
Ġch art
Ġmod e
D uring
or ry
nd ed
om et
Ġal one
ĠH ospital
i at
Ġem ot
Do es
Ġf uel
Ġp oor
Ġfor um
ir med
ĠR E
ĠDe v
Ġart icles
ĠAd v
el ine
Ġsc ene
Ġvis ual
Ġsupport ing
rehens ive
6 9
i h
ĠS et
Ġmarket s
iam ond
Ġbeaut y
ĠCont rol
Ġcal cul
pre ne
Ġtag ged
C E
ĠC ode
us ion
ul ate
ĠD isc
Ġwas te
Ġprof it
Ġmonth ly
Ġdi agn
Ġveh icles
Ġmax imum
5 8
6 7
ĠS ee
ĠL ord
Ġlove ly
Ġdeterm ine
ĠAcadem y
Ġqu ot
el ess
ĠEx per
Ġtechn ologies
wh ile
O f
k in
Ġh arm
ĠA ff
Ġwin ner
Ġemploy ee
K e
al ian
Ġre new
Ġbe g
ĠT est
ĠH ere
Ġi Phone
Ġwind ows
ĠSo ft
Ġapprox imately
0 9
Ġs pl
ĠB ed
ab led
ri er
Ġcl imate
Ġra in
Ġloc ations
Ġsl ight
Ġmanag ed
0 2
E ven
M ost
he nt
Ġp al
ut s
Ġsh ape
Ġgu est
Ġindust rial
ĠSte el
0 7
b ur
ĠCh ief
Ġprocess es
âĢ¦ .
li ance
Ġconnect ed
ĠMicro soft
ĠP eter
ĠB all
os is
Ġdel ivered
Ġinj ury
b ol
ed y
ĠW ell
ĠPre m
Ġaud ience
in ations
Ġf aith
ĠW ay
Ġha ven
ĠWe ek
ĠEngine ering
I I
M ar
Ġt aste
Ġc ere
Ġart ists
Ġupd ates
Ġill ust
R em
Ġb owl
ve ll
Ġdo ors
lic ation
Ġra ised
Ġident ify
V E
k er
Ġ <
re prene
Ġd inner
ig ration
ĠD ou
Ġr ide
Ġup coming
Ġ3 00
ĠCh ampions
Ġinc red
Ġcall ing
Ġinter ior
Ġm ort
ĠU nder
og rap
Ġrem ains
Ġaltern ative
ĠVir gin
P er
en ch
Ġp sych
an i
ow nt
ver se
os en
or ia
Ġtra ding
Ġmiss ing
ĠGerm an
or ter
Ġp in
Ġde pos
ĠO l
Ġca used
L earn
Ġin ternal
le te
Ġgra de
Ġs ources
ĠI reland
ĠPro v
Ġth row
ve re
Ġvisit ing
p on
Ġhe aring
Ġch ain
Ġpass ion
Ġspend ing
Ġappl ied
ĠS ar
Ġcontin ued
Ġrese arc
ĠPol ice
ĠRuss ia
Ĥ ¬
ĠM o
ĠM ain
ĠD ub
Ġp air
ĠC H
ĠP ack
ain less
ĠO N
ĠCh air
ĠEx ecut
T A
ĠR est
Ġcertain ly
Ġhus band
) ;
T ake
ĠM P
Ġst ruct
ĠE nd
Ġr ise
cl es
Ġfl u
Ġprevious ly
eal and
Ġs ociety
Ġb reat
ĠB al
ac hel
Ġ3 2
Ġsa v
Ġreg ional
aw ay
Ġmanufact uring
Ġsol ar
4 3
5 9
Ġc ouncil
ord in
ove l
Ġdec ide
Ġve get
An other
Ġinsp ired
Ġfig ure
ĠP riv
Ġsw im
Ġbra in
i en
Ġt ab
el ines
ĠP enn
Ġsu gar
Ġdes pite
wh ich
Ġocc up
ĠAut hor
ĠAfric an
Ġf ell
Ġother wise
Ġgener ation
Ġemer gency
B I
Ġa p
Ġgu ys
v a
Ġl unch
Ġn ar
out s
Ġdo ctor
Ġsub mit
Ġsur g
ĠÂ »
ĠRuss ian
Ġmanufacture r
Ġsuit able
F L
Ġm o
Ġd yn
ul ated
Ġrec ipe
Ġact ual
ĠSc ot
ĠCan adian
li ers
Ġinnov ative
Â °
at o
if ts
Ġdom ain
Ġtick et
0 3
Ġd ram
if ically
Ġnot es
C ol
Ġ 01
Ġf elt
ly ing
Ġlight s
Ġcomb ination
Ġengine ering
Ġfix ed
Ġfant astic
r ick
Ġp ump
ĠC all
ĠF ort
ĠH uman
Ġr ule
Ġsc ript
Ġ200 5
7 7
F ollow
b an
b ar
p an
r ition
Ġg un
Ġg allery
ĠF ull
ĠCo ast
Ġconc rete
ĠAcc ount
Ġchem ical
0 6
D S
k ing
Ġle aving
ĠIns urance
ĠMex ico
ed ia
ĠS up
co hol
Ġlar ger
ĠLou is
B ook
ĠI ll
ĠT imes
m l
Ġf o
th at
St ud
ĠPe ople
Ġw est
ĠA fter
Ġar m
Ġspe ct
Ġshe et
Ġche ese
P M
â Ħ
ĠZ ealand
Ġoffic er
Ġrecommend ed
Ġappear s
Ġpartners hip
al a
Ġar rest
Ġtrans form
Ġcr is
Ġvol ume
Ġlic ense
ĠB i
ĠH and
Ġsh ut
Ġhtt ps
Ġgirl s
st e
ĠC ost
cl ing
Ġvisit or
Ġcover age
b ury
i i
Ġd ial
and a
Ġwas n
ac ific
Ġpur s
Ġanim als
Ġb on
Ġl ose
Ġreturn ed
M any
U T
ĠA R
ĠM A
Ġde als
up s
os ing
ĠU se
Ġim pl
ult y
Ġsp ok
Ġbr ight
ĠWh y
Ġwebs ites
Ġach ie
Ġextrem ely
st one
ĠG ame
Ġk ing
ĠGu ide
Ġto m
Ġd im
ĠM id
âĢĻ .
Ġbut ter
Ġra il
Ġent ertain
Ġenjoy ed
ĠThom as
ĠH D
ĠK h
Ġed ition
?? ??
ĠSystem s
Ġfeed back
Ġvict ory
ĠMach ine
Ġacadem ic
b re
Ġn urs
Ġcons id
Ġbro wn
Ġcomb ined
Ġfeature d
Ġconcern s
u a
at ures
il it
Ġeduc ational
C all
W ork
ES T
Ġparticip ants
Ġaud io
ĠSupp ort
Ġ icon
ĠA ccess
ck ing
Ġcomp rehensive
Ġbel ong
Ġed ited
Ġstrateg ies
B ecause
G B
Ġf ol
Ġbe coming
Ġ3 6
ors hip
Ġrent al
Ġcandid ates
w ater
or a
Ġm ental
ĠS qu
Ġan g
ĠH aw
In st
Ġed ge
E d
f a
Ġb ought
ic ian
Ġd u
Ġe ast
ĠG en
ĠThe se
Ġsc en
Ġem p
Ġrequ ires
¿ ½
Ġin put
ĠSt r
ĠCh ris
Ġhelp ful
Ġchar ges
opp ed
Ġc row
âĢ ľ
ter ior
ult ural
Ġpres ence
Ġview ed
Ġcontin ues
Ġbas k
Ġfour th
P e
n am
it age
an ish
Ġre b
ĠJ o
ĠJ un
Ġad apt
Ġcomm ission
Ġdi et
hent ic
Ġt un
el ly
ren cy
ĠFr ank
ĠAir port
g ment
r an
Ġh ab
ĠS ports
Ġn av
ĠM a
ĠF air
Ġle aves
ĠV iew
Ġun less
Ġcomm ittee
Ġsound s
ic ians
ĠC ross
ĠP ass
Ġpl ate
ov al
Ġfl at
Ġgu ess
Ġfun ctions
ĠEn vironment
Ġingred ients
k nown
Ġt ill
Ġf illed
ĠA wards
ra in
ĠL ink
Ġex clusive
Ġr ub
Ġcomm itted
Ġaccount s
S m
p id
Ġre venue
ĠM obile
og a
Ġpropos ed
G u
c a
er ia
Ġsh ares
Ġpl enty
Ġsur pr
Ġconsum er
Ġord ers
5 7
s pe
re ate
Ġin ch
ĠT able
ĠL ive
ĠG ar
ĠO ver
Ġj ump
Ġte a
Ġag ent
Ġair port
Ġautom atically
i as
Ġre ality
ap ore
ĠCol umb
Ġhold ing
Ġfeat uring
V is
ĠF REE
Ġare n
ost on
Ġup load
Ġmin i
Ġcut ting
Com p
Ġappe ared
âĦ ¢
Ġa ctions
ĠE xt
ĠJ ose
Ġtra d
Ġtop ics
Ġlight ing
Ġexpl ain
ellig ence
er ies
Ġv illage
Ġend ed
Ġwatch ing
Ġcollabor ation
ĠC R
Ġal le
Ġtechn iques
Ġconf irmed
Ġperform ed
Ġtri al
Ġcamp us
,,,, ,,,,
Ġintrodu ced
Ġsil ver
Ġb ike
Ġm ine
Ġg ather
ĠP ub
ri z
Ġapp eal
Ġke pt
ĠAss ist
Ġseek ing
p o
in ct
ĠF arm
Ġcon cent
pr int
Ġs ample
Ġch annel
Ġkn ew
Ġra re
Ġstart s
Ġed itor
Ġinf rastructure
ĠTra ining
Ġlearn ed
Ġneigh bor
ĠAngel es
Ġsched uled
P art
Ġf estival
ro y
ĠE r
Ġte ach
Ġhigh light
Ġlux ury
C O
Ġcon vert
ĠL og
Ġcomp ut
Ġinst itut
Ġass ets
Ġhapp ens
Ġinvest igation
Ġwalk ing
Ġmeas ures
Ġinnov ation
Ġcandid ate
sec ut
Ġenh ance
ĠCarol ina
T wo
Ġm ir
Ġh yd
Ġl amp
ra ce
Ġk it
ĠK n
Ġfocus ed
ĠExecut ive
l ines
Ġlead s
iqu id
Ġext ensive
Ġelect ronic
ĠPr ice
G E
ĠM en
ĠAre a
le ts
ur ate
ĠE arth
Ġbo at
Ġput ting
Ġcult ural
ĠMart in
E ach
l iam
ail able
af e
Ġexc ited
Ġparticip ate
H i
m ary
Ġb oost
Ġy esterday
Ġwh atever
O h
z en
an ing
Ġe lement
ell a
int age
Ġsupport s
ourn ament
Ġsett ings
Ġl abor
ĠW in
ak s
ber ry
ĠV er
Ġstud io
Ġimport ance
Ġallow ing
Ġopin ion
% .
i ability
u ction
he ster
Ġo d
ĠP oint
ĠJ ud
Ġco vers
Ġprovid ers
ĠQ uality
Ġel ig
Ġr ing
Ġ4 8
Ġmajor ity
urb an
ĠL u
Ġacc ident
Ġorgan is
4 1
5 6
H S
Ġm ist
ĠB as
ĠSt one
Ġsc ored
Ġro t
bs ite
Ġpur pos
Ġfil ter
Ġbring ing
Ġ ;
Ġpro p
ĠN OT
Ġfield s
Ġimprove ment
Ġadvert ising
ĠA rab
Ġbe comes
Ġj u
ĠFor m
Ġfact ors
Ġcirc um
liam ent
9 7
it oring
ly mp
ĠD om
ĠF ederal
Ġold er
ĠFin ancial
Ġappoint ment
Ġinstru ctions
G ood
G reat
ĠW al
Ġ200 3
Ġes c
L S
e per
Ġb es
ov es
ĠPro cess
Ġthough ts
ĠPar is
Ġdeb t
ĠJe ff
res pond
Ġcomp ar
Ġwork shop
Ġ0 4
Ġtre es
P r
W hether
u able
ĠW ild
qu ir
ell er
Be fore
Ġrespons ibility
Ġneg ot
Ġa wards
ĠT ax
Re g
Ġmembers hip
iven ess
ĠMarket ing
Ġreve aled
U M
Ġm agn
Ġe c
ĠM ult
ĠT O
ut ch
ĠD ownload
Ġout put
amp ion
Ġcar ried
az z
ĠChe ck
Ġflow ers
Ġc ooper
ĠL ee
ĠO k
Ġte nd
ĠHist ory
ĠC as
ĠN iger
anc er
Ġadv is
ixt ure
ĠM S
Ġmin or
Ġlist en
ĠIr an
Ġnumer ous
U L
c ious
i ors
Ġapp s
Ġinte g
Ġexp ensive
Ġmeet ings
Ġdri vers
Ġpract ical
ĠGe org
__ __
r ance
Ġc ake
ĠW alk
Ġk illed
Ġdel icious
Ġbreak fast
ĠJapan ese
Ġf le
ĠS P
ĠV an
Ġte ch
Ġdec isions
Ġafford able
H A
p ons
ĠB oy
Ġman ual
ang ed
ĠTh anks
ĠTra vel
ĠBo x
Ġanim al
ĠAnn ual
Ġproced ures
ĠRe ad
ĠPh ys
ĠAnd rew
Ġsal t
Ġask ing
Ġbus y
Ġeffic iency
Ġreplace ment
9 8
V iew
Ġb attle
Ġm ent
ĠS ale
ĠA S
ĠD igital
Ġph il
ĠRe v
Ġcould n
Ġi P
p es
Ġch ocolate
Ġwar rant
l ig
Ġt ables
Ġres idential
Ġsa uce
Ġdel ight
ĠChild ren
C ar
on to
or ough
Ġan c
ĠL iving
ĠG arden
Ġrec overy
Ġmil k
Ġcharact ers
Ġimplement ation
Ġy es
ĠL in
erv es
Ġcelebr ate
ĠOb ama
: :
g as
l ook
Ġt error
Ġs essions
ĠM ake
ĠSt ation
Ġdis app
Ġar gu
Ġob t
Ġpub lish
H is
d ays
r as
r um
ĠC ast
ad ium
ĠF L
ĠO il
ark s
Ġdef ault
201 7
Ġs am
ĠA C
Ġel im
Ġess ay
Ġaward ed
5 2
c m
Ġa id
ĠU l
ak ed
Ġag reed
Ġrest rict
Ġpain ting
Ġmag azine
Cont act
C o
Ġ )
ĠE p
ĠJ ul
end ing
com p
ĠWh o
Ġsk ill
Ġbuild ings
ĠIt aly
ĠBu ilding
clus ion
Ġrout e
Ġf if
ĠSe a
Ġreport ing
Ġstre am
Ġpurch ased
Ġaccept ed
Ġsustain able
T R
Ġthe rapy
ĠC oll
im s
end ar
Ġcol umn
pect ed
Ġaut o
ĠÂ ©
Ġve ter
Ġdistribut ion
c ar
or ters
Ġv irtual
Ġconf lic
Ġgl ad
Ġconst ruct
Ġbrand s
Ġinflu ence
ĠF un
Ġwill ing
av a
Ġpay ments
Ġemploy ment
Ġmach ines
ĠProduct s
Ste p
ownt own
Ġt ast
Ġper man
Ġam b
Ġent ered
Ġrem oved
Ġimpro ved
Ġcompet itive
idd en
Ġqual ified
Ġexhib ition
Ġassess ment
Ġpurpos es
3 00
c ase
ĠI d
Ġcon text
ĠH en
ĠH om
erm an
ĠIt alian
ann a
Ġrestaur ants
Ġbirth day
M C
V D
s he
ĠC e
ĠM iddle
ĠP age
est ion
ear ning
Ġres olution
Ġworld wide
uc lear
ĠComm unic
Ġtot ally
opy right
Ġlab el
Ġaspect s
Ġtom orrow
Ġthe r
is ters
Ġin tern
Ġk m
Ġwhe el
ĠEx press
Ġfail ed
P ress
S ec
l ow
Ġc op
ĠP ract
Ġwh om
th is
Ġtr uth
ĠAn y
ĠAN D
b i
ĠS ign
ĠT erm
Ġbr ings
Ġplan ned
Ġfil ed
Ġdom estic
Ġs ides
ĠS S
are n
du ate
Ġacc ord
Ġconf idence
Ġspec ifically
ĠMin istry
ĠAb out
Ġaware ness
Ġcommit ment
m ony
ĠF ed
Ġag encies
Ġdes cription
ivers ary
ploy ment
ĠSm all
Ġcell s
Ġintegr ated
i ated
it ar
Ġo re
ĠD C
Ġat h
ĠJ ersey
Ġthere fore
Ġdet ect
Ġchar ged
Ġob vious
ĠSte p
yd ney
Ġcompon ents
ĠM ur
ak istan
Ġper haps
ĠJohn son
Ġhost ing
Ġclear ly
Ġapart ment
Ġt ail
Ġn or
us hed
Ġsmall er
enn is
S pe
Ġth r
ĠB oston
se y
Ġch icken
ĠO pt
Ġqu ant
Ġinvest ors
ĠAg ency
Ġprem ium
Ġeval u
W elcome
Ġb order
Ġn ine
ur ies
ĠE nt
Ġch at
ĠSt ore
iz er
Ġspe aking
Ġcr im
ĠYou ng
Ġappear ance
Ġpers ons
Ġadult s
Ġfavour ite
D ef
Ð ¾
Ġc ro
Ġd ance
ĠJ im
Ġany where
Ġgener ally
Ġfore st
Ġexpert ise
5 1
] .
d f
t a
z il
Ġt ro
ĠT oday
ere st
Ġfin ance
Ġ200 4
Ġabsolut ely
e qu
Ġf ruit
Ġm al
ĠG ames
ĠJ ones
Ġpriv acy
Ġexam ples
ĠDiv ision
ĠC ond
ir ms
Ġle ather
Ġle ague
cl ass
ĠPr int
Ġsche me
Ġconsid ering
u ing
ĠD rive
ĠF ar
est yle
all ed
ĠCount ry
as p
as ters
ĠF ind
Ġsom ew
Ġtest s
A B
R S
Ġm useum
ĠC reat
ĠCon nect
Ġrece iving
ĠInst agram
Ġfamil iar
bour ne
h tt
i est
er ts
Ġs an
Ġb ond
ĠC ath
um es
Ġk id
co in
Ġpar am
Ġlic ens
Ġclin ical
ĠFranc isco
n s
Ġ ign
Ġc able
Ġp ush
Ġd anger
ĠH ave
Ġ( ?)
Ġse qu
ĠSp anish
Ġfood s
Ġdra ft
Ġtalk s
Ġmar ried
Ġfail ure
Ġregular ly
Ġt ut
et ime
Ġfor ces
ĠF ac
ab et
Ġex ternal
ĠO S
ĠJ ob
ric s
Ġoffic ers
Ġwrit er
A Y
Ġ upp
Ġpro ceed
ang es
Ġcol oring
Ġrem aining
Ġsong s
Ġri ver
ĠSaf ety
Ġb ench
as tern
ĠS C
ĠP DF
ĠB ath
ĠB rand
ri age
Ġpre par
ool s
Ġsuccess fully
Ġhous es
ot o
am ber
ĠO lymp
ans ion
ib ilities
Ġco al
pro fit
ĠPer form
Ġsurround ing
f e
h and
in ar
ĠS earch
ĠB ul
Ġdef ined
Ġinterest s
Ġhost ed
Ġrecord ed
Ġregul ations
Ġslight ly
5 4
Ġe ating
ĠP ri
ĠB log
ĠF OR
ĠL ittle
Ġme ant
Ġmost ly
201 6
Ġauthor ity
Ġcitiz ens
t ion
ĠM os
Ġst ars
ĠB lo
ap ed
Ġsp aces
Ġcre ation
Ġauthor ities
Ġmount ain
Ġcircum st
m ade
p ret
v y
Ġth ick
Ġn ative
ĠM ax
ĠE ll
Ġr id
ĠSt art
Ġsp r
Ġmanag ing
ĠSing apore
D ownload
M E
or able
it z
Ġo ven
ĠS anta
ot hes
Ġne ck
Ġsub mitted
AT ION
Ġansw ers
ĠSal es
Ġvot er
Ġfem ale
M P
f in
m osp
ĠC ur
Ġn ovel
Ġpl ays
ĠK en
Ġoff ices
ĠPro per
ren ce
Ġmot iv
Ġep isode
B est
S ub
Ġg olf
ĠV ideo
Ġqu ote
ĠIde as
ĠVirgin ia
J ohn
ly n
Ġme al
Ġcor respond
Ġstrateg ic
F C
Ġm ur
Ġl it
ĠP acific
ĠR ose
rel ated
. '
ĠL ocal
ĠY OU
ĠIs l
ĠPol icy
Ġcommunic ations
ĠTw o
ĠChar l
Ġsup erv
ĠMedic ine
Ġresearc hers
8 6
A A
r ator
x y
Ġa st
ic ing
ĠS n
Ġstand ing
ĠKore a
at i
Ġfor g
ge nd
ĠL LC
ĠN ight
Ġdis h
ott en
Ġreturn s
Ġtre ated
Ġmanufacture rs
re ase
Ġp ed
Ġy ellow
Ġon going
ĠA T
ĠM ic
Ġhe ight
ĠSt at
Ġrec y
Ġsec ret
Ġ rom
Ġex port
Ġob tain
Ġple ased
Ġdepend ing
Ġproced ure
ĠSum mer
ĠRich ard
Ġpred ict
Ġbask et
J oin
in ating
Ġp p
Ġd er
Ġind ex
Ġrel iable
rit ing
Ġbook ing
Ġhard ware
b ration
Ġp od
ĠA D
ĠE very
Ġcont emporary
int on
ock et
ĠPr ime
Ġextend ed
ĠLim ited
Ġc oc
Ġf ro
ar p
ĠA sh
ĠH or
ĠE state
ĠN orthern
Ġr ug
Ġch osen
Ġcomp liance
ĠSt ock
ap es
Ġmin ister
Ġrem ote
ĠSh op
Ġweek ly
ĠMc C
Ġfre ed
Ġconsum ers
A ut
A meric
L ove
w ich
il ly
Ġinter face
Ġorgan isation
ĠFor um
eng er
Ġcert ified
Ġtre nd
Ġconduct ed
on om
Ġf ear
Ġp il
Ġp ure
Ġth us
ĠT ri
ers hip
ĠL ine
Ġar ts
Ġent reprene
ĠDo es
hold ers
Ġpow der
het ic
Ġapprec iate
. ;
u zz
Ġf aster
âĢĻ ,
ĠR s
ĠG h
Ġde ck
ind s
Ġsign s
Ġjo ining
Ġrecogn ized
Ġhistor ical
Ġd ates
ir cle
Ġmon itor
ard ens
Ġun ivers
ian a
we et
Ġappro val
ĠSoft ware
6 3
8 5
or al
Ġb ound
ul ous
Ġph arm
Ġspecial ist
Ġmess ages
Post ed
G O
H igh
h us
Ġh ire
ĠF oot
Ġj ack
Ġtra vell
Ġra pid
ĠMan ufact
Ġ.. ..
Ġattend ed
Ġentertain ment
8 00
Ġ id
ou ston
ĠC amb
ut ation
ĠL ow
Ġk ill
ĠWilliam s
Pre vious
Ġguarant ee
Ġneighbor hood
Ġs ink
Ġs oul
el a
os ite
Ġdo gs
Ġ3 7
Ġadv oc
Ġdef e
ĠMich igan
Ġh all
ol ve
ol ly
Ġcon v
ans as
Ġres ume
Ġknow s
ik i
Ġadv enture
Ġbro ken
fort un
Ġlay er
E P
d y
Ġc ute
ot al
Ġsh oes
Ġun c
ens ation
ok ing
Ġorgan ic
Ġredu ced
ĠSil ver
T ER
Ð °
he m
ĠM ike
ĠP in
Ġst ated
Ġv ir
Ġnot ed
ĠHel p
Ġarriv ed
fol io
? !
Ġl ift
ĠD u
Ġhe l
igh ter
ick et
Ġsa ving
Ġatt ached
ple te
Ġrelations hips
. -
B el
g ers
ĠS ite
ĠS ydney
ĠB ang
ĠK itchen
Ġdesign er
Ġbeh alf
Ġful f
Ġmat ters
Ġjud ge
y th
ĠC am
un ting
ĠH on
ĠSm art
y ard
ĠD ie
Ġinc ident
Ġcar bon
ĠOr der
Ġdest ination
ĠOh io
g ent
ĠA venue
ĠJ on
Ġcont est
ob by
az e
Ġve nd
Ġpri ze
ĠDan iel
Ġmedic ine
p ack
r ig
ĠP ot
Ġcre w
Ġext ension
Ġpay ing
ĠBro ok
U nder
l s
ay lor
Ġal cohol
ĠCh all
Ġspe ech
ĠCont act
wh at
Ġlog o
ĠDis ney
Ġfig ures
D id
Ġs ister
Ġd ie
ĠS her
Ġst ake
ĠF act
pe ction
ial ly
ĠK im
ĠPl ant
Ġcr ushing
Ġprom pt
ĠKing dom
Ġsch olars
a wn
ar ly
ĠS A
Ġ1 50
ĠH ard
Ġrec ording
Ġspec ies
Ġinsp iration
Ġtru ck
ĠProfess ional
Ġsurg ery
a o
y ers
Ġb urn
el er
ul f
Ġro ot
Ġvis ited
Ġ200 2
ĠPl ace
Ġwor ry
ic an
ĠS outhern
Ġst unning
ck now
ĠK ey
Ġdec ades
let ter
Ġinvol ve
orge ous
R C
R L
ĠC ra
Ġg ro
qu ar
Ġj ew
Ġ3 3
ie ce
Ġam end
ĠCl in
Ġnetwork s
Ġcook ing
Ġattack s
9 6
w orth
Ġt ight
ĠP rom
ab eth
um er
du ction
ord ers
Ġknow ing
Ġaut hentic
ĠLe g
ĠWe bsite
Ġmain ly
Ġbehav ior
w all
ĠM ap
Ġout standing
Ġcert ificate
force ment
o ir
Ġc orn
ĠR ights
Ġch oo
Ġ3 4
Ġoper ate
ĠAut o
Ġgradu ate
ĠFore st
Ġdoll ars
Ġs yn
ĠS enior
ĠT er
Ġpro of
ER E
Ġblo gg
ĠSec retary
Ġguid ance
Ġupp er
Ġs izes
ĠK now
Ġinv ited
Ġphot ography
Ġorig inally
Ġz one
C omm
Ġd uty
ĠJ r
Ġacc urate
Ġtw ice
Ġval uable
yl van
Ġmix ed
Ġneg ative
f ront
s ite
ow ing
ĠF re
te rest
Ġwould n
aut iful
Ġeffect ively
ĠSte ve
Ġaffect ed
Ġdru gs
ĠProfess or
f rom
Ġt ile
Ġf ellow
un a
Ġus ual
od ies
Ġ3 8
Ġsupp liers
Ġra nd
ĠSe ction
Ġstr ing
ograph ic
Ġident ified
ĠJack son
Ke ep
F A
T ube
Ġb read
ot he
ĠD og
ĠG allery
te red
Ġdel ay
ĠCon c
Ġext ract
ĠAg ree
ĠJust ice
Ġconvers ation
6 2
A ss
C D
F i
L Y
L ike
l aw
Ġb anks
ĠB ridge
ĠR os
ph as
Ġhot els
Ġmiss ed
Ġconven ient
ĠGeorg ia
F inally
V ER
w an
in st
ĠU t
Ġsur f
Ġperform ing
Ġwall s
Ġearn ed
Ġbrow ser
Ġhundred s
G ener
p age
Ġto mat
Ġbe er
am il
ĠB rad
Ġde velo
ag on
aw a
Ġmod ule
Ġeng agement
Q L
ĠS on
ĠP ow
Ġtrans ition
St art
room s
Ġimpro ving
Ġmus ical
F ree
Ã ¡
Ġrisk s
Ġtask s
p at
Ġj oy
ign ment
Ġqu iet
Ġinst ruct
Ġpos itions
gy pt
Ġproper ly
Ġeng age
app ing
Ġrecommend ations
Ġident ity
Ġsol ve
Ġintrodu ce
Ġobject s
ams ung
in f
Ġc aught
ĠF riend
com m
ĠHe art
Ġfound ed
Ġequ al
Ġsym pt
Ġtal ent
ĠL abor
ĠO x
Ġinst ance
Ġfac ilit
Ġassoci ation
Ġlandsc ape
b a
ĠP A
Ġcomp are
ĠK ar
Ġman ner
Ġunder t
Ġsim pl
Ġnear by
Ġelect rical
ĠNe xt
ĠStud ent
Ġhon est
ĠCons ult
ĠMount ain
ĠColor ado
R I
o ch
Ġ ille
in ery
Ġb ags
Ġfor t
ot ton
ĠM D
Ġres ort
Ġph ase
Ġmon itoring
Ġfound ation
Ġfac ing
Ġconsult ation
P ol
d a
al ty
Ġsh ift
od ge
Ġcont ribute
Ġso fa
Ġun s
ĠStud io
L ooking
O ff
g rad
k es
Ġt ack
ĠC ro
ig inal
ĠP S
Ġavail ability
ĠCon f
ĠUS B
ĠSec ond
ffic ient
Ġsym bol
Ġhistor ic
Ġhor se
ĠScot land
Ġo l
al le
Ġl in
ĠS at
ĠR en
ĠF lo
we ight
az a
201 5
riz ona
B M
E A
n ic
p ool
s hip
Ġ Ã
Ġb id
Ġl iquid
Ġat mosp
Ġnew ly
Ġbig ger
Ġindust ries
Ġgr inding
Ġhon or
Ġconcern ed
Ġtele vision
Ġdep th
6 1
F l
b ro
Ġt all
it i
Ġto ile
Ġre form
Ġsh ops
ath an
Ġpol y
Ġwood en
ĠChar les
Ġtransport ation
ĠTor onto
A v
a ver
t ics
st al
ĠC P
ĠP akistan
ĠF ord
ĠF ield
Ġex cess
ĠâĢ ¢
Ġad min
Ġtw e
Ġfl ower
Ġinte nded
ĠTe le
Ġhold s
ĠBra zil
Ġshoot ing
Ġelig ible
ylvan ia
E X
ĠE mer
ust er
ear ing
ak a
Ġpres ents
sh ops
Ġless ons
Ġoccas ion
ĠAdminist ration
ĠPriv ate
x i
Ġj aw
ĠK ent
Ġme at
Ġread ers
Ġdisc overed
Pro v
nov ation
Ġcy cle
Ġaccom pl
5 3
D isc
T V
x x
Ġt ank
ot ic
ĠF A
ĠO nt
Ġboy s
R ed
Ġt ip
Ġt ough
at he
ul ing
ĠR oll
ins on
ĠSp ain
Pl ay
ĠPhil ipp
Ġcere mony
Ġsav ings
D P
U s
in ity
ĠP ersonal
Ġwe ap
Ġch ampions
oc ation
ne ver
Ġchar ity
Ġhealth care
ĠSer ver
Ġord ered
? "
c ue
r ations
Ġa cknow
Ġc m
ic ial
Ġre ar
ol ved
Ġwe alth
ĠThe atre
Ġ4 00
Ġbl ess
Ġdef ense
Ġlet ters
Ġevent ually
Ġstre t
AN D
ĠDon ald
Ġimpress ive
Ġfreed om
P ub
l ace
Ġw et
Ġp un
ĠT it
ire ment
Ġag ric
Ġpr ay
Ġinv ent
Ġbr idge
Ġend s
Ġpass word
ĠAut om
Ġdeb ut
Ġcollect ed
Ġpropos al
Ġexpress ion
t le
Ġ urban
al ysis
Ġcomp at
Ġup grade
Ġkind s
Ġclos er
Ġdeterm ined
Ġdiv ision
ĠSen ate
Ġsuppl ies
l ong
l ights
Ġw itness
Ġwith d
os oph
uss ion
Ġprint ed
Ġele g
Ġcris is
G A
j a
Ġt ournament
al m
ĠT ake
ĠG irl
iz abeth
ord an
Ġsc an
Ġ7 5
uck y
ĠStud ies
Ġdeg rees
O K
r ich
Ġm ut
Ġre ward
ĠC N
ain ts
ĠO ak
erv ice
Ġper mission
Ġfl ash
Ġ200 1
Ġcr ime
201 4
Ġstand s
Ġrepresent ative
Ġpick ed
ĠOffic er
Ġbon us
b orn
g reg
ĠA p
ra q
ĠL ew
ps on
Ġmot ion
Ġdisplay ed
ĠCap ital
ĠProte ction
Ġrand om
Ġp ill
Ġag ents
ĠTh ank
ok er
ĠTe ch
ĠCol lection
ĠSp ace
Ġtre nds
Ġperfect ly
Ġrequest s
B ack
C S
s en
al i
Ġen roll
Ġtra il
ph y
ĠCl oud
Ġlist s
Ġaut h
Ġexp os
Ġgener ated
Ġrequire ment
Ġpers pective
Ġviol ence
ĠIndust ry
Ġalle ged
i ary
v it
Ġs ight
Ġc odes
Ġf ishing
ĠM ining
ĠP en
se a
ĠH P
ĠW i
Ġdis s
ian o
ĠSw ed
Ġsuggest ed
Ġpromot ion
ĠS em
ĠR od
Ġle ct
Ġad m
enc ed
Ġgu y
Ġestim ated
O ut
r un
le vel
ĠB it
ĠH ouston
ĠU r
Ġres erved
Ġ6 4
ĠSc he
ĠBu y
ĠCustom er
L ook
s ylvania
il a
Ġl ived
ĠF ile
Ġr an
Ġrem oval
Ġlist ing
au c
Ġphot ograp
Ġhouse hold
Ġtur ning
A ct
ĠM ah
Ġtra dition
clud ed
Ġent it
Ġdevelop ers
Ġfact ory
Ġparticip ation
Ġprint ing
Ġfit ness
Ġgar age
Ġdoub t
Ġinstitut ions
b les
r ates
et ers
ad or
ĠB ible
Ġv it
Ġcont ents
ĠV illage
ap ing
Ġ5 5
Ġfl ood
Ġfore cast
ĠFin ance
ĠQue en
Ġlegisl ation
Ġdepos it
Ġorganis ations
7 9
E ng
p ass
Ġt ou
ĠT oy
ĠR h
Ġwas h
ell s
ack s
pt on
pl ates
oun ce
oun ter
Ġposs ibly
Ġven ue
bur gh
W ould
ĠB on
lo se
ĠO ther
ĠV iet
Ġtr ig
Ġem phas
Ġaccess ible
Ġlink ed
Ġsearch ing
Ġplatform s
Ġfram ework
Ġaccord ance
Ġs itting
an es
if ies
ck et
ĠN atural
Ġ3 9
ĠLe vel
Ġenter prise
Ġarchitect ure
Ġf irms
Ġp apers
ĠS us
el ing
ĠP op
ck er
ĠE st
so le
Ġpat io
upp ort
Ġredu ction
Ġincred ible
7 8
a is
re al
Ġc os
ing u
Ġp or
ion e
ĠA rizona
ĠR am
Ġr ice
ĠJ ac
Ġcomp r
Ġcl imb
ik ing
Ġprotect ed
Ġacqu is
miss ions
L ist
U P
Ġp ra
ĠC ook
Ġg rown
ĠM u
ĠD un
ĠH ong
Ġ( $
Ġsk y
Ġexpl ained
Ġclos ely
ĠPart ners
F e
Ġm ac
ur se
ur ning
Ġst amp
og ue
Ġour selves
ĠYou Tube
the w
Ġsubs crib
W atch
Ġs ou
Ġw arn
ĠA ve
ĠR un
um ps
ial s
ĠK enn
ath y
Ġatt orney
Ġcare fully
Ġvers ions
Ġredu cing
ĠReg ional
Ġreason able
umn i
C opyright
S et
p erson
r ite
in cluding
nd ing
ĠM ost
Ġdef end
Ġposs ibility
ĠColumb ia
Ġprepar ation
C P
Ġt ub
ĠR ail
ĠH a
Ġres ident
Ġag es
Ġserv es
Ġorgan ized
Ġdirect ory
Ġtest ed
Ġfact or
B oth
Ġg ifts
ĠT ype
Ġ6 5
Ġgener ate
Ġca uses
Ġsend ing
Ġcapt ure
f oot
nd a
Ġp ip
il st
ĠH u
ĠL ED
ĠN ick
ure r
ru g
Ġspec ified
ĠGo vern
Ġiniti ative
ĠAuthor ity
Ġdyn amic
Ġinteg ration
ĠAgree ment
p ed
ĠC amer
ĠD VD
Ġhe ro
Ġv ital
Ġsp in
Ġevery day
Ġclick ing
ĠCor poration
Ġsus p
Ġcompon ent
Ġflex ible
Ġcircumst ances
st ar
ĠS EO
ol y
Ġwhere in
Ġint elligence
ĠSp irit
Ġelectric ity
Ġspok es
S W
g or
in em
re ll
Ġm and
ĠW here
ĠG ro
ĠK ong
Ġaccommod ation
O pen
Ġp ink
al se
ol is
ĠA ction
ĠR ight
gh an
Th ose
Ġsupp lier
ĠAd vis
Sh ould
-- --
Ġrespect ively
ĠSk y
Ġdraw ing
Ġholid ays
Ġcontinu ing
Ġcrim inal
Ġm m
ĠC ase
Ġfor th
ĠR ay
Ġtrans action
ĠPl us
ĠTra de
ĠApp lication
Ġalong side
Ġcrit ic
Ġdescrib e
Ġscient ific
ĠCath olic
F F
ï ¿½
Ġf est
Ġh am
ig ure
Ġst orm
ĠE gypt
ac on
Ġtra ined
Ġgra b
Ġ20 20
ĠFor ce
Ġla pt
Ġpan els
ĠAP I
Ġconfig uration
Ġguid elines
ĠMel bourne
r ants
Ġm ic
ĠC redit
ad ow
Ġar rive
Ġdes ire
anc hester
ik es
' ,
ĥ »
Ġs ew
an while
ic it
ĠS olutions
ĠI raq
Ġst ainless
ĠR oman
Ġj un
Ġte en
Ġsp oke
Ġgreat est
On ly
Ġautom atic
Ġhop ing
fortun ately
c or
e ah
et ary
Ġfor ced
Ġgu ard
Ġform ed
Ġequ ival
Ġgr ass
Ġmov ies
ino is
Ġbott le
ĠGl ass
Ġappoint ed
Ar t
Ġwid ely
Ġwire less
ĠVict oria
Ġachie ved
Ġmir ror
Ġobt ained
w ords
Ġg orgeous
ir ty
ul s
Ġ4 7
Ġfl ag
Ġinter active
Ġapplic able
Ġtax es
Ġcal endar
Ġmark s
Ġtrou ble
Ġ vert
Ġg ear
um s
ost er
ĠK ids
Ġro les
Ġpre gn
Ġrel igious
Ġpost ing
Ġfollow s
Ġclo ck
Ġvac ation
Ġimmed iate
Ġannounce ment
Ġbeg ins
T E
h an
he ast
ĠS D
ĠS ym
Ġe ase
ĠF our
ĠL earning
iz z
Ġrel ief
ax y
Ġins ight
unic ip
ĠNe ed
Ġtyp ical
abet es
R el
on na
Ġm outh
Ġg od
ĠP ur
Ġsh ock
Ġro se
ens us
?? ?
4 00
Ġthe ory
ar on
Ġm ixture
et her
ĠS H
ĠM att
ĠB and
Ġwe aring
ĠE th
ĠE ss
res ents
ac her
Ġcar pet
Ġrem ind
ann els
Ġcover ing
ĠBrit ain
Ġâ Ĥ¬
Ġcateg ories
Ġmass ive
Ġinstru ment
Ġlif estyle
Ġperman ent
% ,
C ong
c ons
re ation
ast s
ĠU k
ĠRe f
Ġent rance
Ġsur prise
Ġdiscuss ed
Ġaim s
ĠPenn sylvania
T op
u er
ic ate
Ġwe ak
Ġv ice
Ġapp arent
Ġjust ice
Ġra ck
Ġinter pret
Ġfil ms
Ġprote in
ĠHol ly
Ġbroad cast
ĠArch itect
ĠEqu ipment
Ġt ap
Ġy ards
ay a
Ġ1 000
Ġv ul
Ġr ating
Ġch oices
ĠJ oe
ĠAr my
Ġfound er
Ġdirect ed
Ġtrack ing
fl ow
Ġsitu ations
achel or
h ome
y o
Ġd iverse
ĠS ep
ĠD aily
ĠL uc
Ġch apter
ĠO R
iz za
Ġcl ar
be ing
ĠGu ard
Ġens uring
ĠRad io
C ons
on ym
ing ham
ers ion
Ġv ary
and y
Ġover view
olog ist
ĠSh ould
Ġport folio
Ġmark ed
Ġintrodu ction
Ġdoll ar
Ġdro pped
Ġeval uation
ĠJose ph
w a
ĠB h
Ġrec over
Ġset up
Ġpublic ation
ĠComp uter
Ġpack ages
Ġmanag ers
Ġlik es
Ġpercent age
ĠTrans port
9 4
a ug
p act
Ġg rey
ĠR om
oo f
ĠL A
Ġ6 00
Ġincre ases
ĠAs ian
ĠMe eting
ĠChe m
ura ble
ĠAnt h
ĠMem orial
Ġath let
al o
ĠC ru
Ġn ic
Ġg ate
Ġbe ar
ĠD own
ĠW ales
ĠG olf
act er
Ġfl our
Ġfl ights
Ġrel ating
ĠEx am
Ex per
Ġtyp ically
Ġcele bration
ĠMod ern
Ġcoun sel
ĠMem bers
Ab out
Ġfif th
M T
U sing
m ont
at al
is a
ĠF all
ĠE vent
um a
Ġde press
Ġus age
ag en
ĠSt an
Ġcl othes
Ġun able
Ġrel ation
Ġac id
ĠBu ild
ĠHol y
Ġrefer red
ĠSqu are
v as
in ent
Ġm ob
ĠT R
ĠR yan
ĠH olid
ĠN C
Ġr ough
ĠO s
Ġcl othing
Ġsc r
Ġbr anch
Ġbox es
Ġdeb ate
ĠConst ruction
Ġprincip les
g ree
t hen
Ġ ram
Ġo w
Ġn uclear
ĠB ase
ĠB ob
Ġse x
Ġse ed
Ġse vere
lic ations
Ġref und
ĠComm on
Ġstre ets
ĠPr im
Ġlay out
mal ink
Ġsy nt
Ġã ĥ»
er ning
Ġs ac
Ġd owntown
ĠM ember
ain e
ĠAmeric ans
ĠMag azine
ĠMot or
ĠS om
ra ction
Ġcon sequ
ĠN on
Ġr ural
ous ing
Ġres erve
Ġclaim ed
Ġcomplet ion
Ġdefin ition
Ġpros pect
9 2
L O
Ġt ie
ĠD ar
Th rough
ild ren
Ġcur rency
ĠFr ont
Ġce iling
ĠMod el
Ġnut rition
Pe ople
Vis it
ĠAssist ant
D av
E m
M od
b est
le ctions
Ġd ental
om y
ĠC reek
ĠP sych
Ġas sembly
ag ues
Ġper malink
Ġra w
ĠDe b
Ġperson nel
AT E
Ġenjoy ing
ask a
ĠReg ist
ĠMon th
Ġconsum ption
Ġcontain er
Ġvolunte er
ĠWord Press
C urrent
H er
ou ter
Ġo k
st ream
ig s
oo s
ĠL ic
Ġcont aining
Ġrec ruit
Ġsc reens
ne ys
Ġbu g
Ġinst ruction
Ġaccess ories
Ġprofess or
Ġclos ing
Ġdocument ation
ĠIr ish
ĠPhot o
ĠEconom ic
R et
d ale
h ot
i y
j o
w ar
Ġt ape
Ġp ul
Ġl oving
ad ed
ĠW atch
ĠE s
Ġ4 2
Ġsupp osed
ron ics
Ġreal ize
Ġgraph ics
ĠDemocr atic
M on
b ell
r ong
in als
il ton
ĠC ry
Ġv intage
qu est
lo sure
Ġso le
ĠY outh
Ġform al
Ġsub sequ
Ch rist
Ġmat ches
ĠiP ad
Ġatmosp here
E l
ill iant
ĠL iber
ĠG ene
ac c
pl ore
Ġind eed
ix ed
Ġbl ank
Ġed it
Ġkeep s
Ġequ ipped
Ġpric ing
Ġblock s
ĠGold en
Ġarriv al
Ġfold er
7 2
m ates
Ġs en
Ġh ur
ĠC orn
ĠM aterial
ĠT aylor
ĠL as
ĠE N
ond er
Ġar ray
Ġi OS
âĢ¦ âĢ¦
Ġturn s
Ġchalleng ing
ĠJew ish
htt p
T T
Ġm el
Ġm ile
Ġm aker
ic ation
ĠS av
el ph
ĠP H
Ġst ored
ul um
ĠUn it
Ġinc hes
app ed
Ġhop es
Ġpattern s
ĠFil m
friend ly
ĠAff airs
Ġmort gage
Ġsympt oms
ĠOnt ario
M ed
Ġh ang
Ġh anging
ĠC B
ĠC ivil
ĠO wn
ĠJ enn
Ġins ert
Ġann iversary
Ġconc ert
Ġofficial ly
Ġele v
reg on
ĠTur key
Ġnar row
Ġconflic t
l ah
o z
Ġs outhern
ĠR on
ĠH ills
ĠH appy
ld er
cl aim
ult s
Ġspe aker
Ġexp enses
iam i
Ġinform ed
ĠVe gas
ĠNiger ia
Ġchoo sing
! )
at ers
ĠB irth
Ġas ide
ĠL y
ĠN O
Ġyour s
Ġprov ision
Ġhand ling
Ġexp ansion
Ġsign al
201 3
ann ed
Ġassist ant
Ġrepresent atives
Ġhappen ing
ĠBook s
Ġmill ions
ĠMal ays
ĠRepublic an
Tr ans
Americ an
ch arge
ĠM rs
ĠT urn
Ġst ations
ĠE astern
ile y
Ġair craft
Ġtrack s
Ġsty les
Ġegg s
Ġarrest ed
9 3
i ac
ed u
ud i
Ġun f
Ġun ion
Ġpr ime
Ġwin ners
Ġeng aged
ES S
ris on
isc ons
nes ota
Ġrequest ed
Ġhy p
ĠStand ard
Ġswim ming
Ġanc ient
ĠHen ry
Ġtoile t
k o
l ink
ð Ł
Ġw ins
ĠC ou
ch ar
est one
ĠL ike
are st
ĠY es
ĠSh are
Ġrep resents
Ġelect ed
Ġrepresent ed
Ġrecogn ition
Ġfrequ ently
Ġbelie ves
Ġcontroll ed
r ating
t es
Ġf t
as hed
ĠM oney
ĠP aper
if ier
ĠF red
Ġch airs
Ġprogram ming
Ġpass ing
Ġlo ans
pro of
o en
u an
ĠS ome
ĠB rian
Ġv ent
Ġme ets
Ġdis pl
Ġfe els
Ġco pper
Ġpr ison
ER S
Ġfac ulty
Ġtreat ments
ĠEl izabeth
Ġvolunte ers
Ġfra ud
Ġhab it
A pr
O b
Ġ err
it als
Ġf ence
Ġth orough
el lect
ĠM anchester
ĠB a
if er
ĠH ERE
are t
iss ions
Ġass et
ĠRes ources
ĠBro ad
angu ages
Ġcook ies
Ġapply ing
Ġseem ed
Ġter rit
iscons in
G e
S earch
d on
o om
ou red
ĠC S
ot ive
ĠE dition
ĠCh ange
Ġwork shops
iss ue
Ġins pection
Ġtrans actions
Ġless on
Ġpub l
Des pite
Me anwhile
b el
i ro
Ġw al
Ġw ra
Ġh ole
ĠM ess
ĠB ud
ĠW he
ĠN av
Ġch ampion
Ġch annels
ĠO cean
Ġk il
Ġport able
Ġmag ic
los ed
I O
P N
st ract
Ġhe ating
ĠV ice
Ġdri ven
Ġsing er
Pro f
Ġdeal ing
Ġstay ing
Ġentire ly
Ġdeliver ing
Ġrepl aced
ĠIll inois
E F
Ġs ad
Ġs our
le ep
ĠL ind
Ġsc rew
ens ity
Ġcr ash
Ġcheck ing
Ġport ion
Ġdi agram
Ġfly ing
Ġille gal
C L
ĠH old
ĠN ote
Ġen ables
Ġcons ent
au x
Ġrep utation
Ġscreen ing
Ġsus pect
Se lect
Stud ents
Ġtut orial
Ġexpos ure
Ġequival ent
Ġn orthern
Ġst opped
ĠB ern
ĠN ame
op er
Ġcomp ensation
clud e
Ġreg ions
Ġem pt
Ġass um
Ġtrans p
Ġcert ification
Ġimprove ments
En joy
Follow ing
7 4
f ound
g ov
t ail
st ra
ĠR ub
ure au
os it
ud den
Ġoper ated
Ġexpl an
ĠPal est
ĠDel hi
ĠII I
ĠPrem ier
) ?
8 4
Ġh ook
ĠS E
ter y
Ġcon ver
Ġde leg
ĠJ am
Ġsa ved
Ġprodu cing
fere nt
ific ial
Ġent hus
Ġexpect ations
Ġwor st
Ġcry pt
7 6
B ased
Ġh at
ot ion
Ġch arm
ĠJ ordan
oc cer
Ġso il
Ġ4 9
atur ally
Ġconf ident
Ġpromot ing
Ġvul ner
B O
l ers
m od
Ġt elling
at on
Ġw arning
ĠC T
ow een
ig ate
ĠT ru
Ġfind ings
ĠSc iences
ĠAl bert
co ver
Ġ12 0
Ġcap abilities
ĠDav is
Ġcooper ation
ĠChall enge
Ġwithd raw
c s
p ing
it u
Ġl osing
ut ter
rib e
ah a
Ġaim ed
Ġcontribut ion
Ġauth ors
N S
c hers
r iger
le e
ĠT reat
ut ies
ĠB ad
Ġbu ff
Ġprodu cer
Ġlist ening
ĠÂ ·
Ġattract ive
Ġphotograph s
ĠDie go
D ay
c ard
v ard
Ġb aking
Ġre in
Ġy ard
ĠC C
ĠT enn
Ġse ats
ĠV en
ĠWh ich
Ġsign ature
Ġhead s
Ġdist inct
Ġbuy ers
Ġmov es
ĠSar ah
lah oma
P res
v o
Ġb oss
as ant
ĠB ell
Ġor ange
clud es
Ġfun ny
AR T
Ġcontrol s
ĠIndust rial
Ġbelie ved
umin um
ĠEnvironment al
P L
p a
Ġm ale
Ġd ust
ĠS port
Ġg all
Ġg iant
âĢ ĺ
us hers
Ġst able
Ġ2 50
ist a
qu ality
Ġnew est
Ġgu itar
ocu ment
Ġinj uries
Ġexpress ed
Ġsubst ant
Ġsem i
Ġfight ing
ĠElect ric
rupt ion
osoph y
Ġh idden
id ers
ig ion
ĠD J
ab b
ĠN umber
qu is
ak h
Ġar g
Ġover se
Ġ4 4
Ġend ing
Ġview ing
Ġcommunic ate
ĠWed ding
Ġconsist ent
Ġincor por
ĠChampions hip
Ġlicens ed
ĠProper ty
in tend
in yl
on ut
et ch
ĠS amsung
ol ar
ir ts
ĠR d
ĠF urniture
ĠW inter
ĠU RL
Ġad s
Ġ8 00
ĠEx change
Ġaccount ing
Ġprep aring
Ġprior ity
ĠHist or
Ġble nd
Ġresist ance
Ġsam ples
D C
D et
i our
k m
he im
le ments
Ġl ake
ĠS aint
Ġn one
ĠE X
Ġde ploy
Ġr ising
Ġab use
ne e
Ġsupp lement
Ġshe ll
ĠSe lect
Ġprom ise
ĠCont ract
Ġstat istics
Ġtele phone
ĠDec or
Ġcas ino
ordin ator
ste in
U D
ou ver
Ġm att
ĠS ave
ĠM other
ĠP ed
ĠR ound
se m
ĠL ast
ri x
ĠE ffect
Ġex ceed
Ġsu c
ĠK at
ph ones
Ġatt ach
Ġhead ed
Ġcap able
oss ible
Ġcreat es
Ġstri ke
Bu y
Ġrepe ated
Ġton ight
Ġrecip es
ĠMus lim
w as
in os
Ġg ym
ĠT al
ĠB B
Ġcont ro
Ġco ck
Ġra ising
ĠAd am
Ġbre ast
ĠMin nesota
Ġant icip
Ġtell s
Ġclub s
lim ited
quir y
ĠLew is
p ir
u is
Ġb ars
Ġb odies
Ġin n
ĠA h
ĠA z
ig e
ĠM ov
ĠT y
ul pt
ĠF ram
ĠL O
Ġex terior
Ġread er
ĠInd epend
Ġtechn ique
Ġele ctions
Ġimag ine
8 2
b rid
c al
c ut
m aking
o a
or i
Ġf urn
Ġl oves
Ġst im
ĠB an
ĠL at
Ġse gment
art s
ust ral
ĠSt adium
Ġph ones
Ġno ise
Ġdec ade
Ġbo ot
ĠCle an
Ġconne ctions
ĠMill er
Ġmer ch
Ġdanger ous
Ġdevelo per
Ġstret ch
8 9
G R
H aving
M in
P oint
S om
V ery
b ow
Ġs oph
ro g
Ġst ages
ĠE aster
Ġv ibr
os es
ĠO K
Ġent ering
ĠDe ath
ĠAr m
Ġinter act
ĠSchool s
Ġcomb ine
mon th
Ġwat ers
Ġspl it
Ġwarrant y
l ay
he mat
Ġo cean
et ry
ĠS ize
ĠI ron
ĠB ag
ĠD O
ĠD ream
Ġv ess
Ġsp ots
ob e
Ġinv ite
Ġconc erning
Ġ199 9
ĠPol it
Ġinvol ving
Ġmom ents
ent le
ĠA lp
ĠM s
un n
Ġal loc
ĠF ox
ĠN ut
ail ing
ĠSt ory
Ġco aching
Ġmod ified
ĠPh one
Ġroad s
Ġfunction al
ĠInt e
Ġult imate
xi ety
Ġt u
Ġt or
in cess
Ġd ivid
ve t
ĠC ape
Ġg al
un es
ĠW H
Ġhe s
all as
Ġr h
od ing
ell ed
rib utes
201 2
Ġscient ists
Bel ow
Ġentit led
. :
b ra
b ound
z ing
Ġm aps
Ġd iamond
ĠH R
Ġr iding
Ġdis hes
ĠUn ivers
Ġfin ishing
Ġadv ise
Ġperson ally
Ġbro ke
Ġfact s
Ġsignificant ly
oles ale
T ime
U ST
Ġ 00
es y
ĠP ict
ĠR og
ĠN EW
ĠO regon
Ġme als
ĠSt aff
erv ing
Ġper mit
Ġdes ired
Ġadd s
oun ge
Ġshe ets
Ġsur ve
the re
Ġconst ant
ĠAs sembly
Ġorig in
ole c
ĠStud y
Ġattend ing
Ġcarry ing
u um
Ġt iny
Ġw ave
Ġp a
Ġd ont
Ġh ub
ĠC ore
ĠB arn
ust ic
Ġar ms
Ġ4 1
anc ouver
we ek
Ġtem porary
ĠBro ther
ha ust
ĠIsland s
ĠCreat ive
quar ters
a ire
c ers
g i
p ay
r us
z es
Ġf asc
Ġp itch
Ġd ual
her ry
ĠF ab
ĠW isconsin
Ġcan cel
ip t
ond a
Ġag ed
ang le
Ġbel ief
ĠSe ason
ĠBook mark
Ġdrink s
IG H
Ġcrow d
b ec
c ateg
h igh
u ct
Ġp ipe
st ep
Ġre ject
ĠC a
ĠA k
ĠT ok
ast ing
Ġcont rast
Ġtr im
Ġrep ly
Ġfac es
ĠOn ly
ĠCor p
Ġsubs id
Ġconvers ion
Ġstruct ures
Ġcompar ison
Ġpod cast
Ġacquis ition
1 50
H ot
j e
as hes
Ġl ad
ĠC ell
ĠC apt
ĠC ooper
ĠH ope
ant ed
int s
Ġ4 3
enc ing
Ġvis its
Ġdon ation
ĠAd vent
Ġsal ary
Ġdra g
Ġste am
ĠIndian a
Ġcontribut ions
Ġemot ional
ĠPerform ance
elph ia
h at
w ick
er ate
or gan
Ġc ul
Ġp ic
ĠS ound
ut ion
un ter
Ġr ated
Ġsh ots
Ġco ord
Ġinst ant
eng ers
ĠComp et
Ġrespect ive
Ġcopy right
Ġmax im
TM L
ĠOk lahoma
I B
f all
h our
w orld
Ã ¼
Ġf illing
Ġd ating
ol t
ra ctions
ĠP L
ĠR a
oo re
ri ver
Ġde lete
te en
pen se
atch ing
Ġret irement
ĠPh arm
Ġlaw yer
sc reen
Ġemploy er
Ġnight s
Ġ199 8
ĠCour se
Ġwor se
Ġcontinu ous
Ġsitu ated
Ġbird s
Ġmo ist
Ġdisapp oint
Ġsomew here
M L
Ġb at
ĠM iami
ĠB us
ĠN ic
ĠN AS
ast ed
ick ets
Ġtw in
ĠCl inton
Ġref resh
ĠPlan ning
Ġrat io
Ġmur der
F O
P at
Ġ riv
Ġt aught
Ġw are
Ġre fere
ĠS W
ol it
ĠD am
ĠH ay
Ġv ast
Ġch ances
oc ated
oc key
Ġwhe never
Ġsc ores
Ġmin istry
Ġcou pon
ĠAg ric
ĠIm m
Ġrecogn ize
Def in
I E
S ign
c ellent
ĠM oh
ad elphia
se x
Ġcon vey
ĠW el
ĠG as
Ġv enture
Ġsp ark
ric ulum
Ġco at
Ġact ing
Ġcur tain
Ġret urning
Ġhead ing
Ġca using
Ġz ero
Ġcampaign s
Ġlapt op
B et
it is
ĠC ancer
ol k
ig en
ul ating
Ġch ose
og en
Ġra cing
rit er
ĠInd ones
Ġbre aking
ĠOr ange
Ġinj ured
Ġsens or
ĠIS O
ĠMat thew
Ġgrant ed
ĠOx ford
, .
M O
M em
V C
j i
ĠP o
ill er
Ġpro ve
ĠL ook
ĠU ser
Ġplan e
Ġplan et
201 0
ĠBl u
Ġconsider ation
Ġdest roy
Ġspirit ual
8 1
A c
A g
Ġ Ñ
in ch
Ġf ault
us al
ĠT ai
ab il
Ġcan cell
ang ers
Ġpr ayer
Ġrel atively
Ġsm ile
Ġrem ark
Ġcent ers
work s
Ġstrong ly
Ġregul atory
Ġindic ate
Ġdesk top
ĠDub ai
ĠSup reme
D R
J an
b oy
v i
on ly
Ġf inger
Ġm ig
Ġth in
im a
ĠB lock
Ġhe aling
ell ite
og ether
Ġcheck ed
Ġaddress es
arent s
ĠInst all
gra duate
ĠHaw ai
Ġju ice
gor ith
, '
c ies
w ill
Ġb ow
Ġb orrow
ra ge
ĠB ird
ĠL atin
ĠN ations
Ġle gend
ĠCh ap
Ġres idence
Ġmin eral
riv es
Ġsk i
ĠAust in
Ġ199 6
Ġimplement ed
IL L
rag on
Ġprefer red
ĠLet ter
ĠAtl anta
ĠRest aur
ĠPract ice
7 3
g iving
h ost
h ire
on ic
ent h
Ġg ene
am i
ĠP a
ĠG row
th rough
Ġnot iced
ress ion
ĠTh ree
Ġrel ative
Ġ0 2
201 1
Ġresult ing
Ġpack aging
Ġpotential ly
rat ulations
! "
I ts
g ener
u z
Ġa er
Ġp up
ol i
ol n
ĠM ethod
ĠB aby
ĠE ric
Ġse ctions
Ġdo ctors
ail and
Ġ4 6
ov en
Ġprov isions
Ġind oor
ĠSe attle
ĠRes ort
Ġperform ances
ĠTra il
Ġfocus ing
Ġlog in
Ġparticip ating
ĠPar liament
Ġexam ination
Ġcat alog
ĠFore ign
Ġserious ly
ĠQue ens
Bl ack
Ġluck y
Ġspect ac
d d
t ains
Ġt ours
es see
ol s
ra ine
ĠH ur
Ġhe av
ĠN FL
air y
let on
Ġ9 9
Ġbr illiant
Ġoper ational
Ġsubject s
Ġsuggest ions
Ġfarm ers
Ġiniti atives
ĠWil son
C ent
Ġf alse
ĠA th
Ġse al
Ġsc ope
Ġspe akers
Ġtr ick
ĠUS D
Ġemploy ers
Ġfund ra
Ġnews paper
Ġtable t
En ter
ĠEv ents
Ġempt y
C or
D is
Ġc er
ĠC irc
el le
us et
Ġal umni
ĠR O
Ġor ient
op en
op her
Ġcol ours
Ġdiffere nces
ĠAn alysis
Ġob lig
Ġhold er
ibr aries
ĠBar b
Ġpolit ics
Ġvot ed
Ġsubs cription
Ġneigh b
M B
m o
Ġs orry
ar l
ro ke
ĠS ong
Ġg ap
ow a
Ġal arm
ĠH al
Ġch rist
Ġab road
Ġout come
Ġopp on
ĠMin i
Ġcontract s
Ġgraph ic
Ġnurs ing
Ġbasket ball
Ġeleg ant
unicip al
M I
R P
S w
v ity
Ġd uties
Ġh oney
ĠS hel
ĠC abin
ĠB ow
ĠB ody
ĠL earn
ĠW A
ri ers
Ġse eds
Ġcont ained
erv ations
Ġprov ince
Ġact or
ik a
Ġdam aged
Ġsuper ior
Ġcorrect ly
Des cription
Ġencoura ged
Ġdrink ing
ĠBre ak
ĠAtt orney
ĠAL L
ĠLin ux
Ġcompat ible
C ustom
D ata
Ġs udden
Ġp ace
Ġg ram
ĠT an
ĠP ut
ĠL ot
Ġsm oke
Ġsecond ary
Ġreview ed
Ġexpl ains
OR E
ribut ion
AL L
Ġpurch asing
Ġanal yst
Ġfunction ality
Ġpaint ed
Ġbreat h
Ġerr ors
6 00
8 3
he ll
Ġs q
en ess
Ġin ner
Ġm ask
ĠS ant
ĠT ree
Ġst ir
ĠE ag
Ġv ill
ĠN urs
Ġle af
ĠK it
ous es
ath on
ĠSc reen
Ġsign ing
Ġfac ed
Ġmount ed
Ġprevent ion
ĠKe vin
Ġacqu ired
Ġcolle ctions
Ġveget ables
ĠViet nam
Ġcontro vers
9 1
S pecial
or ized
ar r
Ġl aser
ĠC ub
ut ical
ur ities
Ġwh ilst
ep ing
Ġun w
Th ough
Ġref uge
be an
Ġleg s
Ġconst antly
cript ions
ĠHer itage
Ġdiv ide
Ġcabin ets
Ġdise ases
Hel lo
Dav id
D I
H appy
it ate
it zer
Ġp ocket
Ġm ouse
om ing
ĠC L
if ferent
ĠW ars
Ġen forcement
Ġreg ulation
Ġins ights
Ġ0 8
Ġstate ments
Ġclass room
Ġfr anch
Ġtem plates
Ġnews letter
Ġflo oring
Ġobject ive
G l
p ur
Ġre act
et ies
ĠS ir
ĠP ear
ĠP ast
ĠB C
our i
ĠL i
Ġle mon
av or
let ed
Ġdef ine
ĠMar sh
enn a
Ġfund ed
rop ical
Ġconnect ing
Ġvot ing
Ġgen u
H ope
U C
d ers
p y
Ġs ick
Ġre ception
el ry
Ġst rict
ĠL iter
Ġout comes
ru its
Ġacc used
Ġback up
Ġinst itution
Ġbo ards
Ġexpl oring
ĠPr ince
Ġregard less
ĠAnt on
Ġsens itive
Ġcirc uit
Ġspons ored
Ġcolle agues
ĠChair man
C reate
Ġ ðŁ
Ġt ube
an ite
ĠA st
ĠM ail
ĠT ro
ĠP ages
ĠB BC
ĠG P
Ġr um
Ġle ts
Ġad mitted
iz on
Ġsp ray
Ġprov en
Ġbel t
de f
Ġequ ip
Ġrev olution
ĠStep hen
Ġdispl ays
* *
7 1
B R
C ome
h ou
n ie
u ous
Ġm ath
ĠS elf
ut en
ĠB ru
ĠF ast
ĠG reg
qu ire
Ġr ig
und ry
ound ed
ian ces
ov a
Ġexper iment
ĠCol oring
ĠHigh way
Ġill ness
Ġemer ging
Ġprim arily
Ġrout ine
ĠSy ria
ĠInvest ment
Ġplug in
F ull
L a
d em
m akers
s k
x ic
ar at
ĠT el
ĠD yn
ĠF ather
ĠL E
ĠJ ay
Ġmem ories
ling ton
Ġmar riage
ĠChe l
Ġ199 0
ĠHall oween
Ġsatisf ied
Ġshel f
% )
F S
W S
p ot
p ost
Ã Ń
Ġd ipl
ĠA ge
Ġha ck
Ġcomp lim
ĠCh apter
Ġpe pper
ĠSh ort
ict ed
Ġrep airs
ĠEx p
Ġint ent
Ġrest ore
itc hes
Ġemail s
Ġlow est
Ġsum mary
Ġcut s
Ġop ens
Ġadminist rative
De velop
Ġreve al
Ġdistribut ed
Ġquot es
ĠFoot ball
athe red
Ġmatt ress
F in
c at
j ection
Ġs lo
Ġb ills
st ore
ĠD I
ĠG reek
Ġsu ite
Ġen em
Th ree
Ġover w
Ġ5 2
Ġcons ists
Ġent ity
Ġass igned
ĠTe xt
uck s
Ġlik ed
ĠVal ent
ĠGr ant
Ġcrit eria
Ġcra ck
Ġdire ctions
Ġchair man
Ġdream s
Ġsuff ering
Ġdemonst rate
ĠDen ver
Ġflav or
Ġcomput ers
ĠCommunic ations
f ers
Ġw o
Ġc ircle
Ġal ive
ĠH yd
ab ling
ĠO w
Ġpr inter
Ġent ries
Ġke ys
Ġdisc ip
inc oln
ĠAf ghan
Ġsol o
ĠPat rick
ĠGal axy
Ġstrugg le
Ġdelight ed
ellect ual
F urther
V A
f ire
Ã ³
Ġg ained
ĠP ain
ĠB ush
ĠB udd
ĠE T
ĠJ ane
ĠSt yle
Ġkn ock
ĠMar c
Ġbas ically
Ġsw ing
ĠStud ents
Ġhy per
May be
ĠAdv anced
b ing
b ass
s l
w hen
is dom
il iate
Ġy ield
ĠC and
ra it
Ġal t
ab a
ab out
Ġpl ain
ĠK ansas
Ġche f
ĠLe gal
Ġser vers
Ġref riger
ĠAll iance
Ġpack ed
Ġstudy ing
Ġnorm ally
Ġfab ulous
Ġprot est
ĠAtl antic
Ġrub ber
Ġhyd ro
Ġentreprene urs
ĠPhilipp ines
uset ts
D el
D ep
M ark
O ct
Ġc am
Ġc ord
Ġb one
Ġl anguages
ot ed
ĠB ry
ĠD ark
ĠR out
ĠL ady
Ġex it
ace utical
com ed
aut y
St ar
IN E
Ġtalk ed
Ġwalk ed
Ġtarget ed
Ġconsult ing
Ġdead line
Ġult imately
IV E
Int erest
Ġsurpr ised
Ġvert ical
A nt
P al
ĠT X
ĠR A
ĠH im
ab ad
ĠL ane
ĠV ancouver
cl ick
Ġ5 6
Ġvis ible
Ġcur tains
Ġadv ent
ĠRes ume
Ġeng aging
Ġexc ell
ĠRep air
Ġyoung er
Ġassoci ate
Ġple asure
ĠPhil adelphia
Ġexcept ional
Ġincreasing ly
Ġcompl aint
ĠCamb ridge
ĠHolly wood
ĠAnth ony
W ant
m outh
Ġl ie
Ġre action
ĠC ON
âĢ ³
ĠI ss
ĠB urn
ĠG lo
ĠE ven
igh th
ĠJ er
ag a
ag an
ĠV eter
Ġwork place
Ġback ed
Ġinvest ments
Ġopp osition
min ute
Ġinstall ing
over ty
Ġ199 4
ĠIm age
Ġobject ives
Ġabs or
ĠSpr ings
Ġmus cle
Ġsmart phone
Ġguarant eed
ĠĠĠĠ ĠĠĠĠ
ht ml
Ġtravell ing
2 50
H z
V P
e ffect
l ik
m itting
Ġl augh
Ġl iability
Ġre n
Ġg rew
ĠM ade
ĠB ron
ĠD iamond
ĠD allas
ab ies
Ġ3 60
Ġte eth
ach usetts
Ġdis pos
Ġro y
ink ing
ĠTh ailand
ĠAn aly
ott ed
Ġbed s
osp itals
Ġfore ver
Ġwrit ers
ĠHar ry
Ġbedroom s
Ġadop ted
T ry
h o
Ã ¶
Ġw rap
Ġd ump
Ġh its
Ġl iber
ĠC ash
ĠA G
ure rs
ies el
Ġcomp lic
ich ael
ect or
Ġup grad
Ġme re
ĠV A
Ġsupp orters
Ġdesign ers
Ġbr on
ĠAl so
Ġopp osite
ĠMay or
Ġident ification
Ġut ility
win ning
Ġoccur red
Ġsuppl ied
Pub lished
C R
Ġb ay
Ġd ent
ĠA I
ĠM O
ĠM ort
ut ers
ir al
ĠB alt
Ġcon sole
ĠH S
ĠCh annel
Ġtra iler
iver pool
vent ional
ann y
Ġbuy er
umb ing
ĠQu est
Am ong
Ġtal ented
ĠIsrael i
Ġpen alty
Ġcred its
M c
a ud
n ut
Ġt one
en z
Ġm old
il itation
ĠT alk
ut ral
Ġan xiety
ĠF uture
ĠG all
Ġcomp act
ree ce
Ġmin im
ĠCo ver
Ġcontact s
ĠIm pact
Ġvari able
Ġmaint aining
Ġgold en
Ġmatch ing
Ġcamer as
Ġconcept s
Ġwat ched
Gener al
Ġol ive
ĠMalays ia
Ġsuc ceed
N et
g ate
t ons
Ġ âĢĻ
ing ly
Ġm os
ĠB ureau
ĠD ave
ĠH um
ĠG ift
Ġle ase
Ġsu fficient
Ġad j
Ġacc eler
Ġoper ator
ĠRep resent
Ġlim its
Ġtarget s
Ġsatisf action
D ec
b ul
p ower
Ġf ont
ic ide
st yle
ĠS ug
ol ving
ut her
our se
ĠG ate
ĠN ature
od d
Ġcomp os
Ġad mission
ĠK y
erv ative
Ġsc ulpt
ater n
Ġpr ide
Ġcons cious
ĠCo ach
ĠAnd erson
ĠMar ine
Ġgr ay
AN T
viron ments
ĠDes k
Ġtit led
ĠLa ure
Ġdepend s
ĠCert ificate
. ),
A E
S ocial
d ep
u ana
Ġd iversity
il ty
ĠS O
ĠD uration
Ġcan n
Ġun known
ĠCl ark
Ġdec ent
Ġexp lo
ĠAn ne
Ġ0 3
Ch ina
Ġdra wn
Ġvot es
ĠInter ior
Ġsus pend
Ġcru cial
ĠKore an
Ġnegot i
( )
Ġn aturally
Ġg ardens
im ents
ir k
ĠE C
Ġv ine
Ġse asons
ag ers
ag raph
Ġwhe els
Ġinc ent
Ġ0 7
Ġ0 9
Ġappro aches
ĠRes erve
Ġequ ity
Ġtri ps
Ġaff ili
book s
Ġport al
Ġhost s
Ġmaint ained
Ġsugg ests
Ġexcept ion
Ġexpand ed
ĠAv ailable
Ġfrequ ency
Ġgovern ments
F r
P P
a fter
Ġy e
ĠA B
ĠT ool
am ics
ur ious
ĠD at
se ction
ĠF inal
Ġen abled
Ġun ex
Ġar my
Ġro d
Ġher self
Ġwant ing
Ġrem ained
Ġ8 5
pr ises
Ġtour ism
ĠClass ic
Ġimm igration
ĠBel g
Ġthous and
Ġer a
Ġparam eters
oen ix
W orld
s ub
t able
t ical
u its
Ġs in
Ġp ad
an ne
Ġre hab
Ġy oga
Ġe uro
ĠM ove
ĠD oll
Ġse es
ĠJ osh
ĠCh amber
Ġexp osed
Ġ0 6
Ġcompet e
Ġtit les
Ġbank ing
A tt
B ig
V al
a a
b ie
p ire
Ġt ons
er k
Ġw ider
Ġf ib
Ġm ood
Ġre aching
ot es
ra cy
ce ived
ĠM agn
Ġst ability
ri or
Ġwas hing
ĠO re
Ġne ither
Ġres erves
Ġdis miss
ĠCom mercial
Ġher itage
Ġfin ancing
Ġprogram mes
au ra
Ġcheck s
Ġbre w
Ġprot ocol
Ġmechan ism
ĠTerm s
" )
B es
S L
m arket
Ġ %
re ction
re ated
Ġw ishes
Ġp ounds
ĠD ance
Ġcon j
ab ama
ĠE asy
um my
ĠO p
ap olis
Ġph r
elf are
ĠCon vention
Ġpass engers
Ġob st
Ġsal ad
Ġest imate
Ġcap s
Ġsent ence
Ġsqu ad
Ġadvert ise
Ġpull ed
Ġcop ies
Ġaccompl ish
C al
C ould
M W
N Y
i ot
ou st
it ative
ĠC raft
ow ers
Ġst ack
Ġpro secut
Ġan gle
ĠH TML
ĠJ ason
Ġhas n
ail ed
Ġprov ed
Ġcons ervation
Ġcar rier
Ġdevelop ments
Ġbr ush
ĠCent ury
ĠPol y
Ġamount s
Ġtour ist
Des ign
Ġearn ings
ĠMary land
Ġowners hip
ĠRel ations
Ġtransl ation
ĠVict or
spe c
G ive
re p
Ġs hed
ic ations
ĠC OM
ĠM ission
ĠD R
ĠR ot
ĠR and
ĠH art
Ġse ctors
Ġche st
Ġeng ines
Ġair line
inc iple
Ġblog s
ĠReg ion
Ġrepresent ing
ĠTechn ologies
ĠSum mit
ĠScott ish
Ġtrad em
Ġargu ment
ĠCast le
Ġweap ons
Ġdepress ion
ĠHolid ay
ĠTenn essee
z ed
â Ĥ¬
er a
Ġl ens
Ġg rid
ĠM om
ĠM ust
ĠM ajor
ĠR aj
ĠL anguage
ĠK elly
ress ed
Ġ5 4
As k
Ġext ent
ĠCo ffee
Ġshort ly
pro ve
Ġdiscuss ions
Ġworks he
Ġfall ing
Ġinterview s
Ġpow ers
Ġexpand ing
T O
c ity
d ated
m ers
r itten
Ġw orship
Ġc ush
Ġto oth
le nd
le an
st ery
ce eds
ĠD or
ĠL am
ac ious
ia h
ass es
Ġpre st
els on
the y
Ġspecial ists
Ġdra in
Ġdi abetes
ĠEm ail
ĠEm ploy
ura cy
ĠSim on
Ġï ½
Rem ember
Ġesc ape
ĠOlymp ic
sem ble
r if
t own
w ear
Ġw estern
it o
Ġl oose
ĠS ri
Ġg entle
am ental
ĠH ost
ĠN J
Ġex haust
od a
Ġcomp ly
Ġres id
Ġres cue
ll a
Ġpre view
Ġact s
man n
Ġcomple ment
Ġbre ed
200 9
Ġgar lic
bu ilding
ĠMiss ouri
Ġrank ed
iat ric
ĠBed room
Ġexcell ence
E G
G S
c ure
Ġf iber
Ġp hen
Ġh urt
st ers
Ġl y
ĠS QL
Ġis ol
ch ain
ĠB uff
ĠH ousing
ĠL es
Ġun us
Ġhigh lights
ĠBe h
ĠCo al
St ate
ĠCont ent
isc al
wh o
AC K
200 8
Ġpark s
Ġwond ering
ĠMor gan
bu ild
Ġsuff ered
Ġflex ibility
Ġwel comed
Ġdram a
Ġapparent ly
ĠBirth day
Apr il
e z
f ig
Ġp atch
ĠC ool
ĠT a
Ġal ert
pp ers
ĠL ux
Ġha z
Ġad equ
Ġapp le
ass ion
ank a
Ġinv itation
io x
Ġrele ases
Ġnetwork ing
Ġvot ers
Ġbehav iour
ĠMass achusetts
Ġconven ience
ĠLead ership
ĠUr ban
Ġa x
in ian
re ts
Ġs id
Ġc otton
Ġb att
st an
Ġg onna
ĠM ir
ĠM oon
ĠT en
ur is
ĠR oss
Ġse am
Ġsh arp
ĠSt orage
av ed
Ġ9 5
Ġinter action
Ġspecial ly
Ġsl ide
Ġgr ate
ĠCar l
IC E
Ġcal c
ĠTechn ical
Ġroll ing
Ġvict ims
ĠEnter prise
Ġprincip al
Ġpublish ing
ĠCe le
ĠJac ob
ĠRestaur ant
G old
U B
U I
l ined
on ed
it able
ed ge
Ġg athered
ol ph
Ġ1 01
ĠL ock
Ġch ip
ire less
ĠK ind
ĠV ersion
Ġthem es
ĠRe ading
Ġass ign
ĠEx hib
Ġprocess ed
ĠAss ess
ĠApp ro
Ġsaf ely
Ġtravel ing
ĠWork ing
Ġdescrib es
Ġdat as
Ġpow ered
ĠSpe ed
Ġfol ks
ĠJun ior
ĠBit coin
R O
S outh
b et
g ely
h ill
Ġw ard
is ure
Ġl oyal
ab e
Ġv irt
Ġr u
ĠO pp
Ġproduct ivity
Ġtrans mission
ĠMar g
Ġpract ition
Ġ199 5
Ġclean er
Ġoil s
Pl ace
Ġslow ly
Ġunivers ities
Ġacknow led
A ug
K E
L D
L og
b ridge
i w
s is
w alk
Ġc ater
as m
ĠS M
ation ally
ĠI V
ĠB rew
ĠD er
Ġpro hib
Ġan ch
ĠH ig
ĠW y
Ġun ve
Ġqu een
Ġext reme
Ġce ment
IS T
cy cle
Ġfire place
ĠPort ug
.... ....
ĠSing le
Ġlif etime
Ġwid th
Ġã Ģ
Sec ond
N C
O k
e lect
p iece
r ators
Ġt iles
Ġc rown
ĠC oun
ĠI C
ĠB at
ĠD oor
se ason
ĠN avy
ord inary
Ġ5 1
ĠCom merce
Ġgreat ly
ok ed
Ġaccess ed
vent h
itc hed
ĠCont in
Ġparticip ated
ĠUp date
Ġphil osophy
ĠGovern or
ĠPrim ary
Ġoverse as
B ay
S um
S ave
Ġ rib
Ġc ust
Ġm oon
Ġre nd
el d
ot te
Ġ( âĢľ
Ġsh irt
iv a
own ed
Ġbl ow
Ġprof iles
Ġdem ands
Ġkey board
crib ed
Ġengine ers
ĠRec ords
Ġcourt esy
Ġsle e
Ġvan ity
Ġopin ions
Ġbrother s
Ġevalu ate
Ġpil ot
F T
P ar
V I
b urn
c r
e le
Ñ ĸ
Ġa uction
Ġo h
Ġo vers
Ġl ip
ul ator
ĠR ap
ĠR oy
ĠL incoln
ĠE ver
ĠN ap
Ġdis ability
Ġany way
In c
com merce
Ġevery where
Ġvis a
ĠWh ile
St ill
Ch oose
iam eter
Ġfr ust
AS T
Ġ199 7
Ġinvol ves
Ġage nda
EC T
Ġstock s
cel ona
Ġvac c
ĠMet al
Ġdiscount s
Ġcru ise
ĠOrgan ization
ĠSol ar
Ġstake holders
Ġphotograp her
B ar
K now
f ish
o ft
p res
r ange
Ġl ies
ĠC os
Ġg aming
ch o
ĠI L
ĠP ath
if ting
ĠW at
ĠE P
Ġex ch
Ġch ips
Ġad mit
Ġen vironments
ish op
In ter
itt s
Ġunder st
Ġloc ally
ug s
sh ore
Ġreal ized
Ġcomple ting
OR D
Ġrespons ibilities
Ġmix ing
Ne ed
EL L
ĠCle aning
tain ment
ij uana
ĠTur k
Ġwild life
Ġrat ings
Ġicon ic
ĠSwed en
Ġexplan ation
N T
P ay
c ode
f ly
h y
l an
l ies
v ia
Ġb are
Ġm ad
ro it
ĠM ind
ĠW as
ĠG re
Ġex clus
ĠThe rapy
ors es
Ġag gress
ang el
Ġsk illed
ĠRo ber
ĠCor porate
Ġbase ball
isco ver
Ġtow er
ĠExper ience
D an
g ood
Ġw ake
Ġf its
Ġh ate
Ġn ob
ra pe
im ore
ĠP erson
ĠD ate
Ġal leg
Ġal gorith
se ct
ĠH an
Ġr anging
te ch
ĠV ar
Ġind icated
Ġdesign ing
Ġspecial ized
Ġinvest ing
Ġsure ly
ĠAll en
itut ional
Ġliter ature
ĠSa udi
ĠIsl amic
Defin ition
Ġspectac ular
S upport
p apers
x it
at ile
Ġh ung
ĠC ut
Ġst raw
ĠG O
ĠG raph
ĠE D
ĠN ation
all ing
ĠU sing
ĠThe n
Ġcl ip
Ġ5 3
vel and
Ġlist ings
Ġorgan ised
Ġlar gely
Ġfil ing
Ġla id
Ġsing ing
ĠDirect ors
Ġdecor ation
ĠDou ble
Ġfo am
Ġemp ower
ĠHom es
Ġquant ity
ĠMic hel
itzer land
M ax
P T
S ur
W est
b n
à ¤
Ġ uk
Ġt v
an gh
ĠS ide
ĠC lo
im ental
ĠP ers
ĠB owl
ĠD utch
ĠF resh
ĠV irtual
Ġsc oring
Ġ7 2
ĠAr gent
Ġdisc overy
Ġform ula
Ġhand y
Ġcour ts
Ġthink s
Ġint ention
Ġpar liament
ĠQu ick
Ġcook ed
Ġconsult ant
Ġimm ig
Ġvict im
Ġtransfer red
Te ch
Ġcra zy
Ġspons or
ĠTem plate
il ation
Ġre ferences
ĠS ac
ĠS ony
Ġg oogle
ĠM any
Ġbe ans
ĠF le
Ġcon secut
Ġr uling
Ġsh r
pl us
Ġ19 80
Ġact ively
Ġimp ossible
Ġsec retary
Ġass ault
Ġpost er
Ġrem oving
Ġbr ick
ĠWh it
Ġdel ivers
Ġpoint ed
Ġla wn
Ġpriv ile
Ġcontract or
Ġtext ure
Ġdepart ments
Ġtrust ed
ĠMag ic
ĠSur vey
ixt ures
Ġshel ves
ĠPan el
Ġarrange ments
Ġincred ibly
Ġenthus i
P ort
Ã ¢
Ġb out
al yst
Ġh ide
ĠC hen
ĠA w
ĠM and
Ġbe ef
ad i
Ġst uck
ĠR ace
ĠL yn
ĠW ine
ĠN E
Ġpl ot
ĠIn n
ĠIn novation
Ġres olve
Ġper f
Ġdis k
Ġperson ality
ĠSc ient
ĠInd ex
irm ingham
Ġcal m
Ġface book
ĠWork s
ĠPort land
Ġfram es
Ġdecl ared
ĠVis ual
Ġglo be
ĠNet her
Ġobvious ly
Ġdefe at
Ġsou p
U E
a ft
b ird
Ġt act
re r
Ġthe rap
is ms
Ġo z
Ġre ct
ĠS ource
ĠS ett
ce nd
ĠB enef
Ġmake up
Ġind ia
Ġdon ations
Ġhead quarters
ann ah
enn y
Ġleg it
Ġaff airs
ĠMc K
Ġdownload ed
ĠHar ris
Ġengine er
bor ough
hold er
Ġsett lement
Ġacqu ire
Ġattempt s
Ġsty lish
Ġgather ing
Ġveter an
ĠFed eration
B o
B r
H D
I d
U K
Ġt ags
Ġb omb
Ġl oop
ĠI M
ĠI owa
ur ches
ad er
ĠR ome
ĠG reece
em ed
Ġv oc
00 1
Ġpl ates
ord on
Ġun lock
Ġqu ery
pl ant
Ġro ots
Ġpe ak
We b
co pe
ĠPh D
ĠPh ill
Pro duct
ĠMc G
Ġexist ence
Ġrout es
Don ald
Ġclin ic
Ġcoc onut
Ġfacilit ate
Ġsex ual
) )
A G
H ar
Ġs ke
Ġd ash
ĠS i
ĠD ra
ĠD NA
ĠH op
ĠH ub
ĠL arge
ĠW W
ĠG i
em et
os ph
Ġacc uracy
Ġmin imal
Ġcustom ized
Ġsl ot
Ġcap ability
AR D
rodu ction
Ġagree ments
Ġautom ated
Ġinsp ire
Ġstreng then
Ġmechan ical
Ġcorrespond ing
Ġsubsequ ent
Ġdivid ed
t ic
u ly
in th
Ġp uzz
Ġm it
ĠC ulture
Ġg ender
ĠB E
ĠD ur
ĠH as
ric es
Ġ6 6
Ġke en
Ġcur riculum
ĠLe on
ĠMar ia
Ġgr ants
ĠCar ib
med iate
sc ape
Ġflo ors
Ġaud it
Ġcommon ly
Ġlic ence
reed om
Ġstru ck
Ġrob ust
Ġcas ual
Ġconfirm ation
Ġrepe at
ĠCas ino
ĠToy ota
? âĢĿ
P aul
d is
d isc
Ġ \
Ġm aj
ro ck
Ġl atter
ĠM ath
ĠI ce
ĠP as
Ġst ood
ĠF ollow
ĠH oll
ĠG R
ĠG ive
em an
Ġex ec
Ġch ronic
cc a
Ġpr on
Ġra ces
row se
Ġstud ied
Ġsec ured
ĠDe al
Ġtrans formation
Ġexp los
ple x
Ġposs ess
ris es
Ġdocument ary
Ġcelebr ated
Ġcontribut ed
Ġtim ely
Ġbul k
Ġrank ing
Ġrecy cling
ĠFlo or
ĠKent ucky
Ġjun ior
B re
S orry
i ology
u i
or ce
ou ble
Ġd uration
ĠM C
ĠB L
ĠF R
Ġcon clusion
ĠH air
ist ed
Ġse ar
ak i
ip er
Ġne uro
ĠK ings
aw are
Ġshould n
ott age
ĠMan ual
Ġoper ators
Ġselect ing
IT Y
Ġstrong er
Ġvac uum
Ġbur ning
Ġscholars hip
inem a
D irect
F eb
k ers
er als
Ġf ired
ĠS ab
ĠC M
Ġbe aring
ĠR ain
ĠR oc
ĠH o
ĠL iverpool
ĠG B
ĠSt ew
Ġdis aster
ĠY ellow
ĠTh rough
ble m
Ġgu ides
Ġdec re
Ġform ation
Ġdirect ors
Ġstre aming
Ġmet ers
Ġemploy ed
Ġground s
Ġcool ing
Ġemb ed
Cont in
Ġobs erved
ĠMiss iss
ĠBer lin
inf o
i ere
Ġf ing
Ġp overty
ar o
us er
ĠB or
ĠF C
ĠE c
ĠU C
ĠThe ir
Ġrec ru
Ġ5 7
ĠTh ings
olog ists
Ġfind s
Ġ0 5
He alth
Ġleg acy
Ġterm inal
OR T
AS H
Ad v
ĠHow ard
Ġdeal er
Ġrecommend ation
Ġpric ed
Ġsell er
rate gy
Ġload ed
ĠArch ives
Add ress
Ġsurpr ising
Ġelim inate
ĠFriend s
Ġinvent ory
Ġcomplic ated
M arch
W A
c ow
Ñ ķ
on ia
Ġc ub
Ġh ip
Ġg reet
ol as
ra id
ĠI ts
ke e
ĠL ib
Ġsh ipped
Ġne arest
Ġcl oth
ĠIn v
âĢĿ )
ph an
Ġenc ounter
ĠGra de
B usiness
L P
N ever
d am
p any
Ġ ic
it ations
Ġh iring
ĠS ix
ra c
ĠT ar
Ġst ops
ĠD ining
if orm
ĠH ind
Ġ( "
Ġv inyl
ĠN ik
Ġnot ification
Ġk illing
pl ed
old s
Ġinv ention
ĠSh ipping
ĠAr k
Ġdec rease
Ġed iting
ĠAl abama
Ġcare ful
Ġamong st
Ġcontract ors
Ġprotect ing
Ġcharacter istics
ĠCle ar
Ġinstru ments
Ġefficient ly
ĠEconom ics
Ġconsecut ive
/ .
at oes
Ġp ension
Ġp df
an ning
Ġd ess
Ġd ough
Ġh ood
ĠM oore
ĠB R
ĠF alls
ab s
ĠN ash
lo ve
oc racy
Ġcomp osition
Ġsp a
ĠDe an
sh irt
Ġret ain
,, ,
Ġpass es
ĠApp l
Ġvers us
Ġfast est
Ġmount ains
Ġimplement ing
Ġcy ber
Ġadvant ages
Ġsuff er
ellig ent
ĠCert ified
Ġlabor atory
Ġfle et
Cong ratulations
C are
D em
P H
P ut
S M
c ount
y our
Ġ !!
Ġt ied
Ġt issue
Ġs ought
Ġthe atre
ed ar
ĠC art
Ġn ations
id al
ĠM un
ĠB ull
ers e
ĠF ine
Ġde put
op les
Ġ6 8
ific ates
Ġbl ind
Ġsur ge
Ġint ellectual
ĠAnd re
sc ale
Ġz ip
Ġrepresent ation
Ġrecogn ised
Ġprem ier
Ġmass age
Any one
Ġmeaning ful
Ġult ra
Ġcompl aints
Ġadop t
ĠStr ateg
Ġchampions hip
ĠAnton io
Ġoverw hel
N ational
X X
b ered
he w
Ġc ats
Ġf itted
Ġb in
Ġm elt
Ġl ady
Ġg ains
el and
ĠB achelor
Ġres ervation
Ġwork er
Ġag greg
Ġem issions
land o
ĠDe ep
Ġdesign ated
Ġret ired
Ġchild hood
Ġfun eral
Ġgener ous
ĠRes ource
Ġtest im
ask et
ĠHow ever
ĠArt icle
Ġansw ered
Ġarrange ment
Ġupload ed
ĠIsl am
onym ous
Ġterrit ory
ĠIndones ia
2 000
? .
j an
Ġ ^
Ġb ands
Ġd rives
om atic
ro t
ĠC ateg
ot ation
ĠT ower
ĠT ony
am ous
ĠB right
ĠF ashion
ĠG A
ag u
Ġab stract
ast y
Ġout s
Ġout let
Ġdis abled
oun ced
Ġmod ify
Ġart work
Ġdef ence
lish ing
Ġaddress ed
Ġqual ify
ĠPal ace
Ġcapt ured
Ġintegr ate
Ġexerc ises
Ġapprec iated
Ġsustain ability
Ġabsolut e
Ġsequ ence
Ġunex pected
G reen
L ink
t age
re f
on ing
Ġp izza
Ġm ush
Ġre verse
ĠF er
ĠW olf
ĠN H
Ġany more
end ant
ĠAl i
Ġprocess or
Ġob l
Ġeffect iveness
ĠMe et
Ġ199 3
Ġocc urs
Ġattend ance
ĠPe ace
lin ary
Ġpropos als
ĠSch olars
Ġgradu ated
Ġintegr ity
ĠThom pson
Ġscen es
ĠLu ke
ĠBrook lyn
G od
b es
Ġf are
Ġf iction
Ġm i
Ġh ospitals
Ġre nown
Ġg am
ĠD id
ĠD ays
ĠR isk
est y
ĠL ess
ĠJ ess
ric ts
iss a
Ġass ume
ĠDe ad
Ġshow case
Ġadv ised
He y
Ġla undry
Ġcreat ivity
ĠNe v
Ġcomb at
Ġmanufact ured
ĠEd itor
ĠPre p
Ġsix th
Ġdecl ine
Ġarr anged
ĠAlex ander
ĠEnter tainment
Ġpassion ate
Current ly
Ġfranch ise
( ),
g ow
h h
i op
n ame
v ens
ĠC V
el lo
ow ed
Ġst om
ĠG PS
ĠJ ava
ĠK al
iz ations
ĠV it
ib l
und le
own ers
Ġrel igion
Ġgu ilty
Ġart ificial
Ġfund amental
wh ite
Ġnecess arily
Ġdep ot
ĠJe an
Ġmeasure ment
ĠLab our
Ġstrugg ling
ĠDemocr ats
Ġconstruct ed
Pres ident
d i
g ame
k g
n i
Ġt ent
Ġp ets
Ġh ill
Ġh unting
et ooth
ĠM B
ĠM i
ĠT rib
ĠT arget
ĠD E
ĠD ress
ĠR ow
Ġhe ater
ĠE arly
Ġex empt
Ġex pense
Ġab and
ĠCom b
Ġent ert
Ġplace ment
dition ally
ĠFl ash
Ġdiscuss ing
umb ai
ĠGr inding
ĠSw itzerland
Ġcelebr ating
ĠKe ep
Ġapart ments
Ġcontroll er
Ġcomplim ent
emet ery
A ccess
F P
T om
h r
m g
s chool
or ous
ĠS now
ĠM all
Ġbe aches
Ġst em
ĠR ules
Ġwe igh
ĠG ram
ĠN at
and el
and ra
Ġper mitted
ink le
anc hes
Ġshow c
Ġann ually
Ġresult ed
ipp er
Ġold est
Ġmar ine
urch ase
Ġmach inery
Ġhope fully
Ġpresident ial
New s
Ġabs ence
Ġmist ake
Ġrapid ly
othe rapy
Ġathlet es
ĠNether lands
7 00
F R
I X
N OT
S O
e ing
u v
v d
Ġf ake
Ġf ruits
om er
ĠS U
ĠC ow
ĠD ak
Ġle nd
Ġsp are
Ġco aches
Ġ6 2
Ġ' '
ash ing
ĠAn imal
ĠQ ual
Ġval ve
Ġrest oration
Ġlet ting
Re view
Ġdem o
Ġmult ip
pro f
ĠDo ctor
ĠSec ret
ĠCr im
ĠRec ord
ĠWork shop
Pl us
Ġappl ies
Ġindic ates
Ġbatter ies
Ġcoast al
ĠDef ense
Ġdiagn osis
ĠTok yo
angh ai
C reat
E xt
L ong
S uper
s uch
t est
Ġ q
Ġp ione
Ġb ub
ĠS ustain
Ġon ions
am el
Ġal ter
out heast
ĠR idge
Ġ1 10
ĠW riting
ĠG T
Ġsh ips
os ystem
ĠJ oint
Ġbut tons
Ġpre v
ĠAl an
Ġcr ushers
Ġchar ging
Ġcor poration
ĠPh oenix
Ġoper ates
Ġpar agraph
ĠEd ward
Ġinsp iring
ĠGreat er
ĠCamp us
Qu estion
tr ans
ĠMain e
Ġvend ors
Bes ides
N orth
R ight
ï ½
in ars
he alth
is hers
al so
Ġn ail
ch ildren
ĠM E
ĠM as
ĠP resent
Ġst opping
ĠD ise
ĠG ulf
ant ry
oc a
ac le
Ġwork force
av an
Ġprodu ces
ious ly
ĠPro du
Ġins pect
Ġhand ed
Ġpass enger
ipp i
Ġlaw yers
Ġexpl oration
ĠComp anies
Sh op
Ġbra ce
Ġsleep ing
Hel p
Ġven ues
ĠAud io
Ġod d
Ġrestrict ions
ĠCommunic ation
ĠUt ah
Ġtomat o
alle l
Ġagric ulture
ĠAth let
re ach
Ġthe ft
Ġw ing
ar ation
Ġto ys
Ġre ly
ĠM asters
ĠT ools
ĠB O
ĠB ond
ĠR ick
ac o
Ġj e
Ġover l
Ġche aper
ĠCl ient
Ġdon ated
gg ed
less ly
bo ards
On line
Ġheart s
Ġprint able
Ġdam ages
Ph oto
ĠCle veland
Ġsold iers
Ġachieve ment
ĠCommission er
ĠPlay er
Ġaccom pan
Ġden ied
ĠDet roit
Inst ead
ĠFact ory
Ġhes itate
Ġgenu ine
H as
L ocated
M ult
g un
Ġs occer
at ar
Ġl oud
Ġn ick
Ġon ion
ot ype
ĠB irmingham
ĠD im
Ġcon e
Ġex ists
Ġde eper
Ġch a
Ġout fit
Ġ5 9
Ġtw enty
Ġpr inciple
Ġac res
Ġlast ing
Ġprof its
Ġeas tern
Ġ18 0
Ġpresent ations
Ġdeep ly
Ġinitial ly
ĠHam ilton
Ġinvolve ment
ĠChel sea
1 000
M s
S er
Ġt ar
Ġthe ater
Ġc ant
Ġf ert
Ġp it
Ġto ler
Ġh ired
ĠS lo
ĠA ren
ĠR S
ĠW ol
Ġfl ags
arm a
Ġbo oth
Ġopt ional
ann on
att an
Ġput s
ane ous
Ġ199 1
Ġsepar ately
ĠYear s
Ġgradu ates
Ġfair ly
ĠVe h
Ġhar vest
Ġï ¿½
ĠFac ulty
Ġjew elry
Ġtack le
Ġemphas is
Ġrecruit ment
ustral ia
igen ous
uris d
G en
L ife
P s
b ase
Ġt ennis
Ġw ines
ar ound
Ġd ad
âĢ ĭ
ch ing
ĠB ear
ĠB ah
ĠB uck
ist ing
ĠE lement
em ade
Ġex pend
Ġdo se
pt ember
ob b
az ed
let t
ple ment
aint enance
ĠAnd y
Ġopp osed
osp el
opp er
Ġ199 2
Ġpurch ases
ĠBar celona
Ġprint s
Ġperiod s
ĠVal ue
Ġexperienc ing
Ġdecor ative
Ġdepart ure
ĠPal m
Ġprem ises
ĠJust in
Ġnut ri
ĠSaf e
Ġadop tion
ĠJud ge
ĠMult i
Prof ess
B B
B ER
K ey
S H
S ch
S un
m ad
m aker
s elling
ï ¼
Ġt ired
Ġs ust
Ġs ized
Ġf iscal
Ġb io
Ġh oles
Ġre nov
ĠS urg
ĠC ab
ĠC ars
am on
ĠP il
ĠP od
ĠD rug
Ġcon gr
Ġor al
ĠH ung
Ġr ustic
ĠO d
ĠâĢ Ŀ
iv ities
per form
Ġcomp rises
ĠV i
ĠCh i
Ġrec on
ĠAd ams
Ġdist ingu
Ġapplic ants
Ġcontact ed
Ġclaim ing
ĠAssoci ates
che ck
ĠLaw rence
gu ard
Ġglass es
Ġhy brid
ĠDub lin
Disc ussion
D ue
h ar
l on
m ill
Ġs oci
Ġw isdom
Ġc ow
Ġb unch
ol ine
ch air
ĠT ips
ĠR ing
ĠF ish
ĠH ug
ĠO m
ick ing
Ġsc al
Ġsc roll
Ġover come
Ġover night
ric ane
anc ell
Ġmod ules
ĠTe a
ĠAl b
Ġorgan ize
rist ol
ows hip
ĠÂ °
Ġ: )
Sh are
Ġrespons es
Ġmedic ation
Ġimpress ion
Ġliter ally
Ġconcent ration
Ġbes ides
ĠId ent
ĠBath room
Ġwarn ed
ĠMov ie
ĠCarib bean
. ).
A ir
N G
P O
r in
re tt
Ġs lic
Ġb ass
ic ut
Ġd il
ra cle
ĠP aint
ĠG ib
Ġrec all
Ġdet ection
ĠAn na
Ġrece ipt
ĠSp ot
Ġfeel ings
Ġelect ro
Ġhom eless
Ġimpact s
Ġpaint ings
Ġaf raid
Ġsubst ance
ĠBre xit
ĠSu ite
ĠPin terest
Ġfulf ill
yth on
Ġsurf aces
Ġtomat oes
Ġsubstant ial
ĠBalt imore
Ġunus ual
J une
e ven
h ave
Ġt um
Ġa rom
nd rome
Ġp our
Ġto y
Ġin e
Ġm arch
Ġm akers
as ion
Ġh ol
ĠC ome
ĠC itiz
Ġal uminum
ab is
igh ters
ĠJ oh
Ġte nder
Ġqu eries
Ġar med
Ġatt ractions
Ġdef ect
orm al
Ġfocus es
Ġbreak s
Ġextra ordinary
elt a
Ġexecut ion
ĠMet ro
add le
Ġenh anced
ĠTem ple
Ġnom inated
atin um
ĠUk raine
uis ine
ĠAfghan istan
Ġprest igious
M ichael
] ,
p onse
or se
or neys
Ġf er
ing e
Ġb er
Ġin k
om es
as gow
ent er
ĠT am
ur u
ĠH amp
ĠN A
Ġsh ade
Ġpl acing
Ġne utral
ib ration
row ave
Ġloc ate
Ġsm oking
ĠEx cell
Ġstr ange
Ġgener ations
Ġbro ker
Ġpresent ing
Ġdri ed
Ġland ing
AC E
Ġexam ine
Ġfall s
ĠCons umer
add y
Ġanaly tics
Ġcitiz en
ĠCost a
Ġspok en
Pol ice
ĠHawai i
lik ely
A ng
G ra
M et
O pt
P D
c ery
c alled
u j
v ation
w ing
Ġf ed
Ġm art
Ġd up
ot ing
ĠP ier
Ġas semb
ĠR ice
ĠW a
um bers
ant h
ĠO tt
ac co
ĠV ac
ĠY oga
Ġpe er
itt y
ĠCom plete
Ġstart up
ah oo
Ġart istic
ĠPl atform
Ġseason al
Ġant ib
ĠEd ge
Un fortunately
Ġdecor ating
ĠSupp ly
Ġconsist ently
Ġdress ing
Ġcraft s
Ġestim ates
Ġentreprene ur
ĠCompet ition
Ġcer amic
b ally
b ane
p ace
Ġw aves
Ġo x
Ġp upp
Ġb old
Ġd urable
ce ive
im edia
ĠB io
un ct
ĠD ental
ĠG ardens
iv als
ry pt
ĠSt rategy
ian g
red ited
enc er
Cl ass
Ġcollect ive
ĠPhot ography
gl as
ĠPrem ium
Ġconvert ed
ĠWalk er
Ġexclus ively
H and
R uss
T ON
f irst
m ic
p in
r ise
Ġa meric
Ġc af
Ġf auc
Ġd ivers
Ġh itting
Ġe lder
ir s
ĠD ocument
ĠG il
ĠG round
ĠE ye
oc ur
Ġab ilities
Ġk its
Ġam en
Ġmem orial
Ġgra ce
ĠEx plore
ĠZ one
ĠBe autiful
An n
Ġpersonal ized
Ġwrit es
Ġclos et
Ġdr um
Ġaud iences
Ġarch ive
Ġsat ellite
Ġneigh bour
Ġnut s
ĠSpe c
Ġtemper atures
ĠMex ican
Ġhum ans
Ġfol k
Ġhab its
ĠLink ed
quir ies
ĠGh ana
ĠEmer gency
Exper ience
ĠIndepend ent
D iscover
E uro
L ead
N EW
R ich
S l
o il
p op
it le
Ġre ven
ĠS ens
ĠC urrent
ig ator
ir ates
ul ly
ĠG un
Ġch ap
ud ge
ĠJ aw
ĠU AE
Ġany time
Ġpre ced
Ġrem em
ĠBe auty
part y
roll er
AC T
Ġanim ation
Ġaccommod ate
ĠJob s
ĠClin ical
ĠTurk ish
F our
W ed
g ary
l ar
Ġ Ð
Ġt une
on i
Ġf ur
Ġp ics
Ġb atch
Ġn est
Ġn ose
ĠA qu
ĠP ink
ul u
Ġal ike
ĠF al
Ġse ating
ĠO nce
ost ic
Ġk nee
ĠV ery
Ġ6 3
Ġ7 00
ier ra
Ġbook ed
Ġsign als
aut hor
St ay
Ġposs ibilities
ĠOr iginal
rop ri
Ġbar rel
Ġdest inations
Ġstri p
Ġappl iances
asc ular
ĠSu ccess
Ġaccom pany
Ġcolle ges
Bu ild
Ġcry stal
Ġnav igation
Ġvend or
M ac
W ow
h ist
m ay
r ary
s ervice
ĠC ream
id th
ol o
Ġcon gress
ĠG ary
ist ical
ĠN ich
ĠCh oice
Ġun limited
Ġacc um
Ġev olution
Ġ5 8
In formation
we alth
Ġtrans it
Ġfollow ers
ĠSc ript
ĠAl aska
ather ine
Ġsl ip
Ġprom inent
opp ers
Ġstay ed
ĠSub st
Ġbrow se
Ġprec ious
Ġrom antic
Aut hor
Ġvir us
ĠGirl s
Ġtrig ger
olit an
) (
A lex
C ity
P ack
S an
m i
m illion
is an
Ġp ix
st art
Ġl oo
Ġe y
ĠC it
ĠC AR
Ġg otten
ĠM umbai
ĠT ouch
ĠP ad
ĠB ee
ab el
ĠN a
iz ont
ĠCh art
Ġev il
ug g
loy d
be at
Ġhead er
Ġpublic ly
omm y
pos ition
ĠPr incip
pro duct
Ġcompet itors
Ġple asant
ĠMor ning
Ġconvers ations
Ġisland s
Ġthreat s
rupt cy
Ġdisp ute
Ġchemical s
Ġpurs ue
Ġdim ensions
ĠRev olution
Ġintern ationally
Spe aking
Ġagric ultural
1 01
P I
S ing
h u
Ġp aste
Ġp ushing
Ġl obby
ĠB ol
ĠD ragon
Ġpro port
ri ble
The ir
ĠN ort
ĠN ep
rou s
Ġj urisd
Ġdis abilities
Ġco ordin
ok es
Ġsub mission
gg ing
Ġposs ession
Ġequ ally
Ġoffer ings
itc hell
Ġbenef icial
Ġflo ating
Ġpri zes
ĠIm port
Ġspecific ations
Ġrock s
Ġadjust able
Ġfrequ ent
ĠFranc is
do ors
ĠCond ition
Ġjack et
comm unic
h as
h ard
j amin
r t
Â ´
in ance
Ġs ed
Ġw ise
ar ia
Ġd a
Ġd iameter
om in
ĠA y
ĠT otal
un ion
ĠE V
qu er
Ġcomp an
Ġen abling
ĠSt re
ĠV ision
Ġman ip
Ġper m
In s
Ġinv al
ĠDe gree
sw er
Ġauthor ized
ĠAg ent
Be autiful
Ġautom ation
ĠSal t
ĠRuss ell
Ġlab els
Ġsn ap
Ġexhib it
!!!! !!!!
ĠLic ense
Ġkil omet
Ġremark able
ĠCabin et
Ġbron ze
Ġrenown ed
ĠNev ada
' '
J ames
M icro
m ons
an ia
ar ity
Ġm g
st op
Ġl ane
ct ic
ĠT rip
ĠP ra
ĠP ick
Ġcon ventional
ĠG er
ist ent
Ġdis order
amp s
Ġco ins
row s
Ġrel ate
ĠSh ot
Ġgu ided
Ġshould er
iel der
Ġbo ats
Ġgra in
Ġsim ult
work ing
ĠSp a
ential s
33 3
Ġmeas uring
Ġautom otive
Ġmat hemat
ĠBr anch
ĠGra duate
Ġ198 9
ij ing
ĠRepublic ans
Ġgovern or
Ġbeg un
Ġhighlight ed
Mem bers
ĠValent ine
B L
M D
R ob
S D
S U
T w
l ie
m aster
Ã ¤
Ġc ab
Ġf ut
Ġp ine
ol en
ver ages
ĠP ul
ĠB ecause
ĠR BI
ĠH ack
ĠN HS
qu et
lo p
Ġsh aped
ĠO cc
Ġcomp rom
Ġcomp osed
sh ine
So ft
atter y
AS E
Ġmar ijuana
200 7
ĠAct ive
Ph ot
Ġfall en
Ġtown s
Ġsuper b
Ġlay ers
Ġpet ition
Ġspeak s
Ġens ures
Ġther mal
Ġsomew hat
Ġunivers al
Ġvit amin
Ġvess el
ĠDI Y
F IG
S k
W ind
f i
g ie
Ġa est
Ġw orn
Ġf itting
Ġo ak
Ġb ull
om ed
ro ph
ĠS weet
ĠM aking
ĠI an
ĠI BM
ĠD al
ess ed
ĠL ag
em pl
ĠN ob
Ġr ally
Ġsh apes
ud es
Ġle isure
ber ries
Ġ3 50
Ġun iverse
ater al
ĠPro p
Ġfin est
Ġhand les
Ġpass age
pos ium
ĠOr lando
ĠChrist opher
Ġcamp ing
Ġhard er
IC K
Be ing
Ġpick ing
ĠInt el
Ġord inary
ĠOut door
Ġencoura ging
Ġdat ab
Ġload ing
Im age
ĠPR O
Ġrob ot
ĠTour ism
Ġutil ize
Ġemot ions
ĠLouis iana
Ġpregn ancy
Ġinterpret ation
Ġconsequ ences
M AN
N E
P G
a us
g ments
Ġm olec
ic iency
Ġd ive
Ġg amb
ĠA part
ĠP ap
ĠR oof
ĠL ad
art z
ĠO H
ĠSt ainless
ĠV in
com fort
Ġ19 70
aw s
Ġ6 7
Ġact ress
Ġ7 8
ty pe
Ġexc ite
Ġwall paper
ĠAg ain
Ġwalk s
ĠAssoci ate
fl ix
Ġbott les
Ġpartners hips
Ġloss es
Ġdifficult y
ĠElect ronic
ĠMad rid
Ġrelax ing
Ġflu id
bre ak
ĠBas ic
ĠMos cow
Ġsuperv is
Ġfasc inating
IGH T
: )
B T
P ass
T D
g ins
Ġf ried
Ġto xic
as ures
ra ul
ĠP O
ĠB attle
ĠD river
ist icated
ĠE le
Ġch ina
iv ic
Ġj ail
Ġprodu cers
Ġco in
ful l
pr ing
Ġmem orable
Ġser ial
Ġcare ers
Ġref ers
ĠComm and
ĠTr ue
Ġfew er
Ġphys ician
Ġimpress ed
Ġdro ps
Ġsurround ed
Ġspons ors
Ġinvestig ate
Ġdial ogue
ĠPri ze
Ġstom ach
J ack
V ol
Y Y
n ell
o vers
s ome
w riting
Ġc ig
Ġb inding
ro x
Ġre loc
et ed
el ve
ĠA id
ĠA BC
ĠM ix
ĠB ris
ĠR ange
ĠL ang
ĠW right
ĠW elcome
ri ven
Ġde ar
Ġsh oe
Ġj am
ĠCh icken
ob a
ĠPro duction
Ġra b
Ġinv oice
Ġcar ing
ogn itive
year s
ĠGl en
OU R
onst ruction
Ġinform ations
Ġcontain ers
Ġrespond ed
ĠRet urn
ĠUs ed
Ġur ged
Ġnav igate
ĠWi Fi
Ġspokes man
ĠAgric ulture
ĠTai wan
ĠQueens land
Ġgrate ful
ĠRober ts
J o
S unday
T urn
c os
e ctions
p g
s or
v ir
Ġt rib
it utes
Ġb ell
ĠS el
ĠD raw
ĠG ordon
Ġch ic
ĠJ oy
ĠCh ampion
ond ition
Ġsc ar
In ternational
Ġdes erve
Ġtr ay
sh ot
oot ing
Ġpublic ations
âĢ¦ ..
Ġmar gin
ĠAb u
Ġcult iv
ĠSk in
Ġlaunch ing
ĠCamp aign
met ic
Ġsatisf y
ĠWay ne
Ġtro ops
Ġcompr ising
ĠRegist ration
ĠMaterial s
ĠPalest inian
Ġfundra ising
Ġconj unction
Ġunderst ood
E lect
M ain
S il
w estern
Ġt ies
Ġt ropical
Ġb its
Ġh orses
ĠC OL
ad ows
ĠD ry
ĠF ro
ĠF eed
ĠN SW
ant e
ĠJ en
ip h
Ġim per
Ġper t
ric a
ĠUn categ
Ġcons olid
Ġatt itude
Ġcur ious
Ġcor por
ĠBe ck
augh ters
IT E
ĠPer fect
Ġball s
ĠUl t
aren cy
inst all
Ġtu ition
Ġriv al
ĠAnaly tics
Ġphen omen
C OM
S u
k ind
u ment
Ġ urg
Ġin cl
Ġd rew
Ġl am
Ġg ang
ĠA irl
im p
ĠB art
ĠB os
ĠD a
ĠL en
Ġhe aven
ĠN S
ram e
ob s
get s
Ġevery body
Ġi T
Ġform ats
Ġret rie
ĠAd obe
ĠPl ans
Ġdef ensive
ĠBe at
vent ions
Ġtri als
ĠGl asgow
Ġsepar ation
Ġaffect ing
ĠCare er
Ġver ify
Ġestablish ing
ĠDet ails
ĠOper ations
Ġlamp s
Ġpill ow
Ġsubscrib e
ĠTransport ation
ĠLO VE
ĠQuest ions
E st
N ET
Y et
b ay
Ġ 000
on ge
Ġin aug
Ġl ounge
Ġg ig
ch ron
ĠM t
ĠB apt
if est
ĠF M
ĠE ve
od ium
ĠK id
Ġun likely
Ġtra ins
ang o
Ġent ities
Ġass ured
Ġdon ate
Ġspecial ty
be y
att oo
Re al
Ġprom ised
OR K
Ġupd ating
Ġhold ers
Ġmar ble
ĠGr ay
Ġcollect ing
Ġsurv ive
Ġtrou bles
ĠOffic ial
Ġec osystem
ĠJon athan
Ġreject ed
Ġdeput y
S am
d ie
p ub
Ġb ol
ĠC rit
ĠA er
ĠB oot
ĠB ristol
ĠH E
ĠH em
ĠL if
ĠW ould
Ġr ush
ĠO racle
iv an
Ġgo ver
ĠTh ird
any on
chn ology
ĠEx cel
Ġref used
Ġtri es
ĠCar ter
Ġmil it
ĠChe f
Ġcomb ines
ĠHealth care
ĠPart ner
ĠCr ime
US A
Ġrad i
unt ary
Ġexecut ives
Ġroll er
Ġter race
ĠRet ail
Ġdram atic
ĠBoy s
ĠCond itions
ĠLeg isl
ĠLabor atory
Ġvibr ant
ĠBru ce
Ġadequ ate
rape ut
D ist
M at
N on
T I
m ind
he art
or ms
is odes
ĠS pect
ch a
ĠM ine
ĠT ask
am an
ut ing
ĠB ou
ĠB rid
ĠD ig
ĠR AM
ĠF isher
Ġcom ic
ĠL anka
ĠE L
Ġv ou
Ġde ployment
ac ent
og s
Ġqu ilt
Ġreg ime
erm arket
Ġpres erve
ĠWe ight
Ġgra des
ĠPl astic
Ġpur ple
Ġapplic ant
Ġhapp iness
Ġaff iliate
sc ar
AS S
Ġâ Ĩ
Ġ198 8
Ġbur ied
ĠReview s
OC K
ĠConst itution
Ġclimb ing
Som etimes
ĠInte gr
Ġheav ily
ĠAssess ment
ĠMississ ippi
1 20
E ar
G oogle
L ocal
M obile
N ice
S ource
o T
p ath
r ust
s im
s ized
he ld
Ġto pped
ic he
ro se
Ġl ibraries
ĠS ud
ĠS ession
Ġn ode
ch i
ĠM I
ĠM es
ĠF aith
ĠH at
ĠG a
ĠE S
qu al
Ġch urches
ĠK ate
ap se
ach t
ph alt
ĠCom ments
Ġsm ell
de velop
ĠAd vert
Ġ/ /
Ġgener ating
ĠRes erved
Ġdist urb
ex p
Ġear ning
Ġcou ples
Ġmind s
ĠRec overy
bor o
ĠWar ren
Ġsett led
ĠDel ivery
Ġcapt ain
Ġcollabor ative
EE E
Ġoccas ions
Ġcalcul ated
Ġparam eter
ĠFA Q
Ġaccompan ied
9 00
P E
R ober
U RE
l am
m el
w riter
is ers
Ġp ushed
le ans
et a
ĠS K
if i
ĠF ern
ĠH IV
ĠL aura
ĠG ov
ĠE ach
Ġv oices
ĠâĢ ĭ
ine e
ry lic
Ġoff ensive
Ġtra ils
Ġsc rap
ish ment
Ġ19 60
Ġcol on
Ġwell ness
Ġinst itute
ces ter
ced es
Ġinter vention
ĠLe ather
ĠEx po
Ġval ued
ON E
ane ously
ĠState ment
Ġpast a
ĠPol and
ĠYork shire
ĠAb d
Ġmeas ured
Ġblock ed
iff s
Ġtru cks
Ġsett le
Ġelse where
Ġep ic
Ġviol ation
Ġjud ges
TH E
ĠNor way
sm ith
sm all
Ġquot ed
ĠKenn edy
Ġsusp ension
ĠTreat ment
itts burgh
E asy
J e
M ade
S chool
T ype
Ġ outer
Ġs ons
Ġw age
Ġw elfare
Ġb abies
Ġh iking
ĠC reate
ot y
am ine
ĠP ool
ĠP ump
ĠD ifferent
ĠR io
ĠF irm
oo oo
ĠN BA
ac hers
Ġsome how
Ġcomm od
Ġinst antly
Ġown s
Ġproduct ive
ĠComm ons
Ġgener ic
Ġmet er
Ch ar
200 5
ĠReg ister
ĠEd in
ĠArt ist
Ġessential ly
Ġretail ers
ĠLead er
Ġdim ension
ĠKh an
ĠConnect icut
ĠStat istics
Ġham mer
Ġvulner able
ĠHistor ical
ĠSug ar
N D
c i
g row
n or
p al
w ind
Ġf ixtures
is en
Ġp ond
Ġre wards
ĠS ince
ch ant
ĠT un
Ġst er
un al
Ġpro pri
ĠH unter
ĠL anc
ĠN elson
Ġdo zen
iz ard
Ġso ap
ount ain
Ġun ited
Ġun like
hed ral
enc il
ĠAn im
ĠCol lect
Ġcontact ing
Ġprom o
ane an
Ġbenef ic
Ġste ady
Ġpopular ity
Ġpromot ed
Ġpromot ional
ĠMad ison
Ġeth nic
Ġcomput ing
ĠBlo om
Ġblogg ing
ĠTit le
effect ive
Ġobl igation
ĠDak ota
1 10
N O
c ore
g roup
m ate
s i
u h
u y
w oman
he at
Ġb icy
ed e
Ġm a
Ġm esh
om ic
om as
ĠM T
ĠP arent
ĠD est
Ġ1 30
ck ets
th an
op t
Ġad orable
ĠK ay
ĠSt ra
act eria
Ġar c
vers ion
Wh ite
Ġbr anches
Ġhand led
For mer
Ġval ley
Ġint ense
Ġspec ify
Re f
He ad
Ġimportant ly
Ġexpect ing
Ġtreat s
Ġsum mit
Ġident ifying
ĠCor ps
Ġtour ists
ĠSim ple
Ġbur den
Ġdemand ing
ĠNY C
Ġincor porate
Ġrecip ient
ĠClin ic
Ġrough ly
ĠBud get
Ġsoph isticated
usal em
ĠBarb ara
ĠStew art
G roup
f ather
Ġt ort
Ġt ribute
Ġc ous
Ġto dd
Ġm igration
Ġd ancing
st ock
et e
ĠS L
Ġg ently
ot an
ĠB oth
ill ance
ĠR C
Ġcon ferences
ĠH ans
ĠW ik
ri k
Ġhe ated
ĠG rey
ĠN OW
ud son
ĠO bs
Ġle ar
ast ics
ip es
ĠK a
ĠSt ars
ĠV ent
ĠIn iti
ĠPro ceed
Ġback ing
Ġbo ots
Ġtem pt
ĠAs k
Ġpot atoes
ĠHar vard
amb oo
fl u
ĠDis co
Or gan
bu ilt
Ġpo etry
ĠThanks giving
Ġterror ist
Ġped est
ĠCry stal
Ġsen iors
ĠCapt ain
ĠBelg ium
F igure
M art
S uch
W ater
t w
on z
Ġc yl
Ġf rag
ic ity
as a
ro gen
ĠC E
Ġg el
ĠI R
ĠB A
ĠF it
ĠF itness
ĠW ard
ĠG M
ĠN ike
Ġr ings
res a
ĠO t
Ġcan vas
per t
Ġdo i
erv ices
Ġkn ife
Ġtr ash
we b
ĠCom pl
Ġ6 9
Ġass ists
Ġdisc rim
Ġform ing
Ġend e
Ġbook mark
ott a
Ġorder ing
ret ion
ĠDes cription
AC H
IT H
ĠDep uty
Ex cellent
ze ch
ĠSw iss
ĠDesign s
ĠAnt i
Ġdecor ations
Ġtim ing
Ġfant asy
Ġlaws uit
Ġestablish ment
Ġlux urious
Ġimpl ications
ĠArab ia
ĠProcess ing
Ġproceed ings
Ġalleged ly
Ġdestroy ed
Ġalleg ations
Ġcongr at
G r
es is
Ġl iver
ĠS AP
ĠS MS
ĠA le
ĠD rop
Ġal ign
ĠF reedom
ĠH i
ĠL em
ĠN ar
and al
ĠU pper
ip linary
og y
ĠV PN
Ġwork out
Ġar bit
Ġam azon
Ġ7 7
Ġtrans fers
ĠAl ice
Ġgener ator
Ġinf ect
Ġgr anite
ĠTra ck
Ġelect ronics
Ġenjoy s
ograph ical
ĠSte ven
back s
Ġcook ie
Ġinsp ir
ĠInt erest
Ġreported ly
ĠIndust ries
Ġdemonst rated
cont ent
gl ass
ĠAdd ress
Ġveget able
Ġadvis or
Ġfro zen
Ġinstruct or
Av ailable
Oct ober
Ġadvent ures
A w
F riday
H O
L ight
O ffic
R ad
b ig
b ank
l u
m ap
p her
r ors
w er
it arian
ro be
ĠS hip
ĠS of
ĠC rown
ĠC ultural
ad ise
Ġst ove
Ġst adium
ĠF ant
Ġhe nce
ĠN ag
Ġmy stery
Ġqu arry
ang a
Ġ6 1
Ġ7 3
Ġinc idents
Ġed ges
Ġworld s
ĠTe acher
ĠAl t
ĠPl aza
Ġconf idential
Ġland s
yl er
Ġtax i
che stra
Ġtext s
ĠShe et
ĠPort al
Ġcy cling
Ġjud gment
Ġchem istry
ĠRob inson
Ġsurv ived
Sim ply
ĠDom in
Ġsuspend ed
ĠUncateg orized
! ).
D E
J uly
R est
g reen
h all
m atic
z ens
at ics
it ivity
Ġf rench
Ġf oster
ic ient
ent ry
Ġth ro
st ud
Ġl id
et ics
ĠC old
ĠM uch
ĠM erc
ĠT ab
Ġcon cluded
ĠW ant
ĠW orth
ĠW onder
Ġsh ades
ne ction
Ġ19 87
Ġunder ground
Ġ7 6
Ġplay off
ĠSh anghai
Ġrequ iring
Ġ9 7
Ġret ro
Ġopt ical
ĠCo le
ĠPr incess
Ġlog ic
Ġassist ed
Ġintrodu cing
Ġworth y
Ġqual ifications
ĠBut ter
Me et
Ġgen etic
Ġconfig ure
bl ack
Ġpeace ful
Up date
ĠBet ter
Ġast ron
ĠCra ig
ĠKnow ledge
Ġpregn ant
ĠAren a
ĠExcell ence
ĠiT unes
? |
E nt
F ire
I AL
L o
Y eah
e g
f r
w y
er gy
Ġp ig
Ġp ork
Ġp iano
Ġb ust
ĠM ills
ĠT ut
ĠL akes
ĠW I
Ġde leted
os a
ĠO ri
Ġle ak
te ct
ĠV illa
Ġwere n
Ġ19 50
Ġreg ards
ific ent
Ġwhere as
Ġmed al
ene z
rent ices
Ġpat ent
ron es
Ġprom ises
Ġcert ificates
Ġnon profit
ĠPark er
Ġdr ill
ĠCor ner
Ġant ique
Ġfre el
Ġconduct ing
Con nect
sec ond
Ġadjust ed
Ġproud ly
Ġsurv ival
umin ium
Rep ort
Ġrenew able
ĠDou glas
Sm all
ĠKen ya
xy gen
Prov ide
Ġacknow ledge
ĠCamer a
Ġprospect s
osit ory
ĠAlbert a
Ġentert aining
A V
F un
T im
T est
b lo
c op
d irect
t wo
Ġs its
Ġp y
an ium
Ġin clusive
Ġd airy
ĠS in
Ġg re
Ġg em
Ġg ross
ĠT her
ĠP erm
ĠD elta
ĠF an
ĠL an
Ġhe ll
ĠN Z
Ġcomp osite
ap h
Ġmy ster
pl ing
Ġsp ir
Ġcar go
Ġrem inder
Ġ9 8
Ġbr ass
Ġrece ives
ĠBe fore
ĠBe ijing
Ġinf ection
Ġrest art
ĠBl ues
Ġprom ising
Ġhard ly
Ġtem ple
ĠEn joy
Ġappear ances
ĠInt elligence
Ġqual ification
Ġsn ack
ĠMor ris
Ġsem ester
Ġnation wide
ĠPay ment
Bl ue
Ġpoll ution
Ġresist ant
Per haps
she et
ĠCB D
ĠNAS A
ĠRout e
dep th
Ġnegoti ations
raul ic
H R
M R
l ades
Ã ±
Ġc aut
Ġm unicipal
Ġd oc
Ġd ated
Ġl ined
ĠS R
ĠS und
Ġe co
ol ester
ĠP ent
ĠF ell
ĠH ire
ĠL isa
ĠW or
ĠG ill
Ġse venth
ard o
Ġcomp assion
ind a
ans hip
cl ed
Ġmy th
Ġqu e
Ġprov in
oth y
uss els
ern ess
Ġclo sure
ĠIs a
ĠRes pons
Ġsl ots
Ġlight weight
ĠTra in
sc ribe
Ġmove ments
Ġpot ato
ĠChe ap
Sh ow
Ġclos est
ĠBr un
Ġhon ored
lim inary
Ġdiv orce
Ġdro ve
Ġdro pping
ĠVis it
ĠOrgan ic
Ġtow el
Ġrenew al
Rem ove
ĠChampions hips
ĠUl tra
Ġtast y
Ġtail ored
Ġadvoc acy
Ġcock tail
Ġsudden ly
Ġphr ase
ĠAirl ines
B rowse
E v
F ort
P ower
V er
f il
n n
s u
Ġc uisine
it ime
Ġf ry
Ġb ail
le ading
Ġth y
Ġre vers
ĠS oul
ĠC oc
Ġg aining
ĠM itchell
ĠR ent
Ġcom edy
ĠG ab
lo gy
ie v
Ġsp ell
Ġtr icks
ph ant
Ġbet a
Ġass ignment
au ge
Ġfil ters
Ġopt imal
St and
Ġreal istic
af ood
There fore
ĠX P
rop ract
ĠGu id
ourn als
Ad ditional
eral d
200 6
Ġsol ving
ĠGr iff
Ġaccept ing
ett a
Ġmount ing
ĠProgram me
Ġadminist rator
ĠBank ing
Ġroll ed
Ġcross ing
Ġ198 5
Ġdecl ined
Ġattempt ed
Ġrelax ed
Ġoccup ied
Ġtun ed
Ġpharm acy
Ġunc ertain
ĠAdvis ory
Ġpubl isher
ĠBrother s
Ġware house
Ġrefriger ator
ĠJer usalem
spec ific
ĠSett ings
ĠNash ville
B E
G iven
H P
S I
S ever
g reat
or ate
Ġw ax
Ġf ridge
ing o
Ġo ct
Ġb arn
Ġd ub
Ġh un
Ġh ug
Ġh unt
ĠS ER
Ġn erv
ĠB ott
ĠB aker
ĠD ipl
ĠR ivers
ment ia
ĠF ra
ĠF ly
ĠF ive
our cing
ĠL ay
ĠN W
art en
th ur
are r
ĠU b
Ġj azz
ĠK rist
ĠSt age
ĠSt orm
ĠV ista
Ġapp et
Ġ7 1
Ġrel iability
Ġ8 3
az y
ĠHe ights
ĠCol omb
Ġmet ab
Ġask s
Ġdem ocr
ĠPark s
cast le
Ġcolor ful
Ġaccept able
Ġwor ried
Ġroll s
Ġseek s
ĠGra ce
Ġhospital ity
Ġprec ision
ĠMedic are
Ġrail way
ĠJeff erson
ĠArchitect ure
Ġtransp arent
ĠNurs ing
ĠExhib ition
NOT E
Ġamen ities
Ġdatab ases
ĠBris bane
B ro
F ore
c amp
p ired
u gh
Ġs ne
Ġc ir
it err
Ġf ancy
is p
Ġh ike
Ġh ills
Ġe Bay
ĠA ch
ig o
ĠM aj
ĠP E
ĠD uring
ĠR F
Ġsh ore
Ġpl umbing
Ġres ign
Ġtra ce
Ġcol ored
Ġvis ibility
Ġpres cription
ah o
Ġread s
Ġmed itation
Ġcount ies
Ġdist ricts
ĠTra ding
ĠFl at
Ġlink ing
rop olitan
Ġtem por
Ġtable ts
ĠGu est
ĠMe chan
Ġwind s
Ġcompet ing
Ph il
Ġaccept ance
Ġsuggest ion
Ġdeath s
ĠEv ans
Ġrepl acing
ĠStand ards
Ġchart s
ĠExt ra
Ġforg otten
Ġder ived
ĠManufact uring
Ġdefe ated
Ġweap on
Ġmut ual
ĠSus an
ĠUnivers al
Ag ain
Ġoblig ations
ĠCoun sel
Ġfing ers
ĠHamp shire
B ring
G C
L ive
R un
d ings
j u
l ad
u ke
ic ular
st rong
ĠC row
ĠC BS
ĠC anyon
us hes
ĠM AR
ĠT odd
ĠB MW
ĠF at
Ġor th
ĠH ad
ĠH onda
ĠL ocation
ĠW ee
ri ors
em en
qu are
ĠV ill
ĠCh oose
ĠCh rome
end ed
anc he
ful ness
Ġback s
Ġcar b
hes ive
Ġbl ade
arm s
cept ions
Ġappro ve
Ġrece iver
ĠMan aging
Ġspec ification
Ġeng lish
Ġgr at
ĠFl ight
ĠApp lications
Ġmusic ians
Ġcou ch
Ġvol tage
Ġbeautiful ly
Ġcult ures
DA Y
Ġcup s
ĠCert ification
Ġlegisl ative
col or
Ġwel coming
Rec ently
Ġcalcul ate
ĠFrank lin
ĠColumb us
ĠCharl otte
ĠPolit ical
ĠNut rition
Ear lier
E s
M aking
c ap
e v
h op
o ise
r ine
Ġ !!!
it ol
Ġd ip
Ġl un
id ity
ĠA F
ĠP un
Ġas h
ĠR ug
ment ed
ĠL ie
ĠL odge
Ġr anges
ĠU P
Ġen orm
own er
Ġdis orders
Ġsp acious
ĠRe ally
ĠRe lease
Ġunder lying
Ġwhere ver
Ġrem od
Ġatt ributes
arn ess
Ġsub mitting
Ġaut umn
Ġsl ides
Ġve gan
Ġinvest or
tend ed
ĠOr leans
Ġland mark
Ġkey words
Ad ditionally
Ġcal ories
Ġclear ance
ĠDis play
Ġbal anced
ĠSupp lier
Ġrev ised
ĠPhot os
ĠCamp bell
Ġobs erve
Ġgovern ance
Ġanaly ze
Over all
Ġachie ving
Part icip
ĠPhys ical
Ġlect ure
Ġmob ility
Ġcrypt ocur
Ġincorpor ated
intend o
heim er
ĠBlu etooth
izont al
Ġexcite ment
A f
B as
E r
R o
c ur
c ost
d et
f ix
i ov
Ġt err
Ġs ail
or ious
Ġc rop
Ġp ole
Ġto ss
Ġd iesel
Ġl ately
ĠS ig
ĠM ason
ĠM ars
ur st
Ġst roke
ĠD iet
Ġwh olesale
ĠL oc
Ġv ocal
ach i
Ġun to
Ġtra des
ĠTh ink
Ġind ivid
Ġra c
pend ing
Ġtreat ing
roll ed
Cl oud
Ġappear ing
Ġhom emade
Ġconsider able
ĠCons ervation
Ġweekend s
Ġexecut ed
Ġgradu ation
Ġachieve ments
Ġaltern atives
CA A
Ġdemonst ration
Ġcheap est
Ġshel ter
Ġglo ss
Ġod ds
ĠRail way
Ġpip eline
ĠTru ck
ĠBB Q
Ġmoist ure
Ġtradem ark
Ġcush ion
ĠMarg aret
ĠArgent ina
A K
B ox
D O
J ul
i aries
s ize
he lp
Ġc ure
is ely
Ġto b
Ġm ills
ic ts
id y
ra h
im mer
ur d
ver ter
ĠH orn
ĠN ative
ĠN eb
all ic
Ġab und
Ġcomp ound
Ġne at
Ġwhe at
Ġout line
Ġ3 65
ick ed
Ġam p
Ġtw itter
ĠTh ai
Ġ9 2
ĠLe ft
ĠAl f
Ġclass ical
Al ong
Ġtre asure
Ġcou pons
ĠEm ployment
Ġsens ors
Ġfeed ing
Ġbur st
ĠBen jamin
Ġapprec iation
ĠVis a
Ġvan illa
Ġreflect s
ĠLight ing
ĠDisc ount
Ġsurg ical
Ġbench mark
uer to
ĠPict ures
Ġcontrovers ial
Ġrehab ilitation
olester ol
iterr anean
B en
C ut
C ount
M iss
N ame
S upp
W as
f eed
h al
m id
m other
s om
ĠS yn
ĠC arm
Ġn urse
im ens
Ġst rive
ĠB le
Ġor g
ĠH app
em ail
Ġnot ified
Ġout lets
ĠSt ream
Ġqu ar
Ġar riving
hes is
ins ula
riv ate
Ġinter actions
Ġrun ner
enn ial
Ġbre ach
Ġlo ft
yl on
ĠInst ru
Ġport rait
ĠIm ages
Ġeconom ics
200 4
Ġsol ic
Ġfriends hip
ĠMon te
Ġenter prises
Ġinfl ation
Ġswe at
unt u
Res earch
ĠMach inery
Ġprec ise
Ġglo bally
Ġjournal ists
ĠLo an
Ġincor rect
Ġstruct ural
ĠPub lishing
Ġmagn etic
____ ____
ĠHor se
ĠJenn ifer
Ġsurve ys
Ġlad ies
Ġenem y
ĠDat abase
Ġembed ded
Ġfauc et
ĠBapt ist
ĠEdin burgh
B ill
C r
C ap
G H
H C
b us
b led
e xt
k h
m art
Ġd ensity
ĠC ircle
Ġbe ating
ĠL ar
um ble
Ġj ar
ĠCh ocolate
Ġtra uma
anc ies
Ġam pl
Ġsec urities
Ġfin ishes
Ġcar ries
az ines
ĠCl ar
Ġtechn ological
Ġref lection
ann es
Ġinvest ed
Ġinstall ations
Ġaddress ing
Ġ16 0
Ġdeal ers
Ġdownload ing
ĠDirect ory
Ġfavor ites
Ġprevent ing
Ġimm une
Ġaffect s
Ġep isodes
tra ck
Ġindic ator
ĠMil itary
ĠPet ers
ĠRob in
Ġbes ide
Ġmotiv ated
Ġenroll ment
Ġmic rowave
Ret urn
Ġpup ils
Ġoppon ent
Ġdiscip line
Ġexec ute
Euro pe
W ash
l aim
p oke
y r
Ġc it
Ġp ars
Ġp ants
as ury
ĠS F
ĠS ierra
Ġg ut
ĠA V
ra ment
ĠM az
ĠM atch
ĠI l
ĠB ass
our t
Ġcom bo
Ġall erg
Ġcl im
Ġres il
Ġqu it
Ġacc redited
In vest
Ġdes ert
Ġthere by
Ġ8 4
Ġ8 6
ict ions
Ġpres cribed
Ġmod erate
Ġret reat
Ġleg ally
Pro ject
ĠPol ish
ĠWind ow
Ġcand y
ĠProf ile
Ġconsult ants
Ġded ication
Ġdifficult ies
Ġtrain er
Ġindepend ence
ĠRich mond
list ed
Ġbreat hing
ĠSn ap
onom ic
ĠPow der
Ġwal let
Ġmere ly
Ġpractition ers
ĠLinked In
lades h
! ?
C ost
M aster
N AS
S ervice
b as
e i
j ack
v t
Ġt ong
Ġp ear
Ġp oker
Ġin clusion
le ft
Ġh int
Ġre novation
ĠS N
ĠS ample
ĠS leep
Ġe ager
ĠC ould
ĠC urt
ĠC afe
Ġn it
ĠM ob
ĠR ate
ĠR av
ĠR anch
ab lished
Ġv ig
Ġch ill
Ġle verage
ĠJ oin
ie val
Ġman ually
av ior
Ġdis ag
ens ed
Ġdes per
Ġbu gs
ĠPro gress
rit is
ĠSh ar
ĠCl imate
ĠAr c
Ġchar ter
be cca
Ġreview ing
Ġcamp s
Ġel ite
ĠHealth y
ĠPart s
-- -
uk i
Ġpolit icians
alt ies
Ġdepend ent
Ġstri king
iction ary
Ġpool s
Ġpros per
ĠOper a
Ġemot ion
Per form
Ġgun s
Ġnurs ery
Ġscen ario
ĠMur ray
ĠCommon wealth
cure ment
ĠScholars hip
ĠElement ary
C ard
H ouse
O H
S QL
a ic
h s
Ã ¨
Ġt ang
Ġthe sis
Ġw ool
Ġp ound
an ut
Ġm ild
Ġm int
Ġh al
Ġth umb
ro b
ĠM aintenance
ĠT es
am ents
ĠP ant
ĠP rad
Ġst olen
ĠB eth
est on
Ġch ains
Ġch amber
ud a
ĠU V
ĠThe ory
ĠV el
ie ces
Ġun em
ĠTh or
erm at
Ġmay or
Ġche er
ĠLe x
au kee
Ġexp ed
ĠBl ood
uck land
Al tern
Ġrele asing
ĠHar bor
arth a
Ġtarget ing
Ġbus es
ID E
Ġemb od
Ġsem inar
Ġattract ed
Ġinvestig ations
ĠNet flix
ĠJew s
Ġveter ans
ĠOpt im
Ġmotiv ation
ĠGro ve
found er
Ġroy al
Ġdatas et
ĠDise ase
N ovember
f lo
f und
t ry
re ne
Ġb oo
Ġb acon
Ġd iving
Ġh ockey
Ġl bs
ĠA A
ĠT ry
ĠP ittsburgh
Ġst air
ĠD ent
ĠR at
ĠR ou
ĠR ule
Ġcon vention
ĠL uther
Ġhe m
Ġhe al
ĠG arc
ĠN T
um m
Ġde emed
ĠO P
Ġsu cc
Ġsu icide
Ġnot ifications
ĠV oice
Ġsc iences
ov o
Ġpe oples
amp a
Ġher bs
rit ers
Ġ8 8
ĠSh opping
Ġatt orneys
Ġdisc retion
Ġdet er
ĠSe an
Ġrun ners
Ġ12 5
Ġbuild er
ĠCo ordinator
Ġ14 0
Ġcou rage
Ġfoot age
Ġassoci ations
ĠSk ills
ID S
Ġhon our
Ġemb ark
Res idential
Ġreve als
Ġtur key
ĠMont real
Ġoptim ization
Ġspect rum
ĠOpt ions
Ġlit igation
ĠYOU R
ĠCharl ie
Ġweak ness
Ġcann abis
ĠProceed ings
Sever al
= "
d iv
m ir
t i
u w
| ?|
Ġt ear
Ġt urb
Ġf ears
Ġf ixture
Ġb ones
al ia
Ġl i
Ġl ung
Ġe book
ĠC ass
ĠT ag
Ġst ones
ĠF T
Ġcon form
ĠH ab
ĠE t
ĠN ear
um ar
and o
ĠO z
Ġad apter
du e
ĠK ath
og ram
iz a
Ġun cle
ĠY an
Ġacc ent
Ġco ating
ĠCom plex
Ġbet ting
Ġno on
Ġass ert
ren cies
ĠLe eds
ĠLe ban
Ġrep rodu
Ġcent res
Ġcor ruption
con f
ĠBe er
load s
IN D
Ġfac ial
ĠGu y
Ġport s
ĠGr an
ĠPer ry
ĠProject s
Ġnation ally
Qu ick
Ġjournal ist
Ġdial og
Work ing
Ġadvis ory
ĠSwed ish
ĠLiber ty
ĠLind a
ĠChap el
ĠEag le
Ġunve iled
Ġaggress ive
Q U
S end
T alk
b ably
h ang
s ki
Ġa qu
re ational
Ġin quiry
il iation
st ed
ĠS ay
ĠS ter
Ġn am
ow ered
ĠA K
ĠA W
ĠA ld
ĠA CC
ĠA aron
ĠT ig
ĠP red
Ġal ph
Ġal mond
ĠR achel
ĠH az
ĠH alf
ort ion
Ġsh orter
ĠJ et
Ġup set
ĠSt op
ĠV erm
ub a
ub s
Ġany body
âĢĿ ?
Ġtw ist
Ġcar p
Ġ8 7
Ġbo il
Ġlong est
ĠTe aching
Ġcustom ize
Ġcr imes
ĠOr th
Ġexpl aining
Ġdi y
ĠNe uro
Ġparticip ant
ĠQu estion
Ġconnect ivity
Ġmat ched
Ġinfl amm
Ġqual ities
Un iversity
ĠSupp liers
rup ted
Ġcy cl
Se ptember
Ġwarm ing
Te am
Ġmail ing
Ġpros pective
Ind ia
Will iam
ĠOF F
Ġforum s
Book s
,,,,,,,, ,,,,,,,,
Ġgro cery
Ġexcess ive
Rel ated
Ġscr atch
ĠPsych ology
ĠRog er
ĠAdvent ure
Ġnutri ents
ĠSurg ery
333 87
B N
G L
U l
f old
f ox
p lease
er ick
Ġc ents
Ġc ited
Ġb un
Ġb ite
Ġd irt
om eter
as ive
ĠS r
ĠS EC
ĠC ad
ĠC ards
ĠA bs
ĠM Y
Ġbe an
ut ed
ĠP ic
Ġst abil
se arch
ĠF ocus
ĠL ights
ĠN az
Ġle an
Ġsu its
Ġj et
du ced
ical s
ne cess
ener y
ĠCl are
Ġcount s
Ġconf ront
Ġbed ding
ĠChe v
ĠQu arter
Ġvari ables
crib e
Ġmaint ains
Ġsell ers
ura b
Ġsignific ance
ĠHer o
ĠGra ham
Ġbi ological
Ġ198 4
Ġmus cles
Ġaltern ate
Ġcomplex ity
Ġmeasure ments
Ġarchitect ural
Ġcast le
Ġfra gr
ĠProte ct
Ġpsych ology
Ġthrow ing
Ġresearc her
???? ????
spe ed
Ġmist akes
Ġsuperv ision
ĠDu ke
Ġlin ear
Ġok ay
Ġsurve illance
ĠGrow th
ĠHig her
Ġcust ody
ĠUlt imate
D B
H ist
M ag
P ublic
T otal
a ed
n ai
v ol
Â ł
Ġa ug
he el
he rent
Ġc od
Ġc oding
Ġin com
Ġm ant
Ġy o
ĠS olid
ĠM illion
ĠT ob
ĠP ure
ad vant
ĠB ak
ill o
ul in
ĠD inner
ĠF el
ĠF DA
Ġsh ine
Ġch rome
ĠJ ere
ip edia
Ġthem ed
Ġadd iction
ek s
Ġloc als
Ġ7 4
let te
ĠWe ather
con y
Ġhealth ier
ĠOr ig
Ġpack ing
ĠSte am
Ġpar ish
Ġpar allel
Ġclean ed
Ġvol umes
li est
ĠIm prove
Ġrespons ive
ĠStud ios
ĠCr ushing
itte es
Ġfail ing
Ġbank ruptcy
ĠProgram s
Ġaw a
Ġcondition ing
Ġ198 6
ĠElect rical
Ġlock ed
Ġtransl ated
ĠPriv acy
Ġtrad ers
Ġrare ly
ĠWild life
Ġcorn ers
Ġmand atory
ĠStan ley
atern ity
Ġrecru iting
L aw
M ap
N ov
b ad
c ient
d riven
e or
f unction
i ag
l ib
n on
r ons
ã Ģ
Ġw ages
es ters
Ġf isher
il ion
ro e
Ġl ap
ĠM ak
ĠT N
Ġst ays
ĠB ab
ate ur
ĠW C
ist ries
ĠE SP
Ġr uled
Ġsh ake
ag ne
ĠK el
ĠK am
ĠThe ater
ick er
Ġoff line
Ġim aging
Ġam id
Ġco inc
ĠCom pos
Ġmin erals
ash a
Ġbl ast
ĠCl ay
ĠPl ate
Ġcle ans
ann ers
Ġcreat or
ĠAm y
ribut ed
ĠEm pire
ĠPar ish
Ġbra ke
Ġprior ities
Ġdest ruction
ĠHot els
Ar ch
Ġcontribut ing
Ġprogress ive
Any way
Ġinflu enced
Ġmotor cycle
ĠMer cedes
Ġingred ient
Ġeth ical
Ġdu o
Pr ice
ĠConsult ing
Ġrefuge es
Aug ust
! .
F OR
M M
P rom
g ian
h yd
o ard
w p
on line
Ġp airs
Ġb ush
Ġb urg
Ġd in
et c
Ġg inger
ĠM ut
ĠM ack
im ming
ĠB T
ĠR V
ĠR ic
ke eper
ort ed
ĠN ad
th anks
Ġsh out
00 00
cl ip
Ġres et
Wh atever
ĠPro s
Ġhigh way
Ġins ulation
Ġbel oved
Ġbl ame
Ġ9 4
Ġinte nd
de al
ĠChrist ians
ĠX box
Ġsing led
ĠOff er
ĠNorth west
Ġbar g
Ġbar rier
che m
fl ower
ĠDesign er
ĠInter view
Ġgradu ally
unte er
Ġsup ermarket
Ġmother s
ĠAcadem ic
ĠEconom y
Sim ilar
bre aking
ĠEp isode
Ġpharm aceutical
Ġbless ed
Ġpor ch
Ġchrist mas
Ġacknowled ged
Ġlegit imate
Ġreven ues
Ġgamb ling
Ġindivid ually
C y
F E
F ood
M al
M ust
O O
S en
n ia
v ine
Ġt ale
Ġp ending
Ġp endant
Ġb acteria
Ġm as
ĠS we
id ates
ig ue
ĠM L
ĠM BA
Ġst airs
ĠB S
ĠH ell
ĠH oney
ĠL ower
ĠW ag
ĠE R
ĠE ther
qu es
all ow
Ġsh ar
Ġwas her
ĠJ azz
ĠK il
ĠCh at
pl an
Ġar ise
Ġcomm em
ĠAl tern
con nect
ator ies
ĠRes ults
Ġrese ar
Ġgl ue
Ġair lines
ĠFl ore
Ġenjoy able
ĠJu an
Ġcirc ular
Ġmid night
Ġmedic ations
Ġretail er
des ign
ĠiP od
Ġrestrict ed
htt ps
ĠOlymp ics
ĠSher iff
Ġamend ment
Ġblogg er
Ġwra pped
Ġlegend ary
Ġneighb ors
ĠVeter ans
Ġhaz ard
Id ent
ĠArk ansas
ĠDisco very
= =
P age
S al
d rop
f ile
g om
l arge
p ic
w aukee
Ġw iring
Ġc afe
al ph
Ġin her
Ġand roid
ĠT ed
ĠP y
ĠD owntown
ĠR T
ĠG ard
nt il
ell i
ind ers
ĠK r
ood le
ĠV IP
Ġun iform
ph p
ĠSh aw
Ġmed ian
Ġsub tle
Ġsk ip
Ġvar ied
Ġrest ored
app le
Ch ildren
ĠRep lace
EN D
Ad ded
Ġtre m
IC A
Ġlog istics
Ġfail s
Ġdraw ings
Ġinform ative
En sure
Ġbathroom s
Ġappoint ments
ĠPlan et
OW N
ĠNetwork s
Ġlimit ations
Ġroof ing
omet ric
ĠSche dule
ĠVictor ian
ĠOpp ort
Ġhung ry
Ġic ons
Ġdess ert
Ġoverwhel ming
Ġnerv ous
Ġtob acco
) !
W in
g ot
l ation
m ake
u art
Ġt in
Ġc akes
Ġf ier
an im
om i
Ġth rown
st ation
Ġl iable
Ġre aches
Ġe ars
ĠC zech
Ġn ails
el es
ĠI EEE
ĠP uerto
Ġst atic
un c
Ġcon vin
ĠH it
ĠG D
ĠN ever
um ph
lo e
Ġsu ited
ĠK ra
ĠV R
ĠIn come
ĠY e
Ġpre ferences
Ġcomm ands
ph ony
Ġfin ances
ug gage
Ġsupport ive
Ġcur ve
Ġtop s
Ġpass port
ats on
pos ed
ĠCar bon
ĠApp s
Ġexpect s
Ġpack s
Ġprotect ive
Un ited
ĠAnn iversary
Ġsn acks
Ġdead ly
ĠSpecial ist
Ġprofit able
Ġap olog
Ġnar rative
Ġadapt ed
Ġthick ness
bro ok
ĠCamer on
Ġtransp arency
Ġequip ments
ĠExplore r
. âĢĻ
F il
J P
M ary
S weet
d ist
p ol
Ġt ension
re nd
Ġs isters
Ġb orders
Ġin sect
Ġd aughters
as ia
ĠC er
ĠA CT
ĠM R
im m
ut ory
ĠB elt
ĠB asket
Ġwe ird
em a
ĠN am
Ġch olesterol
are l
Ġcl uster
ĠIn ternal
Ġman ifest
Th ink
Ġpart ial
In f
ĠTh an
iss an
ues e
Ġret ention
Ġhand made
Ġview ers
Ġgive away
Ġlaw makers
Ġland l
With out
inc inn
Ġweb inar
Ġpress ing
Ġattend ees
Ġexam s
ĠRec ruit
Ġdeterm ining
Ġdraw er
ĠEduc ational
Ġprot ests
Ġconsist ing
ĠOb ject
ĠMount ains
ĠTown ship
Every one
Ġrow s
ĠColl ins
Ġundert aken
Ġfest ivals
Ġsew ing
Ġthorough ly
quis ite
Ġcancell ation
oust ic
Ġvirt ually
ĠVeh icle
ĠIniti ative
C amp
F M
M arket
P rior
W ar
b age
b lock
d r
f ocus
z o
Ñ ģ
re qu
on al
at able
at ia
Ġc herry
Ġp el
Ġp unch
Ġm apping
Ġh orm
Ġl ighter
ĠC arn
Ġn od
ĠT amil
am ins
am med
ur i
Ġst ew
ĠB attery
Ġwh it
ĠR y
ĠF unction
ĠW ireless
ĠG ot
ew ay
ĠE li
ĠN ancy
Ġcan ada
ĠJ a
ell ery
ĠK aren
Ġout doors
ĠSt ill
act s
Ġpre ference
lect ed
ĠPro t
Ġunder graduate
Ġ7 9
ull ivan
Ġdif fer
ĠHe at
Ġbr id
Ġcount ing
Ġrep orter
Ġcustom s
ĠFor mat
Ġcost ume
load ed
Ġgr ill
AT A
Ġsing les
With in
Ġdiscuss es
rew s
ĠQu ant
Ġrespect ed
ĠTrans fer
Ġteac hes
Ġdeterm ination
Ġtouch down
ĠClass mates
IM E
ĠSing h
Ġconsist ency
ĠWood s
Ġrespond ing
Ġsy rup
ĠRE AL
Ġdiagn osed
ĠPack age
Ġinstitut ional
ĠBang ladesh
ĠPH P
Ġcharm ing
Ġanalyst s
Ġvill ages
ĠPear l
ĠðŁ Ļ
Ġpuzz le
C lear
G M
K S
h attan
Ã §
Ġ {
or us
Ġb ake
Ġm es
Ġd ys
om on
as i
Ġth resh
st ick
Ġl od
ĠS oph
ĠC re
ĠC av
Ġg est
ĠT u
ĠT ib
am pton
ur ry
ur red
ĠP le
ĠP el
ul ates
Ġpro x
Ġpro be
Ġwh isk
ĠR oot
ri en
ri el
ĠE UR
pe ople
Ġse gments
qu ake
ĠU I
Ġcomp aring
ĠK ill
ĠSt ri
iz ers
Ġpart ly
Ġar ising
Ġacc laim
Ġact ors
Ġav o
Ġ8 2
Ġdel icate
Ġfound ing
Ġann oy
12 5
Ġkey word
Ex plore
ux e
ĠPer iod
Ġess ence
Ġcand le
Ġinj ection
OL D
Ġsepar ated
Ġimm un
Ġcross ed
ĠBra in
Ġdry er
Ġsubst itute
Ġcontinu ously
Ġbrow sing
Ġtal ents
Ġscient ist
Ġsched ules
Ġimag ination
Ġterror ism
ĠEnt ry
Ġcoal ition
Ġrid ers
ĠManufact urers
rig ue
ĠCirc uit
Ġly rics
iox id
Ġanch or
ĠMichel le
ĠOtt awa
Rober t
incinn ati
, )
A h
F ast
I Z
I ES
L earning
P ersonal
W ood
b in
b oth
d og
f an
k le
p c
p ers
he y
ou g
Ġp ose
Ġp ads
Ġin hib
Ġm ature
Ġm ira
et he
ĠS olution
ĠC isco
ĠI F
ĠT ournament
ĠP rest
Ġst ain
ir i
ĠD ick
Ġan ger
ĠF est
ke eping
ĠH our
ĠE gg
Ġsh adow
ud er
Ġ- >
Ġup s
iz able
ap or
ĠIn j
Ġres olved
Ġsa ves
end ers
Ġcons ervative
Ġsec uring
Ġexper imental
pect ives
Ġatt raction
ah u
Ġgra vity
the ning
ĠRes ponse
Ġdist ribute
Ġstre ams
Ġexc el
Ġeduc ate
ĠCal gary
Ġredu ces
Ġcomb ining
Ġbar riers
ĠPart icip
Ġsche mes
ĠPost s
Ġsun set
Ġemb ra
Ġemb race
Ġload s
Ġassess ments
Ġpull ing
Ġcontroll ing
Ġdig it
Ġharm ful
Ġnurs es
ĠPub l
Ġtast ing
Ġbound aries
ela ide
Ġaccompl ished
ĠSche me
Ġmerch and
Ġsubsid iary
Ġincent ive
ĠAppl ied
Ġjurisd iction
Ġsimult aneously
G T
K ing
L arge
M en
P an
S n
T em
T ell
f ood
g ence
p read
u ity
or ic
Ġc ottage
Ġf el
Ġh oly
st own
ct uary
ch at
ĠB ased
ĠF BI
Ġcon tend
ĠH unt
Ġhe lic
ĠE co
ĠE lection
em ic
lo on
oc hem
Ġj ury
Ġk iss
ĠV M
Ġres c
Ġres ervations
Ġnew er
Ġun fortunately
Ġsome body
end ment
ĠTh under
ices ter
Ġrem ed
ĠAr n
ĠHe avy
Ġ9 6
Ġdisc ipl
Ġinter f
Ġsub t
Ġint elligent
Ġwater proof
ĠMar athon
Ġsal mon
Ġbas es
Ġaddition ally
Ġexpl icit
Ġdev oted
Al ways
Ġet ern
vious ly
Ġtravel ers
ĠMc Donald
ĠFin land
Ġattack ed
Ġmag ical
ĠOut look
ĠPhil ip
Ġfarm s
ĠEngine er
Ġrefer ring
Ġfold ing
Ġbul b
Ġalbum s
Ġfabric s
omet ry
ĠExper t
ĠSup erv
Ġbelong ing
Inst all
Spe c
Ġdelay ed
Ġpra ise
ĠPartners hip
ĠSym posium
ĠBuff alo
ĠScient ific
ĠCitiz ens
Ġproport ion
B rand
C ON
F ound
F riend
Q ue
S ystem
S aturday
W alk
m em
p df
y ll
Ġ Î
Ġa u
Ġp ots
Ġm ould
ĠS pl
Ġn a
ĠA uckland
ĠM AN
ĠT E
ĠT s
am bers
ĠP ine
Ġst up
ĠF em
ab ul
ab we
ĠL arry
ĠG aza
Ġle tt
Ġsu nd
iv ia
ĠU T
ip her
ac cess
Ġcomp li
pt ic
ĠK an
ĠK ir
ĠK az
ĠK night
ĠV ik
ĠV AT
Ġcl ay
ang ular
In cludes
anc ers
Ġbu zz
ĠRe venue
Ġ8 9
Ġmarket place
Ġsk etch
Ġtechn icians
Ġbuild s
ĠCan on
AT H
Ġelect ron
eb ook
Ġtre k
AL E
IS H
Sh ort
Ġbrand ing
Ġcomb inations
Ġpick s
erc ise
Ġinnov ations
ira ble
ĠRich ards
Ġsy ndrome
Ġrelax ation
Ġhar sh
Ġdisp utes
Ġpin terest
Sm art
Ġmagn ificent
Ġanc est
Ġobt aining
Ġamb ass
Ġdetect ed
Ġadvoc ate
sen al
Ġdeploy ed
ĠMarsh all
Ġaffili ated
Ġcorpor ations
rapeut ic
3 50
C over
D epend
F I
F ace
H ard
J im
S B
d ata
f ielder
s a
Ä ģ
Ġc ave
is ons
Ġb anned
Ġm ud
Ġd ot
Ġl itter
et o
ĠS au
ĠC otton
ĠA x
ĠM ode
ĠM ental
ĠP oll
ĠB row
ĠB enn
ĠH end
ĠH udson
Ġr anks
ĠO scar
ag ine
Ġnot ify
ac ial
Ġcomp ress
for ced
Ġen force
ĠV intage
Ġoff ense
Ġsupp ose
velo pe
Ġfl oral
Ġass urance
Ġ9 1
Ġdisc lose
Ġcle ared
Ġint ensive
ĠBl vd
Ġcontin ually
ĠMed iterranean
Ġvers atile
Ġshare holders
ring ton
Ġsum mar
Ġcou pled
Ġmess aging
Ġblock chain
Ġrad iation
Ġqual ifying
Ġsell s
Ġfarm ing
App le
Ġrepl ied
ĠMil an
Ġconfig ured
Ġguarant ees
Ġsurv iv
ĠWell s
II I
ograp her
Ġbelong s
ĠCR M
Ġrug s
ĠCP U
Ġcritic ism
ĠJam ie
Ġwithdraw al
Ġanticip ated
Further more
ĠIss ue
Ġworkshe ets
ĠLux ury
Ġfert il
Ġelder ly
gom ery
. ?
D M
F ile
L ab
M o
R ock
j ab
o is
u ate
in ely
or iginal
ed ing
Ġd iver
ro le
ĠS ue
Ġpro ceeds
ĠR acing
if iers
ĠN BC
ĠN intendo
Ġcl ause
Ġrec reation
ne apolis
Ġam bit
Ġhad n
Ġph osph
!! !!!
Ġatt ribute
Ġ9 00
Ġrep ository
ours es
Ch ris
Ġconc erts
Ġste pped
ĠCont est
Ġmor al
ĠFin n
Ġphys ically
Ġpromot ions
Ġlab our
Ġsus pected
cel and
ĠElect ronics
ĠMil k
ĠSen ator
Ġutil izing
Ġsport ing
Ġpump kin
Ġjump ing
Ġhighlight ing
Ġrot ation
Ġlicens ing
Ġnic he
ĠMembers hip
Ġsac rif
Ġarg ue
Ġmaxim ize
ĠBreak fast
ĠDoll ar
ĠCele br
enez uel
C apt
L ondon
M il
S K
c am
g mail
h alf
p iring
s ystem
s upport
y p
Ġt orn
Ġthe ore
le en
Ġn an
ĠM ig
ĠM aps
ĠT on
Ġst ats
Ġst oring
out ube
ĠR ank
ĠF if
Ġ( -
res ist
ĠâĢ º
Ġcomp iled
Ġour s
Ġag ing
ens ively
In sp
Ġtw elve
Ġind irect
ĠRe quest
Ġshe ep
ik h
ĠEx pl
ĠAn other
Ġint u
ĠZ oo
Ġclass ification
min ster
ipp ers
Ġbro ch
ĠX ML
sc ript
Ġdem ocracy
ĠCont emporary
ĠNe il
Ġtravel s
Ġwa ist
ĠEm ily
Ġsol ved
Com b
Com merce
che ster
Ġbase ment
ĠBr ussels
Ġregul ated
Ġorganiz er
Ġviol ent
Ġindepend ently
imb abwe
ĠSy rian
Ġrank ings
Ġnom ination
ĠDef ence
Ġcounter part
Col or
Ġking dom
Ġtun nel
ĠWal ter
ĠIran ian
Ġperman ently
ĠEnt reprene
Ġign ore
Ġforg ot
---- ----
Ġfest ive
ĠFab ric
Jan uary
Ġoppon ents
Ġsid ew
ĠStrateg ic
ancell or
ĠðŁĻ Ĥ
" ?
A part
B orn
D eb
F ixed
P eter
f amily
in ant
in ction
at ility
at tered
it udes
ed ed
ic ting
Ġh ose
ĠS ets
ĠC ant
ĠC hes
âĢ ²
ĠT ell
ĠB ent
ĠD h
ĠD oc
ĠR u
ke ep
ĠH amm
ĠG em
ew ater
ĠE val
Ġr ic
Ġsh ield
ĠV ari
ĠIn tern
ĠY am
Ġpre liminary
ian e
ng th
Ġinst ances
ĠHe aven
ave nder
ĠAd ult
Ġcle ver
the less
Ġsom etime
ĠRes cue
Ġimport ed
Ġgl uten
Ġmet res
ai ro
pro v
ĠGu ild
ides pread
Ġanal ys
Ġlog ging
Ġz ones
ĠEd wards
Ġred es
Ġwood s
Ġdraw s
Ġprior it
Ġmag azines
Ġ198 3
De cember
sp ace
inn amon
ĠDan ish
Ġprofession ally
Ġenh ancing
ĠFe ature
Ġdepos its
Ġeditor ial
Ġconflic ts
Ġclar ity
ĠFram ework
Ġrefresh ing
Ġadj acent
Ġine vit
C AR
D ouble
E duc
G N
M onday
b ott
d ec
g ies
r ings
z one
Ġw rist
Ġto ll
Ġm p
ro d
Ġg rip
Ġyou t
ĠT ip
ĠP av
ĠP rices
ĠB I
ul ent
ul atory
ĠD ennis
ĠR ental
ĠF lex
ĠH un
Ġhe d
oc c
Ġdo zens
Ġj ournals
ĠK le
.. ...
ĠSt amp
ĠThe me
act ory
Th us
Ġqu ad
ĠCom ment
Ġfl ows
ĠNew castle
ĠWh olesale
Ġbo om
Ġref use
ows ki
ĠCo pper
Ġsl iding
Ġcheck out
me ga
ĠOr d
Ġconst ra
itc her
Ġlearn ers
IC S
Ġident ical
Ġvari ation
ĠReg ulation
AM E
Ġmix er
Pl an
Ġanim ated
Ġconsult ancy
Ġcool er
Ġemer ged
ĠKe ith
Ġver ification
Ġsem inars
ĠSur face
point s
ĠInf o
Ġfra ction
Ġswitch ing
Ġbond s
Ġpredict ed
Ġpharm ac
ĠManufact urer
rell a
Ġsole ly
ĠEag les
Ġupgrad ed
Ġrib bon
ĠHoll and
Feb ruary
Ġlend ers
ĠAdvert ising
Ġhelic op
+ +
B oy
B rit
H ub
L ow
M ad
M usic
M ENT
T Y
W H
h is
k it
m ount
n an
t or
z heimer
Ġ `
in ite
in ters
it ures
Ġf ool
Ġp ist
Ġm all
ion ed
Ġd ign
Ġth irty
Ġl ol
ĠS or
Ġg ay
us cript
ig a
ĠM aur
am as
Ġst arter
ĠR M
ment al
ĠW oman
em n
pe ctions
um en
ĠJ ar
Ġk g
for ward
erv atory
Ġte ens
ĠIn nov
Ġun necess
Ġrec reational
Ġsp am
ink s
Ġinv itations
Ġass ure
Ġmod ification
ĠCl aim
ĠHe b
ĠHe ath
let in
ock ets
Ġdisc on
