{"<pad>":0,"<unk>":1,"<s>":2,"</s>":3,"!":4,"\"":5,"#":6,"$":7,"%":8,"&":9,"'":10,"(":11,")":12,"*":13,"+":14,",":15,"-":16,".":17,"/":18,"0":19,"1":20,"2":21,"3":22,"4":23,"5":24,"6":25,"7":26,"8":27,"9":28,":":29,";":30,"<":31,"=":32,">":33,"?":34,"@":35,"A":36,"B":37,"C":38,"D":39,"E":40,"F":41,"G":42,"H":43,"I":44,"J":45,"K":46,"L":47,"M":48,"N":49,"O":50,"P":51,"Q":52,"R":53,"S":54,"T":55,"U":56,"V":57,"W":58,"X":59,"Y":60,"Z":61,"[":62,"\\":63,"]":64,"^":65,"_":66,"`":67,"a":68,"b":69,"c":70,"d":71,"e":72,"f":73,"g":74,"h":75,"i":76,"j":77,"k":78,"l":79,"m":80,"n":81,"o":82,"p":83,"q":84,"r":85,"s":86,"t":87,"u":88,"v":89,"w":90,"x":91,"y":92,"z":93,"{":94,"|":95,"}":96,"~":97,"¡":98,"¢":99,"£":100,"¤":101,"¥":102,"¦":103,"§":104,"¨":105,"©":106,"ª":107,"«":108,"¬":109,"®":110,"¯":111,"°":112,"±":113,"²":114,"³":115,"´":116,"µ":117,"¶":118,"·":119,"¸":120,"¹":121,"º":122,"»":123,"¼":124,"½":125,"¾":126,"¿":127,"À":128,"Á":129,"Â":130,"Ã":131,"Ä":132,"Å":133,"Æ":134,"Ç":135,"È":136,"É":137,"Ê":138,"Ë":139,"Ì":140,"Í":141,"Î":142,"Ï":143,"Ð":144,"Ñ":145,"Ò":146,"Ó":147,"Ô":148,"Õ":149,"Ö":150,"×":151,"Ø":152,"Ù":153,"Ú":154,"Û":155,"Ü":156,"Ý":157,"Þ":158,"ß":159,"à":160,"á":161,"â":162,"ã":163,"ä":164,"å":165,"æ":166,"ç":167,"è":168,"é":169,"ê":170,"ë":171,"ì":172,"í":173,"î":174,"ï":175,"ð":176,"ñ":177,"ò":178,"ó":179,"ô":180,"õ":181,"ö":182,"÷":183,"ø":184,"ù":185,"ú":186,"û":187,"ü":188,"ý":189,"þ":190,"ÿ":191,"Ā":192,"ā":193,"Ă":194,"ă":195,"Ą":196,"ą":197,"Ć":198,"ć":199,"Ĉ":200,"ĉ":201,"Ċ":202,"ċ":203,"Č":204,"č":205,"Ď":206,"ď":207,"Đ":208,"đ":209,"Ē":210,"ē":211,"Ĕ":212,"ĕ":213,"Ė":214,"ė":215,"Ę":216,"ę":217,"Ě":218,"ě":219,"Ĝ":220,"ĝ":221,"Ğ":222,"ğ":223,"Ġ":224,"ġ":225,"Ģ":226,"ģ":227,"Ĥ":228,"ĥ":229,"Ħ":230,"ħ":231,"Ĩ":232,"ĩ":233,"Ī":234,"ī":235,"Ĭ":236,"ĭ":237,"Į":238,"į":239,"İ":240,"ı":241,"Ĳ":242,"ĳ":243,"Ĵ":244,"ĵ":245,"Ķ":246,"ķ":247,"ĸ":248,"Ĺ":249,"ĺ":250,"Ļ":251,"ļ":252,"Ľ":253,"ľ":254,"Ŀ":255,"ŀ":256,"Ł":257,"ł":258,"Ń":259,"Ġt":260,"Ġa":261,"in":262,"he":263,"re":264,"on":265,"er":266,"Ġs":267,"Ġthe":268,"or":269,"at":270,"nd":271,"Ġw":272,"Ġc":273,"ou":274,"it":275,"es":276,"en":277,"Ġf":278,"is":279,"ing":280,"Ġo":281,"Ġp":282,"Ġb":283,"an":284,"al":285,"ed":286,"ar":287,"Ġto":288,"Ġin":289,"Ġand":290,"Ġm":291,"Ġof":292,"ic":293,"le":294,"ion":295,"Ġd":296,"om":297,"as":298,"Ġh":299,"il":300,"ent":301,"Ġth":302,"ro":303,"st":304,"Ġl":305,"ve":306,"Ġre":307,"Ġy":308,"ct":309,"et":310,"ĠS":311,"Ġe":312,"ĠC":313,"Ġn":314,"Ġg":315,"Ġfor":316,"Ġyou":317,"âĢ":318,"el":319,"Ġon":320,"id":321,"ol":322,"ow":323,"Ġis":324,"ay":325,"ĠA":326,"ot":327,"ra":328,"ation":329,"us":330,"ce":331,"ig":332,"ch":333,"ĠM":334,"ly":335,"Ġbe":336,"ĠI":337,"ith":338,"im":339,"ĠT":340,"am":341,"ut":342,"ur":343,"ver":344,"ĠP":345,"ad":346,"Ġst":347,"Ġwith":348,"ir":349,"ĠB":350,"ter":351,"Ġthat":352,"ill":353,"ul":354,"un":355,"ĠD":356,"Ġpro":357,"ge":358,"ers":359,"Ġit":360,"Ġan":361,"âĢĻ":362,"her":363,"Ġas":364,"Ġal":365,"Ġwh":366,"out":367,"ĠR":368,"Ġ2":369,"ment":370,"if":371,"Ġ1":372,"se":373,"ĠF":374,"pp":375,"oo":376,"Ġat":377,"Ġcon":378,"our":379,"ke":380,"Ġor":381,"ess":382,"est":383,"ate":384,"ĠH":385,"Ġare":386,"ck":387,"ab":388,"Ġ(":389,"Ġcom":390,"ĠL":391,"ĠW":392,"rom":393,"ri":394,"Ġwe":395,"Ġhe":396,"Ġha":397,"ĠG":398,"ore":399,"ist":400,"ort":401,"ew":402,"ĠE":403,"The":404,"ity":405,"em":406,"igh":407,"pe":408,"Ġv":409,"ĠN":410,"ure":411,"Ġyour":412,"Ġse":413,"um":414,"Ġby":415,"qu":416,"Ġex":417,"ld":418,"Ġfrom":419,"art":420,"ive":421,"and":422,"lo":423,"ant":424,"Ġde":425,"ust":426,"nt":427,"ain":428,"all":429,"th":430,"ies":431,"Ġr":432,"Ġsh":433,"res":434,"Ġch":435,"Ġthis":436,"Ġus":437,"ard":438,"up":439,"00":440,"Ġhave":441,"Ġwill":442,"os":443,"Ġwas":444,"ud":445,"ĠO":446,"ĠâĢ":447,"Ġcan":448,"ight":449,"Ġle":450,"ĠJ":451,"'s":452,"od":453,"Ġsu":454,"ial":455,"ost":456,"op":457,"ear":458,"iv":459,"ome":460,"oc":461,"te":462,"ine":463,"ag":464,"Ġpl":465,"ice":466,"age":467,"ide":468,"Ġab":469,"ast":470,"01":471,"are":472,"Ġnot":473,"ell":474,"ork":475,"rou":476,"ĠU":477,"ction":478,"ak":479,"ip":480,"ould":481,"ac":482,"per":483,"ff":484,"Ġall":485,"Ġcomp":486,"Ġad":487,"ich":488,"gh":489,"Ġdo":490,"ry":491,"Ġj":492,"ack":493,"ire":494,"Ġhas":495,"pt":496,"able":497,"Ġne":498,"ook":499,"Ġk":500,"ect":501,"ia":502,"cc":503,"ake":504,"ind":505,"Ġ-":506,"ail":507,"ber":508,"ated":509,"for":510,"du":511,"ĠK":512,"Ġup":513,"ite":514,"one":515,"Ġen":516,"Ġ201":517,"Ġmore":518,"Ġwhe":519,"ther":520,"..":521,"ood":522,"og":523,"Ġme":524,"ong":525,"ase":526,"Ġout":527,"ĠSt":528,"iz":529,"ĠThe":530,"Ġcont":531,"Ġour":532,"ans":533,"ĠV":534,"ap":535,"ance":536,"Ġbut":537,"ere":538,"ign":539,"erv":540,"ical":541,"Ġ3":542,"ub":543,"Ġabout":544,"ime":545,"Ġso":546,"ick":547,"ary":548,"ous":549,"ions":550,"ie":551,"ree":552,"Ġtheir":553,"Ġoff":554,"Ġapp":555,"Ġte":556,"Ġcl":557,"Ġim":558,"ue":559,"ach":560,"Ġwhich":561,"act":562,"cl":563,"ĠCh":564,"ark":565,"ĠIn":566,"ord":567,"ib":568,"ount":569,"Ġone":570,"ace":571,"ass":572,"form":573,"ations":574,"und":575,"Ġres":576,"Ġwork":577,"Ġman":578,"very":579,"Ġnew":580,"so":581,"ult":582,"ep":583,"Ġun":584,"ll":585,"ile":586,"Ġmy":587,"Ġsa":588,"ame":589,"Ġwho":590,"ond":591,"Ġper":592,"ove":593,"Th":594,"reat":595,"Ġqu":596,"ru":597,"ike":598,"pl":599,"Ġyear":600,"port":601,"Ġ\"":602,"ally":603,"ress":604,"ence":605,"Ġthey":606,"own":607,"av":608,"Ġgo":609,"ents":610,"ition":611,"Ġpart":612,"to":613,"ays":614,"Ġother":615,"Ġtra":616,"Ġdis":617,"Ġany":618,"Ġhis":619,"ors":620,"ĠY":621,"Ġar":622,"Ġrec":623,"ild":624,"Ġsc":625,"Ġro":626,"ish":627,"int":628,"Ġalso":629,"ings":630,"Ġacc":631,"Ġtime":632,"mer":633,"Ġag":634,"Ġsp":635,"vers":636,"ens":637,"ne":638,"Ġev":639,"Ġget":640,"Ġspe":641,"ink":642,"Ġpre":643,").":644,"Ġover":645,"ound":646,"ĠâĢľ":647,"ian":648,"old":649,"Ġsome":650,"lic":651,"ank":652,"âĢĿ":653,"Ġ4":654,"day":655,"Ġlike":656,"Ġif":657,"ory":658,"Ġbeen":659,"ram":660,"tern":661,"ang":662,"Ġ5":663,"In":664,"red":665,"ater":666,"ov":667,"Ġdes":668,"irst":669,"ning":670,"Ġits":671,"clud":672,"oll":673,"ĠâĢĵ":674,"ric":675,"wn":676,"ool":677,"Ġneed":678,"end":679,"Ġserv":680,"Ġprov":681,"anc":682,"Ġam":683,"Ġwhen":684,"Ġkn":685,"Ġthem":686,"Ġwould":687,"Ġhow":688,"iew":689,"ob":690,"Ġwhat":691,"Ġadd":692,"Ġcomm":693,"ons":694,"fter":695,"Ġpe":696,"Ġfe":697,"ft":698,"Ġthere":699,"Ġ&":700,"Ġtr":701,"ates":702,"Wh":703,"ual":704,"rough":705,"ec":706,"ational":707,"ments":708,"hed":709,"amp":710,"ough":711,"Ġinclud":712,"lp":713,"xt":714,"Ġbu":715,"Ġwere":716,"Ġtw":717,"com":718,"Ġprodu":719,"This":720,"Ġuse":721,"ject":722,"itt":723,"Ġco":724,"Ġsupp":725,"Ġfirst":726,"ĠTh":727,"ph":728,"Ġmake":729,"ss":730,"lect":731,"ely":732,"ont":733,"Ġhad":734,"Ġinto":735,"ose":736,"Ġ19":737,"Ġjust":738,"Ġhelp":739,"Ġreg":740,"Ġind":741,"aw":742,"ices":743,"iss":744,"ng":745,"We":746,"ities":747,"Ġ.":748,"Ġthan":749,"use":750,"ise":751,"Ġph":752,"we":753,"iness":754,"fere":755,"enc":756,"les":757,"ious":758,"ĠCom":759,"ating":760,"ful":761,"Ġem":762,"ĠPro":763,"ople":764,"ek":765,"Ġsaid":766,"Ġher":767,"Ġlook":768,"under":769,"Ġ6":770,"ade":771,"any":772,"Ġpr":773,"urn":774,"Ġbet":775,"),":776,"ĠUn":777,"cial":778,"yst":779,"ĠRe":780,"ange":781,"formation":782,"ts":783,"round":784,"Ġthrough":785,"usiness":786,"Ġcol":787,"Ġra":788,"Ġonly":789,"ath":790,"ific":791,"Ġcons":792,"bs":793,"velo":794,"Ġunder":795,"row":796,"Ġafter":797,"hen":798,"Ġback":799,"Ġmost":800,"oy":801,"Ġstud":802,"Ġtwo":803,"Ġwell":804,"Ġinv":805,"als":806,"Ġno":807,"Ġloc":808,"Ġpeople":809,"Ġent":810,"Ġ$":811,"ased":812,"Ġknow":813,"oint":814,"orld":815,"Ġact":816,"cess":817,"erm":818,"oth":819,"Ġimp":820,"ower":821,"ract":822,"lease":823,"air":824,"hip":825,"ting":826,"Ġsec":827,"ward":828,"vel":829,"olog":830,"Ġset":831,"Ġmay":832,"ystem":833,"ied":834,"Ġbec":835,"velop":836,"If":837,"Ġfl":838,"Ġnow":839,"ident":840,"Ġexper":841,"io":842,"ert":843,"ility":844,"!!":845,"uring":846,"Ġmin":847,"Ġfin":848,"arch":849,"ures":850,"land":851,"get":852,"Ġ7":853,"Ġhere":854,"Ġinformation":855,"ited":856,"'t":857,"Ġinst":858,"Ġass":859,"ics":860,"ife":861,"ty":862,"Ġrel":863,"erson":864,"aking":865,"Ġ'":866,"ble":867,"eth":868,"ily":869,"Ġsee":870,"oun":871,"ĠDe":872,"ience":873,"Ġevery":874,"pect":875,"alth":876,"rit":877,"gan":878,"Ġpost":879,"Ġke":880,"ash":881,"ible":882,"fore":883,"Ġshe":884,"ren":885,"Ġav":886,"Ġac":887,"Ġinc":888,"Ġwhere":889,"ner":890,"Ġwant":891,"Ġyears":892,"Ġche":893,"ix":894,"Ġthese":895,"Ġsm":896,"ull":897,"chool":898,"gram":899,"Ġplay":900,"Ġdesign":901,"ax":902,"ative":903,"Ġgood":904,"ys":905,"Ġcar":906,"Ġ10":907,"Ġrem":908,"line":909,"Ġ8":910,"Ġhigh":911,"ener":912,"ĠNew":913,"pr":914,"Ġins":915,"ale":916,"its":917,"Ġbusiness":918,"ĠSh":919,"Ġbest":920,"ict":921,"ause":922,"Ġvis":923,"arket":924,"Ġstart":925,"Ġday":926,"ug":927,"Ġpres":928,"Ġpos":929,"Ġrequ":930,"Ġgu":931,"az":932,"Ġhome":933,"uch":934,"rib":935,"Ġmon":936,"It":937,"Ġmany":938,"hes":939,"ular":940,"ivers":941,"Ġshould":942,"Ġgreat":943,"Ġ200":944,"ata":945,"ouse":946,"ient":947,"Ġmem":948,"Ġown":949,"elf":950,"Ġdif":951,"chn":952,"Ġdown":953,"pen":954,"Ġcould":955,"Ġway":956,"Ġcall":957,"Ġbel":958,"Ġshow":959,"Ġbl":960,"irect":961,"Ġright":962,"Ġvery":963,"Ġmod":964,"ĠCl":965,"Ġsupport":966,"ven":967,"Ġeff":968,"Ġfind":969,"ĠAr":970,"Ġthen":971,"Ġdec":972,"ues":973,"view":974,"ollow":975,"ĠHe":976,"Ġproduct":977,"Ġtake":978,"Ġatt":979,"let":980,"ustom":981,"Ġcur":982,"Ġlast":983,"Ġdevelop":984,"Ġ9":985,"ock":986,"ah":987,"Ġtrans":988,"Ġi":989,"roup":990,"Ġbr":991,"ier":992,"ee":993,"Ġread":994,"der":995,"Ġsuch":996,"ages":997,"What":998,"ik":999,"ces":1000,"Ġart":1001,"ok":1002,"ced":1003,"Ġinte":1004,"ave":1005,"Ġsystem":1006,"Ġdisc":1007,"Ġmade":1008,"Ġlead":1009,"ton":1010,"Ġagain":1011,"alk":1012,"Ġnum":1013,"Ġmed":1014,"other":1015,"Ġprovid":1016,"arm":1017,"Ġform":1018,"ĠWh":1019,"ining":1020,"Ġed":1021,"Ġdet":1022,"ins":1023,"ines":1024,"riv":1025,"atch":1026,"Ġteam":1027,"Ġcre":1028,"ublic":1029,"arn":1030,"You":1031,"Ġfam":1032,"sh":1033,"Ġbefore":1034,"rest":1035,"iel":1036,"de":1037,"Ġbo":1038,"Ġmuch":1039,"Ġpol":1040,"ional":1041,"unity":1042,"Ġlong":1043,"Ġweek":1044,"Ġlist":1045,"000":1046,"Ġprogram":1047,"ets":1048,"Ġeven":1049,"Ġused":1050,"Ġadv":1051,"Ġworld":1052,"Ġinter":1053,"How":1054,"way":1055,"ered":1056,"Ġavail":1057,"Ġsub":1058,"Ġcount":1059,"Ġend":1060,"ason":1061,"led":1062,"ĠSe":1063,"man":1064,"Ġperson":1065,"orth":1066,"Ġaut":1067,"ĠLe":1068,"Ġret":1069,"ene":1070,"ĠWe":1071,"au":1072,"Ġfree":1073,"Ġsur":1074,"ital":1075,"ĠTe":1076,"Ġfollow":1077,"rent":1078,"Ġbook":1079,"ctions":1080,"Ġser":1081,"...":1082,"ize":1083,"read":1084,"olut":1085,"Ġrep":1086,"Ġbeing":1087,"ĠSc":1088,"Ġtop":1089,"Ġhand":1090,"orn":1091,"Ġincluding":1092,"Ġproject":1093,"ween":1094,"ives":1095,"ral":1096,"ince":1097,"Ġdel":1098,".,":1099,"uss":1100,"Ġmarket":1101,"Ġcustom":1102,"Ġcour":1103,"oci":1104,"Ġgra":1105,"Ġdon":1106,"ĠAl":1107,"ĠAd":1108,"ĠEx":1109,"Ġexp":1110,"Ġcompany":1111,"ters":1112,"Ġservice":1113,"Ġeach":1114,"nce":1115,"Ġusing":1116,"Ġdiffere":1117,"Ġprof":1118,"Ġavailable":1119,"Ġdoes":1120,"For":1121,"cept":1122,"ĠAn":1123,"Ġplace":1124,"co":1125,"Ġsim":1126,"Ġplan":1127,"ĠQ":1128,"bers":1129,"ather":1130,"ality":1131,"Ġdid":1132,"Ġbetween":1133,"ology":1134,"Ġthink":1135,"Ġrun":1136,"ĠPl":1137,"els":1138,"Ġreport":1139,"Ġfound":1140,"Ġprocess":1141,"Ġsk":1142,"iving":1143,"Ġmonth":1144,"ature":1145,"ars":1146,"ute":1147,"Ġval":1148,"Ġchild":1149,"ple":1150,"Ġcr":1151,"iversity":1152,"Ġdef":1153,"uc":1154,"vern":1155,"ering":1156,"reen":1157,"Ġopen":1158,"ĠInd":1159,"ern":1160,"Ġcent":1161,"rid":1162,"ery":1163,"outh":1164,"Ġcare":1165,"Ġ0":1166,"Ġthose":1167,"ants":1168,"Ġstr":1169,"Ġlife":1170,"Ġ/":1171,"ety":1172,"Ġcle":1173,"10":1174,"Ġdata":1175,"Ġlove":1176,"Ġchar":1177,"Ġaround":1178,"Ġ12":1179,"ield":1180,"ving":1181,"Ġbecause":1182,"Ġfun":1183,"Ġtechn":1184,"Ġbuild":1185,"Ġsign":1186,"Ġwhile":1187,"Ġorgan":1188,"ired":1189,"gy":1190,"ross":1191,"meric":1192,"riend":1193,"ĠCon":1194,"ness":1195,"Ġpur":1196,"Ġclo":1197,"rist":1198,"Ġnext":1199,"aint":1200,"ĠCol":1201,"Ġboth":1202,"Ġstate":1203,"akes":1204,"Ġ20":1205,"ina":1206,"ved":1207,"Ġnumber":1208,"ĠIt":1209,"Ġeas":1210,"Ġservices":1211,"Ġide":1212,"atur":1213,"Ġappro":1214,"loy":1215,"ized":1216,"Ġcor":1217,"oot":1218,"oh":1219,"Ġpoint":1220,"Ġint":1221,"work":1222,"Ġann":1223,"Ġduring":1224,"ĠPh":1225,"ĠFor":1226,"gg":1227,"ration":1228,"Ġlar":1229,"iqu":1230,"Ġfil":1231,"ER":1232,"ote":1233,"ware":1234,"ĠZ":1235,"ames":1236,"Ġthree":1237,"con":1238,"ĠUS":1239,"ator":1240,"imes":1241,"Ġhealth":1242,"ished":1243,"ott":1244,"ĠYou":1245,"Ġiss":1246,"Ġvisit":1247,"Ġdirect":1248,",,":1249,"ĠCent":1250,"the":1251,"As":1252,"Ġopt":1253,"Ġrece":1254,"Ġref":1255,"Ġsame":1256,"ior":1257,"Ġgroup":1258,"ĠComm":1259,"Ġext":1260,"201":1261,"Ġwebs":1262,"Ġschool":1263,"ium":1264,"ode":1265,"Ġgener":1266,"aut":1267,"ĠBe":1268,"Ġblo":1269,"ĠMan":1270,"Ġspecial":1271,"ows":1272,"Ġsecond":1273,"Ġhim":1274,"ĠCo":1275,"St":1276,"Ġpay":1277,"be":1278,"Ġphot":1279,"50":1280,"Ġconf":1281,"agement":1282,"less":1283,"Ġsom":1284,"Ġcost":1285,"ually":1286,"Ġwater":1287,"tt":1288,"Ġstill":1289,"ley":1290,"Ġinf":1291,"Ġpat":1292,"room":1293,"Ġty":1294,"iver":1295,"ĠIs":1296,"Ġfull":1297,"ĠRes":1298,"Ġmeet":1299,"Ġdifferent":1300,"ined":1301,"Ġinterest":1302,"ploy":1303,"ĠTr":1304,"Ġ2018":1305,"Ġsl":1306,"Ġvar":1307,"Ġsmall":1308,"ms":1309,"anks":1310,"ision":1311,"Ġquest":1312,"Ġstand":1313,"Ġcurrent":1314,"ĠAmeric":1315,"Ġ18":1316,"Ġpass":1317,"rand":1318,"Ġwin":1319,"Ġrest":1320,"30":1321,"Ġview":1322,"ccess":1323,"Ġclass":1324,"Ġoper":1325,"Ġexperience":1326,"Ġprovide":1327,"Ġhead":1328,"ĠBl":1329,"illion":1330,"aj":1331,"load":1332,"ency":1333,"Ġtoday":1334,"20":1335,"ternational":1336,"Ġaccess":1337,"Ġdist":1338,"ists":1339,"Ġpartic":1340,"ps":1341,"ron":1342,"Ġmust":1343,"ĠÂ":1344,"ission":1345,"Ġperform":1346,"ards":1347,"Ġob":1348,"Ġapplic":1349,"Ġve":1350,"vent":1351,"Ġ,":1352,"ĠSp":1353,"ways":1354,"Ġcontin":1355,"Ġimport":1356,"Ġkeep":1357,"ĠAnd":1358,"ann":1359,"Ġhapp":1360,"ittle":1361,"Ġresp":1362,"Ġsay":1363,"ush":1364,"Ġcontact":1365,"ours":1366,"Ġlight":1367,"Ġposs":1368,"19":1369,"Ġproper":1370,"rol":1371,"Ġlet":1372,"ording":1373,"Ġgoing":1374,"To":1375,"Ġthough":1376,"Ġpublic":1377,"inal":1378,"Ġarea":1379,"lection":1380,"ically":1381,"Ġonline":1382,"att":1383,"ared":1384,"Ġtoo":1385,"ĠUniversity":1386,"omm":1387,"Ġreal":1388,"ĠâĢĺ":1389,"eng":1390,"Ġplease":1391,"Ġinvest":1392,"ody":1393,"And":1394,"An":1395,"Ġfamily":1396,"Ġanother":1397,"Ġopp":1398,"Ġorder":1399,"Ġcheck":1400,"Ġwebsite":1401,"Ġfew":1402,"Ġequ":1403,"Ġspec":1404,"Ġcome":1405,"Ġresult":1406,"IN":1407,"Ġlocal":1408,"me":1409,"iron":1410,"ves":1411,"Ġeng":1412,"ird":1413,"uro":1414,"ex":1415,"ocial":1416,"Ġbig":1417,"ĠMar":1418,"Ġput":1419,"ients":1420,"min":1421,"por":1422,"oney":1423,"Re":1424,"Ġsite":1425,"Ġevent":1426,"ling":1427,"Ġfriend":1428,"vernment":1429,"ipp":1430,"ified":1431,"Ġwr":1432,"Ġreally":1433,"ruct":1434,"bo":1435,"Ġbro":1436,"Ġpage":1437,"ĠEng":1438,"stand":1439,"ats":1440,"pos":1441,"Ġtest":1442,"Ġsal":1443,"Ġgive":1444,"ury":1445,"here":1446,"Ġtri":1447,"Ġ11":1448,"enn":1449,"Ġsince":1450,"Ġgame":1451,"Ġincre":1452,"Ġwithout":1453,"He":1454,"urs":1455,"mber":1456,"tend":1457,"Ġeffect":1458,"cent":1459,"pend":1460,"Ġdays":1461,"ember":1462,"Ġprom":1463,"Ġpresent":1464,"Ġbetter":1465,"Ġlevel":1466,"aster":1467,"ised":1468,"Ġrese":1469,"Ġdetail":1470,"Ġroom":1471,"dition":1472,"lish":1473,"af":1474,"Ġcomple":1475,"Ġvide":1476,"of":1477,"ĠCan":1478,"icle":1479,"Ġindust":1480,"Ġgrow":1481,"Ġsure":1482,"ged":1483,"Ġfac":1484,"ney":1485,"Ġear":1486,"Ġname":1487,"There":1488,"ains":1489,"ww":1490,"ump":1491,"Ġagainst":1492,"Ġstudents":1493,"Ġpower":1494,"Ġgr":1495,"Ġgl":1496,"Ġest":1497,"Ġworking":1498,"Ġ15":1499,"Ġtry":1500,"ĠCar":1501,"usic":1502,"Ġair":1503,"Ġcap":1504,"joy":1505,"ĠRo":1506,"Ġoffer":1507,"Ġold":1508,"ĠServ":1509,"ON":1510,"raph":1511,"Ġstre":1512,"Ġwithin":1513,"ĠTra":1514,"Ġmet":1515,"ots":1516,"Ġproducts":1517,"ai":1518,"hor":1519,"Ġexc":1520,"Ġbre":1521,"AN":1522,"Ġactiv":1523,"ope":1524,"ister":1525,"Ġdri":1526,"âĢ¦":1527,"Ġlittle":1528,"Ġprofess":1529,"ently":1530,"ane":1531,"ization":1532,"Ġoffic":1533,"app":1534,"Ġchange":1535,"ify":1536,"ĠOr":1537,"Ġlooking":1538,"med":1539,"ever":1540,"Ġproble":1541,"Ġimpro":1542,"by":1543,"ential":1544,"Ġbelow":1545,"aff":1546,"utes":1547,"ries":1548,"part":1549,"ĠChrist":1550,"Ġla":1551,"Ġmembers":1552,"etwork":1553,"12":1554,"ism":1555,"Ġ30":1556,"Ġpract":1557,"Ġcommunity":1558,"self":1559,"aim":1560,"ability":1561,"Ġpop":1562,"ills":1563,"Ġbuy":1564,"Ġfood":1565,"ĠAss":1566,"ĠFl":1567,"Ġaccount":1568,"Ġfeel":1569,"ding":1570,"gin":1571,"Ġnear":1572,"Ġbased":1573,"Ġbas":1574,"Ġlaw":1575,"oss":1576,"Ġunt":1577,"une":1578,"ising":1579,"ĠCount":1580,"Ch":1581,"So":1582,"ference":1583,"Ġcert":1584,"aring":1585,"Ġthings":1586,"ately":1587,"ĠThis":1588,"ĠApp":1589,"Ġleg":1590,"Ġask":1591,"Ġalways":1592,"Ġreview":1593,"Ġaff":1594,"Ġaddition":1595,"ĠâĢĶ":1596,"Ġconst":1597,"Ġless":1598,"Ġable":1599,"ES":1600,"thing":1601,"oring":1602,"Ġquality":1603,"Ġlink":1604,"Ġsaf":1605,"AT":1606,"ĠX":1607,"On":1608,"iam":1609,"son":1610,"Ġchildren":1611,"ohn":1612,"Ġelect":1613,"Ġsuccess":1614,"Ġexpl":1615,"Ġmov":1616,"Ġfour":1617,"ites":1618,"aper":1619,"Ġline":1620,"ateg":1621,"ĠPr":1622,"Ġsing":1623,"AR":1624,"viron":1625,"ider":1626,"eb":1627,"sc":1628,"Ġmaking":1629,"ript":1630,"ense":1631,"Ġterm":1632,"ething":1633,"Ġdevelopment":1634,"ym":1635,"Ġgot":1636,"Ġemploy":1637,"itc":1638,"Ġdev":1639,"Ġcamp":1640,"ĠMed":1641,"Ġfund":1642,"Ġfact":1643,"Ġprote":1644,"Ġchang":1645,"itions":1646,"11":1647,"uf":1648,"Ġhard":1649,"ift":1650,"Ġdem":1651,"Ġconc":1652,"Ġ2019":1653,"Ġ2017":1654,"ĠAll":1655,"Ġimportant":1656,"ĠMay":1657,"ĠComp":1658,"Ġcase":1659,"Ġhouse":1660,"Ġhist":1661,"enef":1662,"Ġel":1663,"ivid":1664,"But":1665,"atter":1666,"OR":1667,"rap":1668,"unic":1669,"aterial":1670,"Ġenjoy":1671,"olution":1672,"ords":1673,"uck":1674,"Ġfr":1675,"Ġca":1676,"Ġlearn":1677,"??":1678,"Ġjob":1679,"Ġuntil":1680,"rop":1681,"duct":1682,"ique":1683,"Al":1684,"Ġcourse":1685,"ĠOff":1686,"Ġcountry":1687,"nect":1688,"omen":1689,"When":1690,"ems":1691,"ories":1692,"pecial":1693,"Ġcreat":1694,"ĠMin":1695,"Ġalong":1696,"orm":1697,"Ġfollowing":1698,"ĠFr":1699,"Ġallow":1700,"Ġprice":1701,"ases":1702,"lement":1703,"Ġet":1704,"uture":1705,"conom":1706,"Ġsw":1707,"ention":1708,"urity":1709,"book":1710,"Ġbeh":1711,"Ġinstall":1712,"Ġnight":1713,"ĠCity":1714,"Ġseason":1715,"fer":1716,"ĠAm":1717,"yn":1718,"Ġemail":1719,"Ġdra":1720,"side":1721,"vious":1722,"iting":1723,"Ġ..":1724,"ger":1725,"Ġexpect":1726,"Ġsomething":1727,"Ġtem":1728,"Ġaddress":1729,"vironment":1730,"ieve":1731,"ret":1732,"ids":1733,"Ġ16":1734,"Ġjo":1735,"ĠAs":1736,"Ġnews":1737,"ners":1738,"arent":1739,"Ġcity":1740,"ĠRep":1741,"ived":1742,"ready":1743,"Ġside":1744,"Ġturn":1745,"Ġeduc":1746,"Our":1747,"oor":1748,"Ġclick":1749,"Ġ:":1750,"bal":1751,"ĠEuro":1752,"Ġ14":1753,"Ġhot":1754,"ĠAust":1755,"fect":1756,"ination":1757,"Ġlarge":1758,"resent":1759,"ĠOn":1760,"Ġvideo":1761,"ource":1762,"ored":1763,"Ġvers":1764,"iven":1765,"Ġpack":1766,"oice":1767,"Ġbed":1768,"Ġsoft":1769,"Ġresearch":1770,"ograph":1771,"olid":1772,"Ġcreate":1773,"Do":1774,"ĠSouth":1775,"Ġland":1776,"15":1777,"ajor":1778,"Ġlive":1779,"Ġbeaut":1780,"Ġmight":1781,"Ġtool":1782,"Ġmult":1783,"ufact":1784,"Ġshort":1785,"Ġabove":1786,"Ġmoney":1787,"Ġlo":1788,"Ġtoget":1789,"ĠApr":1790,"Ġupd":1791,"pro":1792,"With":1793,"yle":1794,"Ġtable":1795,"Ġtogether":1796,"osp":1797,"All":1798,"upp":1799,"Ġnon":1800,"ĠSte":1801,"Ġshare":1802,"ĠState":1803,"ribut":1804,"ring":1805,"ample":1806,"Ġhold":1807,"AS":1808,"Ġpast":1809,"Ġtreat":1810,"Ġmove":1811,"Ġhaving":1812,"lished":1813,"Ġpersonal":1814,"ienc":1815,"ĠNational":1816,"uper":1817,"ocu":1818,"ocus":1819,"Ġbenef":1820,"Ġneeds":1821,"Ġlot":1822,"Ġcover":1823,"atic":1824,"inc":1825,"Ġalready":1826,"Ġopport":1827,"irm":1828,"Ġmil":1829,"alf":1830,"ĠSchool":1831,"Ġ2016":1832,".\"":1833,"Ġwhy":1834,"ĠGu":1835,"Ġpossible":1836,"ĠBo":1837,"ourn":1838,"Ġreturn":1839,"wards":1840,"Ġpot":1841,"Ġsocial":1842,"sw":1843,"Ġgovernment":1844,"ĠTo":1845,"ĠMe":1846,"unch":1847,"Ġwind":1848,"Ġmillion":1849,"Ġ...":1850,"Ġaway":1851,"Ġacross":1852,"Ġfav":1853,"ured":1854,"Ġrele":1855,"Ġtimes":1856,"rict":1857,"ris":1858,"Ġkey":1859,"Ġinclude":1860,"ĠJohn":1861,"Ġ13":1862,"Ġcontrol":1863,"Ġtalk":1864,"Ġmar":1865,"Ġste":1866,"obile":1867,"itive":1868,"Ġindustry":1869,"iful":1870,"ĠEn":1871,"ĠCont":1872,"Ġcompet":1873,"Ġ17":1874,"ille":1875,"ĠPark":1876,"over":1877,"Ġleft":1878,"ape":1879,"Ġannoun":1880,"Ġlow":1881,"Ġfore":1882,"Ġeasy":1883,"ĠCounty":1884,"ask":1885,"yl":1886,"Ġfuture":1887,"uman":1888,"Ġrequire":1889,"EN":1890,"Ġweb":1891,"anies":1892,"ĠWhat":1893,"ights":1894,"ĠInst":1895,"Ġcalled":1896,"Ġport":1897,"Ġrange":1898,"Ġce":1899,"Ġx":1900,"ides":1901,"Ġmusic":1902,"Ġmaterial":1903,"ĠNorth":1904,"ones":1905,"Ġ24":1906,"ĠChe":1907,"Ġmanagement":1908,"ĠJan":1909,"Ġunderstand":1910,"uff":1911,"Ġtax":1912,"icy":1913,"hers":1914,"ĠUnited":1915,"isk":1916,"ĠDes":1917,"Ġwall":1918,"augh":1919,"lege":1920,"Ġclaim":1921,"Ġ100":1922,"Ġstep":1923,"Ġsum":1924,"Ġpriv":1925,"Ad":1926,"cle":1927,"Ġfield":1928,"vert":1929,"opp":1930,"Ġtre":1931,"ural":1932,"18":1933,"AL":1934,"ification":1935,"eral":1936,"Ġorig":1937,"ruction":1938,"Ġkind":1939,"isc":1940,"Ġdiscuss":1941,"err":1942,"Ġtraining":1943,"Ġnever":1944,"Ġpict":1945,"Ġmain":1946,"IS":1947,"cy":1948,"sure":1949,"Ġdi":1950,"par":1951,"Ġminutes":1952,"ĠEurope":1953,"Ġes":1954,"Ġ25":1955,"Ġbring":1956,"Ġpar":1957,"Ġbecome":1958,"urther":1959,"ĠHow":1960,"ances":1961,"ancial":1962,"Ġvalue":1963,"urch":1964,"ividual":1965,"Ġworks":1966,"come":1967,"ĠApril":1968,"ilities":1969,"Ġ199":1970,"ips":1971,"Ġmajor":1972,"idd":1973,"ster":1974,"Ġsever":1975,"go":1976,"IC":1977,"Ġmean":1978,"wh":1979,"ĠCal":1980,"Ġ#":1981,"Pro":1982,"oose":1983,"Ġdeal":1984,"Ġsays":1985,"Ġlim":1986,"'m":1987,"Ġcou":1988,"ommend":1989,"Ġmen":1990,"ĠAmerican":1991,"Ġoffice":1992,"Ġhost":1993,"roll":1994,"gle":1995,"Ġmach":1996,"ĠPol":1997,"ained":1998,"urance":1999,"ethod":2000,"Ġclean":2001,"16":2002,"gr":2003,"Ġhours":2004,"Ġpurch":2005,"ounc":2006,"Sh":2007,"Ġfeat":2008,"ilt":2009,"Ġbuilding":2010,"Ġcut":2011,"Ġselect":2012,"14":2013,"Ġpub":2014,"ĠNe":2015,"Ġredu":2016,"Ġvol":2017,"ibr":2018,"lobal":2019,"Ġflo":2020,"Ġaccording":2021,"ball":2022,"Ġcard":2023,"Ġofficial":2024,"25":2025,"Ġwrit":2026,"abor":2027,"Ġfile":2028,"iod":2029,"Ġnetwork":2030,"ĠGo":2031,"Cl":2032,"nes":2033,"33":2034,"ges":2035,"now":2036,"ulation":2037,"Ġseveral":2038,"ources":2039,"Ġproperty":2040,"oon":2041,"Ġcomplet":2042,"Ġstore":2043,"ream":2044,"ĠInc":2045,"Ġothers":2046,"Ġbrand":2047,"ĠBro":2048,"ĠAustral":2049,"Ġfocus":2050,"Ġbody":2051,"Ġmanag":2052,"rew":2053,"Ġpress":2054,"Ġsearch":2055,"ĠYork":2056,"Ġtot":2057,"aken":2058,"ĠDo":2059,"Ġ|":2060,"ĠUK":2061,"Ġclos":2062,"Ġseries":2063,"Ġmedia":2064,"RE":2065,"Ġstudy":2066,"Ġocc":2067,"Ġauthor":2068,"ably":2069,"Please":2070,"Ġdone":2071,"ada":2072,"Ġanal":2073,"br":2074,"Ġdocu":2075,"Ġpri":2076,"Ġleast":2077,"'re":2078,"Ġlocated":2079,"opy":2080,"Ġoffers":2081,"Ġperfect":2082,"Ġindividual":2083,"Ġquestions":2084,"Ġcompanies":2085,"Ġcomb":2086,"Ġtravel":2087,"Ġenvironment":2088,"ctor":2089,"play":2090,"Ġ2015":2091,"Ġimprove":2092,"umb":2093,"cript":2094,"elling":2095,"ume":2096,"ief":2097,"resh":2098,"Ġrecommend":2099,"aces":2100,"Ġapplication":2101,"li":2102,"Ġlog":2103,"ĠBar":2104,"AC":2105,"Ġfar":2106,"Is":2107,"ony":2108,"IT":2109,"Ġident":2110,"ians":2111,"ĠAg":2112,"Ġz":2113,"Ġever":2114,"Ġbar":2115,"Ġstaff":2116,"ĠWorld":2117,"Ġmanufact":2118,"Ġcomplete":2119,"aining":2120,"Ġspace":2121,"eter":2122,"itchen":2123,"Ġinvol":2124,"lex":2125,"fort":2126,"Ġcal":2127,"Ġlat":2128,"ĠCenter":2129,"raft":2130,"Ġideas":2131,"Ġthing":2132,"Ġchall":2133,"ĠHealth":2134,"ĠĠ":2135,"Ġparticip":2136,"ĠMc":2137,"ĠMarch":2138,"irl":2139,"Ġhig":2140,"ĠPart":2141,"ĠQu":2142,"Ġtechnology":2143,"ĠIm":2144,"ĠWest":2145,"Ġetc":2146,"'ll":2147,"Ġsize":2148,"Ġmeans":2149,"ĠDep":2150,"Ex":2151,"ival":2152,"Ġmess":2153,"ental":2154,"Ġstory":2155,"Ġenc":2156,"itted":2157,"ĠSec":2158,"--":2159,"ĠOct":2160,"ĠSm":2161,"Ġdr":2162,"igital":2163,"Ġtype":2164,"ouncil":2165,"Ġgetting":2166,"ĠJu":2167,"Ġonce":2168,"gest":2169,"Be":2170,"ipment":2171,"Ġvari":2172,"ino":2173,"Ġwa":2174,"Ġwalk":2175,"Ġamong":2176,"Ġeconom":2177,"ĠEm":2178,"Ġcustomers":2179,"At":2180,"Ġblog":2181,"crib":2182,"Ġheart":2183,"Ġsend":2184,"uary":2185,"Ġquick":2186,"Ġmakes":2187,"Ġfurther":2188,"Ġhope":2189,"Ġlik":2190,"irt":2191,"200":2192,"Ġprint":2193,"Ġposted":2194,"ĠCor":2195,"atural":2196,"nov":2197,"Ġmaint":2198,"ĠInternational":2199,"ither":2200,"earch":2201,"Ġmember":2202,"Ġheld":2203,"place":2204,"Ġrequest":2205,"ĠPres":2206,"Ġclear":2207,"ĠHigh":2208,"ĠReg":2209,"ten":2210,"Ġfive":2211,"riday":2212,"Ġappear":2213,"ued":2214,"ED":2215,"ched":2216,"redit":2217,"Ġstay":2218,"rodu":2219,"Ġearly":2220,"ĠGod":2221,"astic":2222,"Ġ2014":2223,"icro":2224,"Ġdetails":2225,"ĠAf":2226,"unities":2227,"ham":2228,"Ġ[":2229,"ĠAb":2230,"cing":2231,"Ġant":2232,"Ġ50":2233,"aur":2234,"Ġconnect":2235,"Ġbeautiful":2236,"//":2237,"ana":2238,"'ve":2239,"Ġsale":2240,"ung":2241,"Ġprofessional":2242,"Ġoil":2243,"Ġyoung":2244,"Ġpercent":2245,"ĠGe":2246,"Ġmonths":2247,"uter":2248,"Ġmethod":2249,"ecut":2250,"Ġwon":2251,"Ġcode":2252,"Ġknown":2253,"Ġassist":2254,"17":2255,"itor":2256,"back":2257,"Ġsit":2258,"ogn":2259,"Ġcontent":2260,"Ġdate":2261,"ĠSept":2262,"After":2263,"Ġrespons":2264,"ondon":2265,"most":2266,"Ġwhite":2267,"minist":2268,"ibility":2269,"ĠEd":2270,"Ġdownload":2271,"sel":2272,"ĠPre":2273,"Ġsol":2274,"Ġthird":2275,"ledge":2276,"Ġmind":2277,"Ġperiod":2278,"Ġbreak":2279,"mit":2280,"ators":2281,"aturday":2282,"Ġrepresent":2283,"rs":2284,"ux":2285,"aid":2286,"Ġtrack":2287,"illed":2288,"Ġener":2289,"://":2290,"Ġrequired":2291,"Ġtook":2292,"Ġstrong":2293,"ober":2294,"Ġrecord":2295,"ze":2296,"imate":2297,"Ġperformance":2298,"arning":2299,"ĠNo":2300,"Ġmot":2301,"itch":2302,"Ġpie":2303,"Ġdoing":2304,"ternet":2305,"Ġtyp":2306,"Ġtaking":2307,"Ġfriends":2308,"Ġfre":2309,"acy":2310,"Ġgiven":2311,"Ġstarted":2312,"Ġred":2313,"Ġbegin":2314,"Ġlatest":2315,"ole":2316,"Ġcomes":2317,"Ġsingle":2318,"Ġbit":2319,"My":2320,"ĠJune":2321,"Ġfront":2322,"ĠAug":2323,"cer":2324,"ĠDay":2325,"Ġregist":2326,"Ġbox":2327,"Ġadded":2328,"not":2329,"ef":2330,"hel":2331,"Ġproblem":2332,"org":2333,"Ġliving":2334,"rad":2335,"ĠDr":2336,"year":2337,"Ġdue":2338,"ĠHouse":2339,"13":2340,"ging":2341,"Ġpan":2342,"Ġuser":2343,"ĠAt":2344,"Ġdou":2345,"usher":2346,"ĠAssoci":2347,"ese":2348,"aching":2349,"reet":2350,"ively":2351,"Ġyet":2352,"ĠStud":2353,"ĠArt":2354,"Ġsales":2355,"Ġaud":2356,"Com":2357,"Ġfire":2358,"Ġversion":2359,"Ġinternational":2360,"aps":2361,"ST":2362,"time":2363,"ops":2364,"Ġvia":2365,"Ġclose":2366,"Ġagree":2367,"Ġevents":2368,"Ġwood":2369,"Ġmiss":2370,"ĠWill":2371,"ĠHar":2372,"Ġvarious":2373,"asing":2374,"Ġquestion":2375,"ĠVal":2376,"ables":2377,"ches":2378,"idence":2379,"ĠGr":2380,"Ġcontract":2381,"Ġfoot":2382,"Ġissues":2383,"AM":2384,"Ġfeature":2385,"Ġmeeting":2386,"Ġprovides":2387,"Ġele":2388,"ĠFeb":2389,"che":2390,"ands":2391,"Ġenough":2392,"iture":2393,"ĠBu":2394,"Ġfinal":2395,"Ġblack":2396,"Ġhistory":2397,"Ġcame":2398,"my":2399,"Ġwomen":2400,"Ġarticle":2401,"Ġengine":2402,"Ġsecurity":2403,"ĠEl":2404,"ports":2405,"verage":2406,"Ġpick":2407,"Ġpark":2408,"24":2409,"Ġamount":2410,"Ġmom":2411,"unday":2412,"olutions":2413,"Ġreceive":2414,"ĠIf":2415,"Ġtour":2416,"Ġcult":2417,"iate":2418,"ĠAut":2419,"Ġtext":2420,"ĠPar":2421,"ovember":2422,"ĠYour":2423,"ler":2424,"ĠCr":2425,"60":2426,"Ġcommunic":2427,"Ġareas":2428,"Ġdesigned":2429,"Ġage":2430,"angu":2431,"ĠÂ£":2432,"Ġface":2433,"Ġparty":2434,"oud":2435,"ees":2436,"yd":2437,"Ġtell":2438,"Ġrisk":2439,"87":2440,"ffic":2441,"ox":2442,"ĠFriday":2443,"amb":2444,"nder":2445,"Ġcoll":2446,"Ġansw":2447,"Ġdeb":2448,"Ġsoftware":2449,"oogle":2450,"uk":2451,"Ġoften":2452,"ĠWed":2453,"ead":2454,"aker":2455,"hib":2456,"arget":2457,"Ġwond":2458,"agn":2459,"ĠLondon":2460,"Ġprovided":2461,"itut":2462,"Ġfinancial":2463,"Ġmeas":2464,"Ġspecific":2465,"Ġlater":2466,"ford":2467,"Ġprep":2468,"ĠSaturday":2469,"ye":2470,"Ġmor":2471,"Ġroad":2472,"Ġissue":2473,"Ġenergy":2474,"Ġsound":2475,"Ġcustomer":2476,"Ġpric":2477,"head":2478,"Ġpoints":2479,"Ġparticular":2480,"Ġresults":2481,"atform":2482,"ilar":2483,"clus":2484,"ington":2485,"99":2486,"onday":2487,"Ġattend":2488,"Ġwatch":2489,"Ġcurrently":2490,"ĠPer":2491,"Ġplant":2492,"ĠSw":2493,"Ġexam":2494,"Ġexample":2495,"aign":2496,"artment":2497,"Ġphone":2498,"fully":2499,"OT":2500,"amer":2501,"reg":2502,"mas":2503,"Ġhom":2504,"Ġeducation":2505,"Ġpaper":2506,"ĠTw":2507,"anced":2508,"Ġexperienc":2509,"fl":2510,"80":2511,"Ġstat":2512,"ĠRec":2513,"ĠStates":2514,"pecially":2515,"ĠDirect":2516,"Ġ21":2517,"Ġautom":2518,"right":2519,"ĠGroup":2520,"ouch":2521,"Ġforward":2522,"Ġidea":2523,"Ġcharact":2524,"Ġcond":2525,"Ġcoming":2526,"Ġ2013":2527,"Ġfeatures":2528,"Ġach":2529,"Ġtaken":2530,"irc":2531,"Ġentry":2532,"imum":2533,"Ġ--":2534,"wood":2535,"airs":2536,"Ġincrease":2537,"40":2538,"Ġbath":2539,"Ġcertain":2540,"Ġfavor":2541,"ensive":2542,"ules":2543,"Ġsent":2544,"Ġprevious":2545,"Ġfunction":2546,"Ġgames":2547,"Ġcommon":2548,"ried":2549,"Ġimage":2550,"itten":2551,"ises":2552,"Ġrecently":2553,"urniture":2554,"put":2555,"coming":2556,"Ġveh":2557,"adem":2558,"Ġsimple":2559,",âĢĿ":2560,"cast":2561,"ĠService":2562,"Ġhalf":2563,"AP":2564,"rect":2565,"itte":2566,"ĠJuly":2567,"ĠSeptember":2568,"Ġassoci":2569,"gress":2570,"Ġparent":2571,"urg":2572,"Ġimpact":2573,"ĠDav":2574,"elcome":2575,"ĠMy":2576,"arth":2577,"Ġhuman":2578,"Ġwhether":2579,"Ġdam":2580,"ĠJanuary":2581,"That":2582,"ĠMon":2583,"uation":2584,"Ġprojects":2585,"Ġbra":2586,"aul":2587,"ey":2588,"Ġinit":2589,"Ġnational":2590,"Ġeffort":2591,"Ġboard":2592,"Ġcele":2593,"ville":2594,"cember":2595,"Ġcook":2596,"Ġago":2597,"Ġexist":2598,"ĠAir":2599,"Why":2600,"arden":2601,"Ġreason":2602,"ournal":2603,"Ġformer":2604,"Ġusers":2605,"Ġsoon":2606,"ĠChina":2607,"Ġconsider":2608,"ison":2609,"Ġactivities":2610,"face":2611,"ided":2612,",,,,":2613,"Ġtotal":2614,"Ġrecent":2615,"Ġrelations":2616,"azing":2617,"Ġwhole":2618,"Ġensure":2619,"Ġself":2620,"ĠSunday":2621,"Ġsystems":2622,"Ġmodel":2623,"orage":2624,"Ġ?":2625,"Ġpopular":2626,"Ġpotential":2627,"Ġhappen":2628,"val":2629,"Ġess":2630,"22":2631,"atory":2632,"ests":2633,"Ġunique":2634,"Ġregard":2635,"used":2636,"Ġrelated":2637,"ession":2638,"ĠNovember":2639,"Ġtit":2640,"Ġsix":2641,"arter":2642,"ĠFin":2643,"aily":2644,"ĠPe":2645,"hern":2646,"Ġcontinue":2647,"Ġmark":2648,"ĠBusiness":2649,"ĠAct":2650,"Ġblock":2651,"Ġmobile":2652,"oman":2653,"Ġcolor":2654,"Ġposition":2655,"Here":2656,"ĠWork":2657,"mercial":2658,"ĠShe":2659,"ĠHome":2660,"mm":2661,"Ph":2662,"amed":2663,"though":2664,"OS":2665,"Ġpain":2666,"Ġseen":2667,"ĠServices":2668,"ĠWind":2669,"Ġcreated":2670,"EC":2671,"Ġ22":2672,"Ġprivate":2673,"Ġthought":2674,"Ġaction":2675,"ama":2676,"Ġincludes":2677,"lier":2678,"ĠPresident":2679,"Ġ2012":2680,"One":2681,"ply":2682,"ĠSal":2683,"Ġaccept":2684,"Ġclients":2685,"Ġfail":2686,"Ġapply":2687,"Ġinsp":2688,"pm":2689,"Ġleading":2690,"Ġreceived":2691,"Can":2692,"ĠAfric":2693,"Ġsugg":2694,"ĠSer":2695,"Ġleaders":2696,"Ġfall":2697,"Ġequipment":2698,"They":2699,"ule":2700,"Ġkitchen":2701,"Ġpolit":2702,"Ġrate":2703,"Ġproduction":2704,"Ġestab":2705,"Ġdom":2706,"Ġeither":2707,"apt":2708,"Ġplans":2709,"Ġprotect":2710,"Ġscreen":2711,"\".":2712,"Ġwent":2713,"Ġshall":2714,"ĠOctober":2715,"Ġmix":2716,"Ġsection":2717,"Ġdeg":2718,"ructure":2719,"Ġbase":2720,"Ġneeded":2721,"ĠWith":2722,"iple":2723,"Ġrunning":2724,"ĠAc":2725,"Ġful":2726,"ĠDesign":2727,"!!!":2728,"ĠDepartment":2729,"Ġcand":2730,"Ġrole":2731,"Ġhtt":2732,"âĢĶ":2733,"ursday":2734,"Ġoptions":2735,"Ġactually":2736,"lin":2737,"ĠIndia":2738,"icles":2739,"ruary":2740,"Ġphys":2741,"Ġstudent":2742,"Ġbott":2743,"vey":2744,"Ġspend":2745,"US":2746,"gs":2747,"ĠMonday":2748,"Ġgeneral":2749,"erc":2750,"Ġfast":2751,"ĠSan":2752,"itting":2753,"Ġwar":2754,"Ġsomeone":2755,"ague":2756,"Ġtown":2757,"Ġready":2758,"Ġcrit":2759,"Ġintrodu":2760,"Ġrecogn":2761,"Ġsche":2762,"Ġmachine":2763,"ground":2764,"na":2765,"itute":2766,"Ġobject":2767,"Ġsubject":2768,"Ġextra":2769,"ĠAugust":2770,"Ġadditional":2771,"ett":2772,"Ġgold":2773,"Ġenter":2774,"aging":2775,"Ġ+":2776,"Ġmat":2777,"bor":2778,"eds":2779,"ĠTechn":2780,"Ġrespect":2781,"ĠFace":2782,"Ġconsum":2783,"ĠDecember":2784,"Ġchoose":2785,"Ġpolicy":2786,"elt":2787,"Ġdisplay":2788,"Ġproviding":2789,"oid":2790,"aby":2791,"ET":2792,"ĠInt":2793,"Ġoriginal":2794,"ĠBr":2795,"Ġ40":2796,"Ġround":2797,"Ġplatform":2798,"Ġcampaign":2799,"ditional":2800,"Ne":2801,"Ġaward":2802,"Ġstyle":2803,"mon":2804,"mb":2805,"Ġopportunity":2806,"hing":2807,"Ġsuper":2808,"23":2809,"Ġknowledge":2810,"Ġpractice":2811,"oke":2812,"ĠDis":2813,"kend":2814,"ĠWar":2815,"duc":2816,"Now":2817,"Ġnatural":2818,"Ġbehind":2819,"Ġespecially":2820,"ĠPat":2821,"oe":2822,"ĠSystem":2823,"Ġlearning":2824,"hips":2825,"Ġhappy":2826,"ĠBook":2827,"ĠCollege":2828,"ĠSk":2829,"Ġ23":2830,"ĠGener":2831,"Ġregular":2832,"epend":2833,"Ġdrive":2834,"Ġtold":2835,"Ġrelease":2836,"ĠLaw":2837,"Ġcollect":2838,"ospital":2839,"ĠSo":2840,"ĠGl":2841,"iol":2842,"ached":2843,"Ġnecess":2844,"âĢĿ.":2845,"ams":2846,"Ġpartners":2847,"uesday":2848,"ĠPort":2849,"ĠAmerica":2850,"Ġtick":2851,"Ġinj":2852,"Ġchanges":2853,"ociety":2854,"ĠBlack":2855,"Ġtarget":2856,"EL":2857,"irth":2858,"nesday":2859,"ming":2860,"Ġmount":2861,"Pl":2862,"cription":2863,"oved":2864,"Ġvot":2865,"Ġgrowth":2866,"ires":2867,"Ġmarketing":2868,"Ġdigital":2869,"Ġstock":2870,"Ġeverything":2871,"ĠCour":2872,"ĠCouncil":2873,"Ġways":2874,"ĠEnglish":2875,"Ġgiving":2876,"Ġshows":2877,"based":2878,"Ġop":2879,"Ġmedical":2880,"Ġoutside":2881,"ald":2882,"iles":2883,"Ġground":2884,"ĠProf":2885,"Ġoption":2886,"Ġbank":2887,"ittee":2888,"OM":2889,"ibrary":2890,"ĠStreet":2891,"Ġbus":2892,"ension":2893,"These":2894,"Ġdoesn":2895,"ara":2896,"Ġskills":2897,"Ġmatch":2898,"Ġclub":2899,"Ġdiff":2900,"board":2901,"ĠBrit":2902,"iddle":2903,"Ġfram":2904,"Ġweeks":2905,"oura":2906,"Ã©":2907,"Ġlocation":2908,"Ġdocument":2909,"eal":2910,"iff":2911,"Ġdidn":2912,"Ġball":2913,"Ġinfl":2914,"Ġsummer":2915,"PS":2916,"Ġworth":2917,"Ġannounced":2918,"ĠTV":2919,"Ġanim":2920,"Ġwide":2921,"Ġeffic":2922,"Ġfit":2923,"Ġpers":2924,"ipe":2925,"uel":2926,"erve":2927,"No":2928,"ault":2929,"Ġleave":2930,"ysis":2931,"Ġfamil":2932,"Ġglobal":2933,"Ġinsurance":2934,"ID":2935,"action":2936,"press":2937,"Ġyourself":2938,"icated":2939,"selves":2940,"Ġlay":2941,"igation":2942,"Ġarch":2943,"Ġlooks":2944,"Ġrad":2945,"Ġqual":2946,"ĠAre":2947,"ĠRuss":2948,"apan":2949,"itter":2950,"ellent":2951,"Ġproblems":2952,"light":2953,"Ġsell":2954,"Ġalmost":2955,"Ġcredit":2956,"Ġhon":2957,"Ġmodern":2958,"Ġtreatment":2959,"Ġconsult":2960,"Ġsolution":2961,"bert":2962,"OU":2963,"ari":2964,"empt":2965,"ĠThursday":2966,"Ġcourt":2967,"off":2968,"ĠAssociation":2969,"ĠMich":2970,"ĠRed":2971,"ĠFree":2972,"ĠEast":2973,"Ġsat":2974,"Ġstandard":2975,"anguage":2976,"Ġborn":2977,"Ġattack":2978,"ellow":2979,"Ġpresident":2980,"ĠFebruary":2981,"Un":2982,"Ġprob":2983,"Ġentire":2984,"Ġlic":2985,"idents":2986,"Ġincluded":2987,"ĠTrans":2988,"Ġstop":2989,"Ġimplement":2990,"ishing":2991,"She":2992,"ĠChar":2993,"key":2994,"Ġwonder":2995,"iet":2996,"Ġteac":2997,"aving":2998,"ridge":2999,"ĠAustralia":3000,"ĠPost":3001,"Ġphotos":3002,"Ġphoto":3003,"iation":3004,"Ġeveryone":3005,"Ġinside":3006,"Ġdeterm":3007,"Ġ27":3008,"ĠCalif":3009,"aced":3010,"Ġbelieve":3011,"Ġjoin":3012,"New":3013,"ura":3014,"Ġdraw":3015,"enior":3016,"ĠGoogle":3017,"overed":3018,"Ġ26":3019,"abin":3020,"ĠOffice":3021,"Ġ28":3022,"vest":3023,"45":3024,"OL":3025,"ĠOf":3026,"Ġsimilar":3027,"Ġcenter":3028,"ha":3029,"Ġsqu":3030,"iter":3031,"Ġmorning":3032,"Ġaverage":3033,"uge":3034,"Ġcool":3035,"oph":3036,"Ġreading":3037,"Ġcollection":3038,"Ġwritten":3039,"ĠFacebook":3040,"sing":3041,"raw":3042,"ma":3043,"izing":3044,"Ġbuilt":3045,"aly":3046,"ĠIns":3047,"gra":3048,"Ġprograms":3049,"Ġsafety":3050,"26":3051,"just":3052,"Ġcell":3053,"rive":3054,"Ġprior":3055,"Ġcomputer":3056,"Ġsuggest":3057,"Ġill":3058,"Ġbad":3059,"alt":3060,"Ġsong":3061,"ĠAnt":3062,"ternal":3063,"illing":3064,"Ġdevice":3065,"Ġthanks":3066,"ĠMr":3067,"Ġwee":3068,"....":3069,"avy":3070,"Ġthroughout":3071,"lim":3072,"Ġtru":3073,"ĠLa":3074,"ĠGerm":3075,"IL":3076,"istry":3077,"onst":3078,"Ġfix":3079,"Ġswe":3080,"ester":3081,"âĢĵ":3082,"Ġdoor":3083,"Ġdecor":3084,"Ġfilm":3085,"icult":3086,"ĠAng":3087,"oes":3088,"27":3089,"iring":3090,"ray":3091,"Ġsepar":3092,"Ġdepart":3093,"gu":3094,"Ġpages":3095,"unt":3096,"ING":3097,"Ġsource":3098,"Ġsil":3099,"ederal":3100,"ĠMarket":3101,"Ġorganization":3102,"):":3103,"Ġconcern":3104,"Thanks":3105,"Ġdirectly":3106,"Ġsolutions":3107,"ĠDist":3108,"Ġword":3109,"Ġtakes":3110,"ĠTuesday":3111,"Ġprevent":3112,"ivery":3113,"mission":3114,"Ġlate":3115,"ĠCons":3116,"Ġamazing":3117,"Ġcountries":3118,"Ġchoice":3119,"__":3120,"Ġcomfort":3121,"ares":3122,"orge":3123,"Ġfresh":3124,"Ġpurchase":3125,"Ġinnov":3126,"ĠMod":3127,"ĠKing":3128,"ornia":3129,"Ġdeliver":3130,"ĠWednesday":3131,"ĠChristmas":3132,"Ġwor":3133,"enge":3134,"ĠGold":3135,"ael":3136,"Ġconstruction":3137,"Ġbal":3138,"Ġstorage":3139,"Ġfloor":3140,"ĠCanada":3141,"rec":3142,"Ġweekend":3143,"Ġcopy":3144,"Ġbooks":3145,"Ġabs":3146,"field":3147,"hold":3148,"Ġdescrib":3149,"Ġcelebr":3150,"Ġgreen":3151,"Ġfurniture":3152,"rem":3153,"Ġloss":3154,"Ġgoal":3155,"Ġbud":3156,"Ġsafe":3157,"Ġlikely":3158,"Ġdest":3159,"iber":3160,"Ġsun":3161,"Ġcomment":3162,"AD":3163,"atives":3164,"Ġtools":3165,"Ġpropos":3166,"ĠEduc":3167,"ags":3168,"Ġpromot":3169,"Ġsle":3170,"Ġimages":3171,"ĠRoad":3172,"Ġpublished":3173,"ĠInter":3174,"EO":3175,"Ġglass":3176,"Ġsave":3177,"While":3178,"Ġemb":3179,"Â®":3180,"Ġexecut":3181,"Ġwriting":3182,"Ġgirl":3183,"Ġcosts":3184,"Ġterms":3185,"aste":3186,"Ġkids":3187,"ĠUp":3188,"Ġple":3189,"zz":3190,"Ġrent":3191,"Ġparts":3192,"Ġitems":3193,"ĠProgram":3194,"Ġadminist":3195,"Ġmag":3196,"Ġnice":3197,"Ġcommercial":3198,"Ġexpected":3199,"ĠNews":3200,"lock":3201,"opping":3202,"70":3203,"Ġtouch":3204,"ĠBank":3205,"ĠWash":3206,"Ġhigher":3207,"Ġfirm":3208,"ĠGreen":3209,"anch":3210,"iding":3211,"ĠOne":3212,"Ġplanning":3213,"Ġwrite":3214,"Ġut":3215,"ĠPal":3216,"Ġord":3217,"ĠHot":3218,"Ġanything":3219,"From":3220,"Ġmanufacture":3221,"BC":3222,"pose":3223,"Ġinform":3224,"Ġreleased":3225,"Ġlegal":3226,"urb":3227,"Ġexpress":3228,"ĠDevelop":3229,"itation":3230,"Ġhit":3231,"Ġ2011":3232,"ny":3233,"Ġhowever":3234,"28":3235,"Ġaim":3236,"Ġsignific":3237,"Ġcorrect":3238,"ĠManagement":3239,"Ġconditions":3240,"21":3241,"ĠSupp":3242,"Ġchance":3243,"Ġfavorite":3244,"Ġresources":3245,"En":3246,"Ġsens":3247,"ĠTH":3248,"ĠDon":3249,"ĠOut":3250,"Ġneg":3251,"Ġ2010":3252,"onse":3253,"ĠHer":3254,"Ġannual":3255,"Ġregul":3256,"Ġtrying":3257,"ĠBoard":3258,"hood":3259,"Ġcirc":3260,"ida":3261,"istic":3262,"ivity":3263,"Ġanyone":3264,"Ġwords":3265,"pper":3266,"Ġreported":3267,"ffee":3268,"error":3269,"rench":3270,"eed":3271,"Ġdefin":3272,"Ġemer":3273,"Ġinterested":3274,"Ġmessage":3275,"Ġroll":3276,"Ġpicture":3277,"Ġchalleng":3278,"Are":3279,"Ġrather":3280,"umn":3281,"aged":3282,"Ġsimply":3283,"ipping":3284,"Ġded":3285,"Ġcharacter":3286,"ube":3287,"Ġclient":3288,"pri":3289,"Click":3290,"Ġfig":3291,"ĠCle":3292,"ica":3293,"osed":3294,"ĠClub":3295,"ĠCalifornia":3296,"olf":3297,"Ġdepend":3298,"Ġ60":3299,"Ġcareer":3300,"ĠJapan":3301,"riving":3302,"35":3303,"house":3304,"Ġfeed":3305,"ĠClass":3306,"Ġmid":3307,"ĠEuropean":3308,"ceed":3309,"Cont":3310,"Ġholid":3311,"rown":3312,"Ġconduct":3313,"Ġseek":3314,"Ġrestaur":3315,"Ġpret":3316,"Ġplayers":3317,"Ġdecision":3318,"Ġ>":3319,"ager":3320,"Ġimm":3321,"ancy":3322,"Ġasked":3323,"Ġmaterials":3324,"ĠSch":3325,"Ġcrusher":3326,"Ġbenefits":3327,"Ġrights":3328,"Ġaw":3329,"Ġcross":3330,"ĠGra":3331,"Ġflow":3332,"Ġmill":3333,"oday":3334,"Ġoffering":3335,"Ġprim":3336,"oul":3337,"Ġprem":3338,"Ġsett":3339,"ĠWhite":3340,"Ġinvolved":3341,"rate":3342,"itect":3343,"Ġpolice":3344,"ĠCompany":3345,"ection":3346,"mark":3347,"Ġrock":3348,"Ġwed":3349,"Ġâ":3350,"Ġmatter":3351,"ude":3352,"mat":3353,"Ġsold":3354,"ĠMac":3355,"rial":3356,"Ġmoment":3357,"rup":3358,"irit":3359,"Ġprices":3360,"Acc":3361,"ĠAnn":3362,"vant":3363,"Ġsubs":3364,"Ġtrip":3365,"Ġaffect":3366,"where":3367,"ĠAcc":3368,"estival":3369,"inary":3370,"Ġrev":3371,"ĠIN":3372,"Ġdeath":3373,"Ġeffective":3374,"Ġskin":3375,"ples":3376,"Ġpatients":3377,"Ġrequirements":3378,"Ġdiv":3379,"ĠHall":3380,"Ġdifficult":3381,"Ġapplications":3382,"www":3383,",\"":3384,"Ġstri":3385,"sy":3386,"Ġcy":3387,"Ġlab":3388,"ĠGeneral":3389,"Ġinterview":3390,"Che":3391,"Ġconne":3392,"Ġvariety":3393,"ĠBest":3394,"Ġvict":3395,"Ġled":3396,"Ġregion":3397,"Ġelse":3398,"Ġcoun":3399,"Ġseem":3400,"Des":3401,"Ġdaily":3402,"Ġearn":3403,"ĠYear":3404,"Ġcateg":3405,"Ġgradu":3406,"door":3407,"Ġrout":3408,"pre":3409,"Ġcat":3410,"Ġsn":3411,"ological":3412,"Ġencoura":3413,"Ġmass":3414,"inter":3415,"Ġpretty":3416,"75":3417,"gar":3418,"Ġdat":3419,"useum":3420,"ography":3421,"td":3422,"Ġdouble":3423,"29":3424,"Ġhous":3425,"ĠDavid":3426,"Ġgift":3427,"akers":3428,"Ġitself":3429,"Ġtrue":3430,"ĠResearch":3431,"Ġhotel":3432,"Ġworked":3433,"Ġsupply":3434,"Ġinstead":3435,"ĠPhil":3436,"Ġbi":3437,"Ġones":3438,"Ġapproach":3439,"Get":3440,"dom":3441,"ks":3442,"Ġcause":3443,"Ġdeep":3444,"Ġsaw":3445,"Ġexcept":3446,"attle":3447,"MS":3448,"Ġ*":3449,"Ġsus":3450,"Ġep":3451,"Ġ29":3452,"Ġexact":3453,"ĠKe":3454,"Ġmention":3455,"ĠDel":3456,"ought":3457,"Ġnecessary":3458,"Ġpaint":3459,"ĠMor":3460,"Ġbutton":3461,"ses":3462,"cel":3463,"Ġdrink":3464,"Con":3465,"amic":3466,"ruit":3467,"By":3468,"Ġlives":3469,"Ġexpert":3470,"Ġfiles":3471,"ĠIr":3472,"Ġtransfer":3473,"urt":3474,"ĠBut":3475,"ser":3476,"Ġupdate":3477,"mitted":3478,"Ġcannot":3479,"Ġgroups":3480,"rel":3481,"Ġfarm":3482,"Ġsuit":3483,"porate":3484,"estern":3485,"ĠFound":3486,"ĠMore":3487,"Ġquite":3488,"ĠIsland":3489,"change":3490,"ades":3491,"Ġplaying":3492,"Ġwindow":3493,"itary":3494,"ĠSpr":3495,".âĢĿ":3496,"ils":3497,"Ġlost":3498,"Ġbathroom":3499,"Ġcandid":3500,"Ġsym":3501,"ston":3502,"ĠID":3503,"rey":3504,"pped":3505,"Ġcondition":3506,"Ġlonger":3507,"Ġweight":3508,"ĠGreat":3509,"aches":3510,"Ġlower":3511,"Ġtrade":3512,"Ġappoint":3513,"Ġtele":3514,"Ġcouple":3515,"Ġachieve":3516,"ĠWashington":3517,"Ġability":3518,"Ġeasily":3519,"ĠWindows":3520,"Ġsignificant":3521,"Ġwish":3522,"roid":3523,"ĠBra":3524,"Ġnote":3525,"venue":3526,"Ġmax":3527,"ĠIndian":3528,"Ġexcellent":3529,"IG":3530,"Ġinvestment":3531,"Ġmultiple":3532,"ĠDec":3533,"inding":3534,".)":3535,"aries":3536,"Ġvac":3537,"Ġblue":3538,"Ġactivity":3539,"65":3540,"IP":3541,"ĠNot":3542,"ocol":3543,"Ġ=":3544,"Ġ198":3545,"ĠWeb":3546,"iger":3547,"Ġwww":3548,"Ġ~":3549,"arc":3550,"Ġstarting":3551,"Ġparents":3552,"Ar":3553,"iling":3554,"ĠCare":3555,"Ġaf":3556,"Ġstrateg":3557,"Ġfully":3558,"Ġopportunities":3559,"ĠEducation":3560,"100":3561,"asons":3562,"Ġcapt":3563,"Ġthank":3564,"Ġhair":3565,"ustain":3566,"rast":3567,"Se":3568,"Ġhour":3569,"Ġplayer":3570,"Ġver":3571,"Ġstar":3572,"Ġstra":3573,"ĠHol":3574,"Ġhighly":3575,"cul":3576,"ico":3577,"ady":3578,"bon":3579,"vis":3580,"ronic":3581,"CC":3582,"Thank":3583,"Me":3584,"iction":3585,"Ġguide":3586,"Just":3587,"Ġtypes":3588,"ĠDevelopment":3589,"den":3590,"ded":3591,"leg":3592,"Ġseems":3593,"Ġcontribut":3594,"ĠTex":3595,"Ġintegr":3596,"Ġsuccessful":3597,"Ġdelivery":3598,"Ġload":3599,"set":3600,"Ġlanguage":3601,"ĠDem":3602,"Ġreports":3603,"ION":3604,"ores":3605,"Ġdru":3606,"Ġtitle":3607,"new":3608,"Ġgas":3609,"Ġhear":3610,"Ġdirector":3611,"Ġimmed":3612,"Ġtrust":3613,"Ġbroad":3614,"Ġappl":3615,"order":3616,"rought":3617,"IM":3618,"Ġupon":3619,"Ġorganiz":3620,"Ġpictures":3621,"ales":3622,"ĠInstitute":3623,"Ġshop":3624,"Ġpiece":3625,"Ġreach":3626,"Ġinstru":3627,"Ġdegree":3628,"ĠMill":3629,"Ġelectric":3630,"Ġanswer":3631,"Ġprobably":3632,"azon":3633,"ĠEngine":3634,"Ġbudget":3635,"Your":3636,"rd":3637,"dule":3638,"Ġacqu":3639,"LE":3640,"Ġdead":3641,"erved":3642,"ening":3643,"ĠJust":3644,"plate":3645,"uit":3646,"Ġtrain":3647,"Ġadvice":3648,"Ġisn":3649,"Ġviol":3650,"Ġregistered":3651,"Ġnamed":3652,"Ġcreating":3653,"Ġvehicle":3654,"\",":3655,"Ġnorm":3656,"sec":3657,"Ġexhib":3658,"Ġcarry":3659,"Ġmap":3660,"Ġreplace":3661,"see":3662,"ĠAP":3663,"ĠInternet":3664,"aves":3665,"wide":3666,"inner":3667,"However":3668,"De":3669,"ties":3670,"uth":3671,"Ġ2009":3672,"Ġ!":3673,"log":3674,"ashion":3675,"ĠUSA":3676,"Ġlargest":3677,"erry":3678,"Ġfine":3679,"ĠSing":3680,"Ġcontain":3681,"Ġdry":3682,"ĠMet":3683,"ĠPublic":3684,"Ġcollabor":3685,"ĠMem":3686,"Some":3687,"Ġcamer":3688,"Ġprogress":3689,"Ġcharge":3690,"mail":3691,"orial":3692,"ĠSim":3693,"Ġemployees":3694,"Ġlif":3695,"ĠMag":3696,"sp":3697,"tain":3698,"ĠIS":3699,"Ġtraditional":3700,"Ġteams":3701,"ĠPC":3702,"Ġconference":3703,"Ġgrowing":3704,"Don":3705,"unk":3706,"Ġallows":3707,"Res":3708,"Ġbur":3709,"Ġtransport":3710,"App":3711,"Ġreve":3712,"Ġjud":3713,"Ġspeed":3714,"Ġgarden":3715,"ĠPaul":3716,"Ġwarm":3717,"allery":3718,"ĠChurch":3719,"prise":3720,"Ġbedroom":3721,"'d":3722,"rant":3723,"arant":3724,"amily":3725,"Ġinteresting":3726,"ĠCourt":3727,"Ġfab":3728,"ĠST":3729,"Ġthemselves":3730,"Ġcapital":3731,"Ġsites":3732,"ĠRiver":3733,"Ġbusinesses":3734,"Ġwelcome":3735,"Ġcabin":3736,"ĠII":3737,"Ġdistribut":3738,"ĠDirector":3739,"tra":3740,"ago":3741,"Ġregarding":3742,"inn":3743,"Ġdise":3744,"Ġpolitical":3745,"Ġplayed":3746,"Ġquickly":3747,"force":3748,"ownload":3749,"Ġdeveloped":3750,"agram":3751,"Ġgoals":3752,"Ġhands":3753,"Ġresponse":3754,"inese":3755,"Ġsubst":3756,"Ġlevels":3757,"Ġhttp":3758,"90":3759,"Ġlaunch":3760,"hest":3761,"ĠPM":3762,"Ġindic":3763,"ament":3764,"Ġgen":3765,"imately":3766,"Ġdecl":3767,"ĠPlan":3768,"nds":3769,"Ġboy":3770,"ĠDan":3771,"Ġexisting":3772,"Ġgar":3773,"ĠHel":3774,"Ġpayment":3775,"Ġsem":3776,"ĠTrump":3777,"Ġhy":3778,"ĠProject":3779,"Ġstatement":3780,"Ġschools":3781,"ira":3782,"ona":3783,"Or":3784,"Ġpath":3785,"ĠSub":3786,"Ġplus":3787,"Ġnothing":3788,"ĠFlor":3789,"isf":3790,"Ġbirth":3791,"Ġapart":3792,"ĠBay":3793,"ampions":3794,"32":3795,"500":3796,"ĠTexas":3797,"Ġtag":3798,"ĠGood":3799,"Ġusually":3800,"ĠJack":3801,"Te":3802,"etimes":3803,"ota":3804,"ĠFore":3805,"Ġarr":3806,"Ġletter":3807,"Ġpow":3808,"ĠLtd":3809,"ivil":3810,"ologies":3811,"Ġsteel":3812,"reed":3813,"Ġproced":3814,"acity":3815,"Ġindepend":3816,"Ġbenefit":3817,"isions":3818,"ĠBel":3819,"ĠWilliam":3820,"ĠAfrica":3821,"Ġgives":3822,"ĠIT":3823,"Ġvote":3824,"Ġanalysis":3825,"Ġtask":3826,"Ġmus":3827,"Ġbecame":3828,"rapy":3829,"uration":3830,"ĠCommission":3831,"Ġri":3832,"Ġaltern":3833,"Ġwanted":3834,"Ġserve":3835,"chan":3836,"Ġneigh":3837,"isation":3838,"44":3839,"inated":3840,"Ġcompleted":3841,"Ġstation":3842,"ted":3843,"Ġstreng":3844,"ij":3845,"Ġsetting":3846,"box":3847,"istics":3848,"Ġdep":3849,"Ġoffered":3850,"Ġopening":3851,"Ġpool":3852,"Ġbillion":3853,"Ġrates":3854,"Ġunit":3855,"inally":3856,"uses":3857,"Ġavoid":3858,"ooth":3859,"Ġmail":3860,"Ġconvers":3861,"Ġaware":3862,"ĠPhot":3863,"yes":3864,"unte":3865,"Ġextend":3866,"ĠGovernment":3867,"ĠBritish":3868,"Not":3869,"ĠOpen":3870,"Any":3871,"isco":3872,"ĠMal":3873,"ength":3874,"ĠCamp":3875,"Ġquarter":3876,"EM":3877,"iant":3878,"Ġassess":3879,"Ġhistor":3880,"aughter":3881,"ĠRock":3882,"ĠPlay":3883,"nces":3884,"Ġfight":3885,"Ġappropri":3886,"Ġpaid":3887,"que":3888,"Ġsteps":3889,"orrow":3890,"Ġobs":3891,"ipped":3892,"Ġinflu":3893,"Ġprot":3894,"Ġplaces":3895,"comes":3896,"hol":3897,"Ġsup":3898,"ĠMicro":3899,"yond":3900,"Ġconsist":3901,"porary":3902,"met":3903,"Ġson":3904,"Ġcoffee":3905,"OW":3906,"Ġtim":3907,"illage":3908,"ĠAN":3909,"ĠEv":3910,"ĠCommunity":3911,"Ġwedding":3912,"Sc":3913,"izes":3914,"Ġsmart":3915,"Ġhop":3916,"Ġcomplex":3917,"55":3918,"ocr":3919,"Ġstrate":3920,"According":3921,"Ġnut":3922,"Ġgoes":3923,"Ġadvert":3924,"oyal":3925,"phone":3926,"Ġmedic":3927,"vin":3928,"bum":3929,"Ġstage":3930,"Ġexerc":3931,"ĠJe":3932,"Ġpositive":3933,"Ġmeaning":3934,"Ġbottom":3935,"Ġstrategy":3936,"rael":3937,"Ġattempt":3938,"Ġlimited":3939,"band":3940,"iable":3941,"Ġactive":3942,"sych":3943,"isl":3944,"asc":3945,"Ġ31":3946,"ĠWater":3947,"earn":3948,"Ġdemand":3949,"enance":3950,"semb":3951,"ĠScience":3952,"ushing":3953,"UR":3954,"Ġgave":3955,"anger":3956,"Ġbasis":3957,"pite":3958,"Ġcra":3959,"ĠBre":3960,"roud":3961,"Ġdress":3962,"ĠRepublic":3963,"Ġbatter":3964,"Ġdire":3965,"ĠAM":3966,"ĠCentre":3967,"ĠElect":3968,"ĠArch":3969,"Ġbaby":3970,"oma":3971,"Le":3972,"bour":3973,"rian":3974,"odes":3975,"Ġsaying":3976,"Ġprofession":3977,"Ġwonderful":3978,"ya":3979,"ĠGet":3980,"anging":3981,"Ġremember":3982,"ĠSum":3983,"idential":3984,"Pre":3985,"ĠMary":3986,"owl":3987,"ĠPower":3988,"Ġchair":3989,"ĠOb":3990,"ae":3991,"Ġahead":3992,"Ġhor":3993,"Ġnation":3994,"down":3995,"Ġpet":3996,"Ġstuff":3997,"Ġrelationship":3998,"ĠFirst":3999,"Ġsession":4000,"ĠSil":4001,"ourney":4002,"Ġheat":4003,"Ġhelps":4004,"Ġserver":4005,"Ġrefer":4006,"ĠOnline":4007,"CH":4008,"Ġter":4009,"ĠLife":4010,"ĠThere":4011,"Ġreviews":4012,"PA":4013,"idered":4014,"Ġ2008":4015,"Ġwait":4016,"Ġfamilies":4017,"36":4018,"bu":4019,"esome":4020,"ĠSur":4021,"ĠMat":4022,"well":4023,"hens":4024,"Ġattention":4025,"clusive":4026,"49":4027,"care":4028,"Ġrepl":4029,"Ġuses":4030,"Ġdiscount":4031,"Ġdevices":4032,"Ġpressure":4033,"Ġserious":4034,"88":4035,"add":4036,"anta":4037,"Ġimpress":4038,"Ġsector":4039,"Ġsouth":4040,"Ġpm":4041,"inate":4042,"omb":4043,"ancing":4044,"annel":4045,"Ġdoll":4046,"Ġselection":4047,"ribute":4048,"Ġdecided":4049,"ĠCO":4050,"Ġstone":4051,"ocal":4052,"Ġdog":4053,"Ġwhose":4054,"Ġannounce":4055,"Add":4056,"ĠLake":4057,"Ġfly":4058,"Ġtowards":4059,"ĠSpe":4060,"ervation":4061,"ĠRich":4062,"Ġbasic":4063,"Ġprotection":4064,"Ġessential":4065,"la":4066,"Ġband":4067,"Ġleader":4068,"Ġwrong":4069,"Ġmiles":4070,"Ġing":4071,"Ġthous":4072,"Ġspot":4073,"Am":4074,"aled":4075,"illa":4076,"wise":4077,"het":4078,"Ġdro":4079,"ĠCap":4080,"los":4081,"Ġlisted":4082,"Ġeye":4083,"Ġmanage":4084,"Ġuseful":4085,"Ġexpand":4086,"Ġreduce":4087,"apter":4088,"Ġpartner":4089,"Ġrace":4090,"itiz":4091,"Ġpattern":4092,"Ġeconomic":4093,"ĠBen":4094,"Ġthinking":4095,"IA":4096,"za":4097,"Ġ@":4098,"Ġconcept":4099,"Ġhealthy":4100,"Ġchallenge":4101,"Ġcash":4102,"Ġunderstanding":4103,"bit":4104,"imal":4105,"Ġclin":4106,"Ġowners":4107,"Ġmoving":4108,"ype":4109,"Ġenh":4110,"ĠCommittee":4111,"Ġdream":4112,"enty":4113,"Ġarriv":4114,"overy":4115,"ĠFoundation":4116,"More":4117,"Ġcases":4118,"ĠMark":4119,"ĠMount":4120,"ĠJames":4121,"Ġpurpose":4122,"ĠDistrict":4123,"oin":4124,"Ġmother":4125,"Ġadjust":4126,"Ġtemper":4127,"hi":4128,"Ġten":4129,"DA":4130,"Im":4131,"ado":4132,"ĠWood":4133,"Ġult":4134,"ĠSun":4135,"ĠFrench":4136,"Ġdrop":4137,"Ġnorth":4138,"ĠMart":4139,"Ġcomments":4140,"ences":4141,"Ġtips":4142,"ĠCong":4143,"Ġnumbers":4144,"Ġadvant":4145,"Ġdamage":4146,"Ġresidents":4147,"soft":4148,"Where":4149,"Ġhuge":4150,"ĠMil":4151,"ĠMach":4152,"imb":4153,"ĠNetwork":4154,"Ġblood":4155,"ĠChild":4156,"Ġculture":4157,"ĠThey":4158,"Ġmaster":4159,"Ġfair":4160,"Ġselected":4161,"ĠProfess":4162,"Ġconnection":4163,"37":4164,"gal":4165,"Ġnature":4166,"Ġcommunication":4167,"Ġcards":4168,"ĠData":4169,"ertain":4170,"PR":4171,"mal":4172,"cks":4173,"Ġbackground":4174,"Ġtechnical":4175,"ĠEngland":4176,"Ġfacilities":4177,"Ġphysical":4178,"Let":4179,"word":4180,"Ġbrought":4181,"Ġcompletely":4182,"Ġsenior":4183,"ĠSocial":4184,"ĠOur":4185,"ĠThat":4186,"Ġrespond":4187,"Ġmovie":4188,"Ġmanager":4189,"Ġagreement":4190,"Ġtraffic":4191,"ĠCentral":4192,"ka":4193,"icon":4194,"state":4195,"ĠSl":4196,"aming":4197,"Ġrules":4198,"Ġadult":4199,"Ġstru":4200,"Ġsharing":4201,"how":4202,"ios":4203,"Ġdifference":4204,"Ġpatient":4205,"ĠFlorida":4206,"Ġpackage":4207,"CA":4208,"Ġweather":4209,"ĠConference":4210,"ĠValley":4211,"Ġholiday":4212,"inger":4213,"Ġpull":4214,"Ġfee":4215,"Ġhelping":4216,"Ġrepair":4217,"Ġge":4218,"Ġmetal":4219,"oving":4220,"Ġearlier":4221,"64":4222,"Last":4223,"ĠTown":4224,"ĠRel":4225,"Ġmeasure":4226,"erg":4227,"ĠAv":4228,"rief":4229,"âĢĿ,":4230,"BA":4231,"iment":4232,"ĠVol":4233,"Ġowner":4234,"Ġviews":4235,"Ġcontinu":4236,"ooper":4237,"Ġshoot":4238,"Ġscience":4239,"shop":4240,"Ġretail":4241,"Ġconfig":4242,"TS":4243,"with":4244,"ĠSociety":4245,"Ġchurch":4246,"aith":4247,"ĠSuper":4248,"Ġpanel":4249,"des":4250,"34":4251,"Ġgraph":4252,"Ġcentre":4253,"Ġhomes":4254,"more":4255,"Ġsand":4256,"ĠSy":4257,"Ġregister":4258,"Ġcreative":4259,"Ġgrand":4260,"IV":4261,"Ġstates":4262,"Ġapprec":4263,"ĠProduct":4264,"ĠMichael":4265,"like":4266,"ros":4267,"Ġlines":4268,"icks":4269,"Ġsy":4270,"Ġspeak":4271,"Ġ90":4272,"Ġsurround":4273,"Also":4274,"itution":4275,"oles":4276,"rab":4277,"Ġhospital":4278,"Ġlock":4279,"Ġseven":4280,"ilding":4281,"azine":4282,"rote":4283,"Ġnotice":4284,"ĠIndust":4285,"Ġbeginning":4286,"38":4287,"rete":4288,"Ġeat":4289,"Ġcapacity":4290,"incip":4291,"Ġmenu":4292,"Ġpo":4293,"ĠHist":4294,"Ġsuff":4295,"Ġchem":4296,"Ġadvanced":4297,"Ġbrow":4298,"Ġisland":4299,"Ġbegan":4300,"Ġcollege":4301,"!!!!":4302,"Ġfinished":4303,"?)":4304,"ror":4305,"arge":4306,"ption":4307,"Ġspent":4308,"Ġserved":4309,"Ġconsidered":4310,"Ġstatus":4311,"Sp":4312,"Ġmiddle":4313,"rag":4314,"Ġdemonst":4315,"Ġwid":4316,"Ġtal":4317,"oms":4318,"Ġitem":4319,"Ġevening":4320,"Ġlaun":4321,"Ġcompon":4322,"ĠStar":4323,"Ġfinish":4324,"ĠBy":4325,"ĠChinese":4326,"Qu":4327,"Ste":4328,"enture":4329,"ĠTur":4330,"ander":4331,"Ġcompetition":4332,"Ġresponsible":4333,"ĠPet":4334,"Ġguid":4335,"Ġallowed":4336,"Ġexactly":4337,"May":4338,"Ġtur":4339,"Ġsense":4340,"ĠPR":4341,"ĠRob":4342,"Ġshown":4343,"ĠReview":4344,"IR":4345,"abase":4346,"Ġestate":4347,"Ġchanged":4348,"Next":4349,"Ġsatisf":4350,"ĠJes":4351,"Ġ333":4352,"Ġappropriate":4353,"ĠSen":4354,"Ġoperation":4355,"Ġoperations":4356,"Ġfold":4357,"ĠCard":4358,"Ġeval":4359,"Ġprefer":4360,"Ġwild":4361,"Ġguarant":4362,"Ġschedule":4363,"aling":4364,"ads":4365,"ĠQue":4366,"ĠIsrael":4367,"ĠMinister":4368,"Ġbehav":4369,"Ġhighest":4370,"ĠFrom":4371,"Ġspons":4372,"Ġremain":4373,"Ġ80":4374,"ĠTeam":4375,"Ġsituation":4376,"Ġbul":4377,"ĠSu":4378,"ĠSam":4379,"ĠSpecial":4380,"ĠJournal":4381,"Ġsecure":4382,"Ġcorner":4383,"standing":4384,"Ġefforts":4385,"free":4386,"Ġsustain":4387,"Ġaccom":4388,"Ġprec":4389,"ĠMusic":4390,"ĠBig":4391,"LC":4392,"nown":4393,"Ġproduce":4394,"ixt":4395,"Ġmicro":4396,"39":4397,"lor":4398,"Ġmer":4399,"Ġshot":4400,"Ġ35":4401,"Ġspring":4402,"ecause":4403,"Ġbill":4404,"ĠInformation":4405,"Ġgets":4406,"Ġsleep":4407,"gency":4408,"Ġcraft":4409,"asy":4410,"ĠRet":4411,"ĠNow":4412,"bl":4413,"Ġfan":4414,"Ġpeace":4415,"Ġapprox":4416,"Ġble":4417,"Ġstories":4418,"men":4419,"Ġ197":4420,"Ġcolle":4421,"2019":4422,"Ġfunding":4423,"ero":4424,"icious":4425,"ĠSaf":4426,"Ġstress":4427,"Ġoverall":4428,"Ġfinally":4429,"Ġafford":4430,"zy":4431,"Once":4432,"pet":4433,"Ġ_":4434,"ĠMiss":4435,"ading":4436,"ifying":4437,"ĠVe":4438,"Ġprocessing":4439,"ĠAngel":4440,"Ġinstallation":4441,"Ġassociated":4442,"fit":4443,"net":4444,"Ġjobs":4445,"Ġupdated":4446,"Ġinitial":4447,"BS":4448,"Ġwoman":4449,"ails":4450,"Ġremove":4451,"Ġincreasing":4452,"Ġnames":4453,"Ġdedicated":4454,"iers":4455,"Ġalbum":4456,"Ġincome":4457,"ĠMot":4458,"amm":4459,"Ġoutdoor":4460,"Ġsweet":4461,"ĠThom":4462,"Yes":4463,"mp":4464,"Ġproud":4465,"ĠTime":4466,"ĠHill":4467,"Ġscient":4468,"Ġrelevant":4469,"Ġfrequ":4470,"Ġestablished":4471,"ĠHis":4472,"Ġattract":4473,"ĠTechnology":4474,"TH":4475,"ĠTop":4476,"Ġpred":4477,"Ġbelie":4478,"Ġexperienced":4479,"Ġfill":4480,"umber":4481,"Ġacadem":4482,"Ġtried":4483,"Check":4484,"SS":4485,"ned":4486,"ĠParty":4487,"ken":4488,"Ġcompl":4489,"ĠApple":4490,"ĠĠĠĠ":4491,"iar":4492,"ĠReal":4493,"Ġlinks":4494,"Ġarchitect":4495,"See":4496,"Ġscore":4497,"Ġindividuals":4498,"Ġcup":4499,"Ġ33387":4500,"Ġaspect":4501,"ooking":4502,"Ġ70":4503,"OP":4504,"Ġdied":4505,"loc":4506,"Ġmodels":4507,"Ġfollowed":4508,"Ġdark":4509,"ĠâĢ¦":4510,"Ġstreet":4511,"van":4512,"you":4513,"Ġbag":4514,"Ġagency":4515,"Ġvalues":4516,"fast":4517,"Ġsort":4518,"Ġcast":4519,"itely":4520,"Ġmission":4521,"Ġdriving":4522,"ette":4523,"ĠLand":4524,"Ġshower":4525,"nergy":4526,"Ġmilitary":4527,"ĠAustralian":4528,"ĠCustom":4529,"Ġstructure":4530,"igned":4531,"Ġtree":4532,"orthern":4533,"Ġjourney":4534,"encies":4535,"Ġartist":4536,"ĠAcadem":4537,"48":4538,"Ġden":4539,"Ġalthough":4540,"Ġmaybe":4541,"Ġefficient":4542,"ĠWall":4543,"rie":4544,"Ġsched":4545,"Tr":4546,"top":4547,"Ġinternet":4548,"iny":4549,"ellig":4550,"Ġcru":4551,"ĠPay":4552,"inder":4553,"Ġdocuments":4554,"Ġfederal":4555,"Ġrank":4556,"Ġthreat":4557,"iency":4558,"ĠMex":4559,"uty":4560,"istan":4561,"icken":4562,"Ġproduced":4563,"ĠLeague":4564,"ĠCarol":4565,"95":4566,"DF":4567,"Ġbeach":4568,"Ġheard":4569,"Ġgovern":4570,"Ġcentral":4571,"Ġcamera":4572,"Ġfant":4573,"ĠFire":4574,"irtual":4575,"ĠTwitter":4576,"mar":4577,"Ġbeyond":4578,"outhern":4579,"ĠFamily":4580,"Ġgrant":4581,"ĠTor":4582,"ĠRem":4583,"ommod":4584,"Ġeffects":4585,"Bu":4586,"RA":4587,"Ġcry":4588,"ĠTem":4589,"Ġstandards":4590,"ĠLim":4591,"Ġpresented":4592,"31":4593,"Ġnearly":4594,"ĠSecurity":4595,"Ġmotor":4596,"ki":4597,"Ġwife":4598,"olic":4599,"ĠFood":4600,"Ġslow":4601,"wo":4602,"ÂŃ":4603,"shire":4604,"Ġinfo":4605,"aught":4606,"Ġcold":4607,"term":4608,"uality":4609,"Ġfamous":4610,"ĠBlue":4611,"uce":4612,"Ġfat":4613,"Ġforce":4614,"ula":4615,"Ġshared":4616,"Ġstraight":4617,"Tra":4618,"Ġwire":4619,"Ġadop":4620,"ĠMedia":4621,"Ġmulti":4622,"rupt":4623,"ying":4624,"Ġwine":4625,"Ġcompared":4626,"ounds":4627,"Bl":4628,"cont":4629,"ky":4630,"Ġsports":4631,"Ġgain":4632,"ĠMaster":4633,"acing":4634,"Ġguests":4635,"Since":4636,"ĠMel":4637,"uled":4638,"text":4639,"ĠInvest":4640,"Ġspirit":4641,"Ġposts":4642,"Ġcheap":4643,"SA":4644,"Ġfans":4645,"ano":4646,"Ġpros":4647,"ĠChic":4648,"OD":4649,"iately":4650,"Ġpen":4651,"ĠPress":4652,"Ġvoice":4653,"ĠScott":4654,"OC":4655,"iner":4656,"Ġlength":4657,"ĠDiv":4658,"Ġ2007":4659,"Ġsometimes":4660,"Ġeight":4661,"ola":4662,"Ġmyself":4663,"Ġadding":4664,"Ġshel":4665,"Ġexperiences":4666,"ĠMass":4667,"ĠBeach":4668,"Ġproperties":4669,"bed":4670,"Ġprimary":4671,"ĠVis":4672,"Ġvolunte":4673,"Ġchallenges":4674,"list":4675,"ĠGrand":4676,"osh":4677,"ibly":4678,"Ġpolic":4679,"ĠMedic":4680,"Ġcommit":4681,"Ġbiggest":4682,"Ġshopping":4683,"ĠUN":4684,"berg":4685,"Ġtransl":4686,"Ġdriver":4687,"Ġlaws":4688,"atically":4689,"Ġfashion":4690,"Ġlack":4691,"ĠBur":4692,"pping":4693,"active":4694,"Ġshowing":4695,"Ġvideos":4696,"66":4697,"ĠAward":4698,"ĠLou":4699,"Ġopened":4700,"ĠHotel":4701,"zer":4702,"Ġvan":4703,"Ġincreased":4704,"ĠFranc":4705,"Ġopin":4706,"Home":4707,"SP":4708,"unning":4709,"Ġpieces":4710,"Ġestablish":4711,"Dr":4712,"no":4713,"ĠGlobal":4714,"undred":4715,"Ġfeet":4716,"Ġformat":4717,"Ġiniti":4718,"Have":4719,"ĠDi":4720,"Ġheavy":4721,"Ġjoined":4722,"First":4723,"Post":4724,"Ġrob":4725,"Ġexperts":4726,"Ġminimum":4727,"Ġsurface":4728,"Ġoperating":4729,"win":4730,"ĠNor":4731,"reek":4732,"Ġmemory":4733,"Ġdeveloping":4734,"Ġdepartment":4735,"Ab":4736,"nel":4737,"sm":4738,"iences":4739,"EE":4740,"ĠVir":4741,"Ġfootball":4742,"etic":4743,"Ġplug":4744,"Ġcourses":4745,"47":4746,"rat":4747,"Ġwrote":4748,"estic":4749,"Ġplants":4750,"ously":4751,"ĠAmazon":4752,"Ġdisease":4753,"Ġdining":4754,"Ġlux":4755,"ĠUs":4756,"Ġforeign":4757,"rated":4758,"reme":4759,"ĠEconom":4760,"Ġjoint":4761,"Ġcontroll":4762,"Ġimag":4763,"2018":4764,"Ġselling":4765,"Ġuniversity":4766,"Ġadvance":4767,"Ġinvestig":4768,"Ġcancer":4769,"Ġcontains":4770,"going":4771,"Ġmaintain":4772,"apers":4773,"Ġteaching":4774,"Ġspread":4775,"Ġwat":4776,"iled":4777,"Ġreasons":4778,"ĠMad":4779,"Ġeasier":4780,"Ġtesting":4781,"Ġturned":4782,"Ġmis":4783,"ĠCup":4784,"ĠAlex":4785,"Ġhelped":4786,"Ġsigned":4787,"Ġissued":4788,"Ġfriendly":4789,"ĠChristian":4790,"ĠMedical":4791,"SC":4792,"Ġglo":4793,"ita":4794,"Ġjournal":4795,"Ġcommunities":4796,"vention":4797,"Ġunits":4798,"Ġdesk":4799,"een":4800,"ception":4801,"ĠConst":4802,"Ġclasses":4803,"Ġwear":4804,"ĠNet":4805,"Ġtheme":4806,"Ġreflect":4807,"Ġcleaning":4808,"Ġofficials":4809,"Ġrestaurant":4810,"Ġnormal":4811,"ini":4812,"Who":4813,"Ġfeeling":4814,"ĠJesus":4815,"iance":4816,"sequ":4817,"Ġkeeping":4818,"Up":4819,"ĠTre":4820,"ĠUnion":4821,"ĠShow":4822,"04":4823,"Int":4824,"ĠPan":4825,"adian":4826,"unction":4827,"ĠFe":4828,"Ġloan":4829,"Ġeconomy":4830,"Every":4831,"Ġlots":4832,"ĠEqu":4833,"ĠOrgan":4834,"ga":4835,"ĠAtt":4836,"Ġpowerful":4837,"Ġlimit":4838,"CT":4839,"Ġur":4840,"ĠKore":4841,"Ġevidence":4842,"Ġrelax":4843,"Ġmaintenance":4844,"ĠTHE":4845,"IF":4846,"MA":4847,"Ġfather":4848,"ĠIP":4849,"ffect":4850,"Ġtickets":4851,"night":4852,"Ġtopic":4853,"Ġconven":4854,"Ġfunds":4855,"Ġdoub":4856,"Ġtow":4857,"ĠArts":4858,"Ġforms":4859,"Ġtemplate":4860,"but":4861,"asure":4862,"ĠMont":4863,"Ġsurv":4864,"Ind":4865,"do":4866,"Ġhum":4867,"ayer":4868,"Ġmining":4869,"arily":4870,"ĠSand":4871,"idge":4872,"ĠMer":4873,"ĠDet":4874,"ĠReport":4875,"Ġeyes":4876,"ĠCA":4877,"ĠWord":4878,"ĠClick":4879,"Ġprovider":4880,"Ġsolid":4881,"ĠBrown":4882,"Ġorganizations":4883,"Ġcas":4884,"oop":4885,"ĠLet":4886,"ĠLove":4887,"ĠVict":4888,"ternoon":4889,"Ġcart":4890,"Ġdaughter":4891,"alls":4892,"ificate":4893,"iques":4894,"Phone":4895,"rical":4896,"Ġice":4897,"Ġmedium":4898,"Ġcream":4899,"Ġseconds":4900,"ĠFrance":4901,"Will":4902,"ĠGal":4903,"Ġbrother":4904,"Ġoccur":4905,"Ġanti":4906,"Ġlaunched":4907,"itors":4908,"ria":4909,"Then":4910,"Ġmechan":4911,"ĠColor":4912,"Ġhimself":4913,"atever":4914,"ENT":4915,"Ġparticularly":4916,"gl":4917,"Ġhar":4918,"ĠCert":4919,"Ġcoast":4920,"Ġpopulation":4921,"Ġanaly":4922,"Ġelection":4923,"iler":4924,"Ġlibrary":4925,"antly":4926,"ipl":4927,"Ġrecords":4928,"ender":4929,"Ġvisitors":4930,"Ġimmediately":4931,"Ġindependent":4932,"Note":4933,"TM":4934,"actions":4935,"point":4936,"vision":4937,"ĠFund":4938,"ĠLab":4939,"ĠNY":4940,"Ġstudies":4941,"Ġdetailed":4942,"miss":4943,"ulations":4944,"Ġplastic":4945,"Ġapproved":4946,"ĠGermany":4947,"haps":4948,"Ġnom":4949,"ĠInf":4950,"Ġsets":4951,"Ġpassed":4952,"ishes":4953,"Ġclaims":4954,"craft":4955,"ĠSol":4956,"Ġcloud":4957,"Ġsurvey":4958,"ds":4959,"ĠFil":4960,"Ġsea":4961,"ĠSmith":4962,"Ġloved":4963,"Ġstick":4964,"Ġship":4965,"Ġaccommod":4966,"ferences":4967,"ĠDef":4968,"Ġcounter":4969,"cher":4970,"ĠLight":4971,"ĠNov":4972,"Ġideal":4973,"ĠManager":4974,"Ġrooms":4975,"Ġflex":4976,"Ġsty":4977,"ĠLong":4978,"Ġsupported":4979,"Ġmoved":4980,"atin":4981,"ened":4982,"Ġplaced":4983,"Ġseeing":4984,"Ġmovement":4985,"Ġframe":4986,"oices":4987,"ĠCy":4988,"Ġprofile":4989,"Ġdiscussion":4990,"ĠBill":4991,"Ġworkers":4992,"Ġcorporate":4993,"appy":4994,"Ġlegisl":4995,"aser":4996,"ulture":4997,"Ġ45":4998,"Ġwinter":4999,"EW":5000,"urrent":5001,"Use":5002,"rehens":5003,"Ġfra":5004,"ĠTom":5005,"Ġ500":5006,"ĠAndroid":5007,"ocolate":5008,"UN":5009,"ait":5010,"yer":5011,"Ġegg":5012,"Ġappe":5013,"enses":5014,"Ġexplore":5015,"Ġabsolut":5016,"Ġingred":5017,"orney":5018,"ĠLibrary":5019,"Ġcolors":5020,"Ġdistrict":5021,"Ġcategory":5022,"Today":5023,"ech":5024,"Ġu":5025,"Ġtrou":5026,"oration":5027,"amin":5028,"oost":5029,"Ġchanging":5030,"Ġswitch":5031,"Ġfavour":5032,"Ġcovered":5033,"itude":5034,"iration":5035,"ĠTrust":5036,"Ġfabric":5037,"Ġreference":5038,"Ġrat":5039,"Ġens":5040,"Ġflight":5041,"Read":5042,"ĠRad":5043,"Ġhandle":5044,"Ġfacility":5045,"Ġleadership":5046,"Ġadvantage":5047,"paper":5048,"ctors":5049,"ĠAL":5050,"ĠWhen":5051,"Ġserving":5052,"ĠGeorge":5053,"Ġarrange":5054,"col":5055,"ht":5056,"Ġcentury":5057,"ĠOffic":5058,"gen":5059,"Ġpoll":5060,"ĠEnergy":5061,"Ġvalid":5062,"Ġclosed":5063,"Other":5064,"Ġer":5065,"Ġrich":5066,"ĠJew":5067,"Man":5068,"SE":5069,"othing":5070,"Ġconfirm":5071,"Ġbuying":5072,"Ġsitu":5073,"can":5074,"mond":5075,"arian":5076,"Ġrepe":5077,"Ġparties":5078,"Ġminute":5079,"isher":5080,"Ġcoach":5081,"pective":5082,"Ġ2000":5083,"Ġinstalled":5084,"retary":5085,"Ġexecutive":5086,"Ġpractices":5087,"ĠWestern":5088,"ented":5089,"ework":5090,"Ġpromote":5091,"Go":5092,"ĠMuseum":5093,"ĠProte":5094,"ĠAsia":5095,"ĠSeries":5096,"Ġexercise":5097,"ĠHam":5098,"ĠList":5099,"antic":5100,"merce":5101,"Ġgoods":5102,"Ġthousands":5103,"Ġton":5104,"Ġluck":5105,"ĠCD":5106,"Ġonto":5107,"using":5108,"ĠPlease":5109,"ĠStand":5110,"lands":5111,"sembly":5112,"NA":5113,"burg":5114,"hether":5115,"Ġliter":5116,"Ġexchange":5117,"Ġsuppl":5118,"Ġvision":5119,"REE":5120,"Ġelements":5121,"Ġdatabase":5122,"Hel":5123,"cean":5124,"ĠDen":5125,"ĠAdd":5126,"ĠRobert":5127,"Ġtalking":5128,"PC":5129,"rim":5130,"Ġruns":5131,"Ġphotograph":5132,"Ġnet":5133,"olars":5134,"igan":5135,"ĠCat":5136,"Ġprogramme":5137,"Ġmethods":5138,"LA":5139,"ront":5140,"Ġsch":5141,"ĠSa":5142,"ĠBack":5143,"Ġresource":5144,"Ġextrem":5145,"Ġdistance":5146,"Ġestim":5147,"Ġregistration":5148,"Well":5149,"life":5150,"Ġwel":5151,"Ġcities":5152,"Ġbeat":5153,"Ġrow":5154,"gn":5155,"Ġcatch":5156,"Ġhus":5157,"Ġforget":5158,"osition":5159,"Ġenable":5160,"Ġdisp":5161,"Ġassistance":5162,"Ġdrug":5163,"ĠTour":5164,"Ġven":5165,"gage":5166,"ius":5167,"ĠEnter":5168,"Ġcomfortable":5169,"Ġdefinitely":5170,"Ġprofessionals":5171,"ĠChicago":5172,"ario":5173,"ĠOper":5174,"Ġwinning":5175,"pond":5176,"Ġhundred":5177,"Ġearth":5178,"abilities":5179,"ĠLo":5180,"rip":5181,"Ġresist":5182,"Ġafternoon":5183,"kins":5184,"Ġsnow":5185,"isode":5186,"Ġscale":5187,"Ġexciting":5188,"rastructure":5189,"Ġstrugg":5190,"itness":5191,"ĠOF":5192,"Ġutil":5193,"46":5194,"Ġerror":5195,"atre":5196,"Ġban":5197,"Ġshipping":5198,"Ġgreater":5199,"Ġ2006":5200,"ĠHead":5201,"ĠLead":5202,"iverse":5203,"Ġwaiting":5204,"date":5205,"Ġoccas":5206,"Ġprepared":5207,"west":5208,"ili":5209,"ĠWomen":5210,"atively":5211,"Ġfinding":5212,"'.":5213,"Ġcore":5214,"Ġcitiz":5215,"essions":5216,"Ġfees":5217,"ĠAdminist":5218,"ĠCongress":5219,"fol":5220,"emporary":5221,"Ġstores":5222,"reens":5223,"alog":5224,"Ġroof":5225,"ĠAtl":5226,"Ġadministration":5227,"Make":5228,"Ġir":5229,"Ġyouth":5230,"ĠFestival":5231,"Ġcars":5232,"Ġseparate":5233,"hab":5234,"reland":5235,"ĠWil":5236,"ifications":5237,"Ġincor":5238,"rees":5239,"umin":5240,"ĠOld":5241,"aven":5242,"Ġdesigns":5243,"05":5244,"Find":5245,"Ġcred":5246,"Ġdig":5247,"cluding":5248,"Ġbird":5249,"Ġbrief":5250,"Ġtoward":5251,"Ġflav":5252,"Ġlandsc":5253,"Ġeth":5254,"ersey":5255,"ache":5256,"Rec":5257,"ideo":5258,"Ġcolour":5259,"Ġfem":5260,"Ġthread":5261,"ĠTim":5262,"ivered":5263,"ensions":5264,"Ġsmooth":5265,"Ġenvironmental":5266,"Ġsquare":5267,"Ġstrength":5268,"Ġbattery":5269,"Ġcivil":5270,"igious":5271,"Ġcounty":5272,"Ġparking":5273,"esterday":5274,"Ġï":5275,"icip":5276,"Over":5277,"body":5278,"esh":5279,"ĠEU":5280,"udd":5281,"ersonal":5282,"Ġowned":5283,"ĠRoom":5284,"tr":5285,"rome":5286,"Ġteachers":5287,"Ġtruly":5288,"ĠDemocr":5289,"Ġdirection":5290,"TC":5291,"friend":5292,"ena":5293,"Ġfish":5294,"iced":5295,"Ġprincip":5296,"Ġraise":5297,"Ðµ":5298,"Ġiron":5299,"Ġgone":5300,"Ġclassic":5301,"Ġteacher":5302,"Ġbalance":5303,"Ġawesome":5304,"ĠHy":5305,"ĠCrusher":5306,"Ġencourage":5307,"08":5308,"Mr":5309,"Ġund":5310,"lear":5311,"Ġwants":5312,"Ġhappened":5313,"Ġhousing":5314,"Ġpolicies":5315,"eting":5316,"ĠRoyal":5317,"ears":5318,"Ġprepare":5319,"ĠSpring":5320,"Ġcabinet":5321,"arry":5322,"Ġreached":5323,"Ġcalls":5324,"Ġoptim":5325,"grade":5326,"Rep":5327,"cell":5328,"road":5329,"Ġkick":5330,"Which":5331,"rative":5332,"Ġã":5333,"eration":5334,"ĠCEO":5335,"ĠAud":5336,"ĠIde":5337,"Ġvs":5338,"Ġpresentation":5339,"Ġradio":5340,"Ġtemperature":5341,"Sim":5342,"Ġchief":5343,"Ġdiscover":5344,"Ġnumer":5345,"Ġcritical":5346,"Ġsport":5347,"iser":5348,"Ġcommand":5349,"Ġshowed":5350,"poration":5351,"yan":5352,"ĠBer":5353,"ĠBet":5354,"Ġrecip":5355,"Ġlooked":5356,"Ġdescribed":5357,"42":5358,"68":5359,"ĠMus":5360,"ĠOh":5361,"apos":5362,"Although":5363,"Ġmentioned":5364,"mes":5365,"ĠLos":5366,"Ġseat":5367,"Ġchart":5368,"Ġmode":5369,"During":5370,"orry":5371,"nded":5372,"omet":5373,"Ġalone":5374,"ĠHospital":5375,"iat":5376,"Ġemot":5377,"Does":5378,"Ġfuel":5379,"Ġpoor":5380,"Ġforum":5381,"irmed":5382,"ĠRE":5383,"ĠDev":5384,"Ġarticles":5385,"ĠAdv":5386,"eline":5387,"Ġscene":5388,"Ġvisual":5389,"Ġsupporting":5390,"rehensive":5391,"69":5392,"ih":5393,"ĠSet":5394,"Ġmarkets":5395,"iamond":5396,"Ġbeauty":5397,"ĠControl":5398,"Ġcalcul":5399,"prene":5400,"Ġtagged":5401,"CE":5402,"ĠCode":5403,"usion":5404,"ulate":5405,"ĠDisc":5406,"Ġwaste":5407,"Ġprofit":5408,"Ġmonthly":5409,"Ġdiagn":5410,"Ġvehicles":5411,"Ġmaximum":5412,"58":5413,"67":5414,"ĠSee":5415,"ĠLord":5416,"Ġlovely":5417,"Ġdetermine":5418,"ĠAcademy":5419,"Ġquot":5420,"eless":5421,"ĠExper":5422,"Ġtechnologies":5423,"while":5424,"Of":5425,"kin":5426,"Ġharm":5427,"ĠAff":5428,"Ġwinner":5429,"Ġemployee":5430,"Ke":5431,"alian":5432,"Ġrenew":5433,"Ġbeg":5434,"ĠTest":5435,"ĠHere":5436,"ĠiPhone":5437,"Ġwindows":5438,"ĠSoft":5439,"Ġapproximately":5440,"09":5441,"Ġspl":5442,"ĠBed":5443,"abled":5444,"rier":5445,"Ġclimate":5446,"Ġrain":5447,"Ġlocations":5448,"Ġslight":5449,"Ġmanaged":5450,"02":5451,"Even":5452,"Most":5453,"hent":5454,"Ġpal":5455,"uts":5456,"Ġshape":5457,"Ġguest":5458,"Ġindustrial":5459,"ĠSteel":5460,"07":5461,"bur":5462,"ĠChief":5463,"Ġprocesses":5464,"âĢ¦.":5465,"liance":5466,"Ġconnected":5467,"ĠMicrosoft":5468,"ĠPeter":5469,"ĠBall":5470,"osis":5471,"Ġdelivered":5472,"Ġinjury":5473,"bol":5474,"edy":5475,"ĠWell":5476,"ĠPrem":5477,"Ġaudience":5478,"inations":5479,"Ġfaith":5480,"ĠWay":5481,"Ġhaven":5482,"ĠWeek":5483,"ĠEngineering":5484,"II":5485,"Mar":5486,"Ġtaste":5487,"Ġcere":5488,"Ġartists":5489,"Ġupdates":5490,"Ġillust":5491,"Rem":5492,"Ġbowl":5493,"vell":5494,"Ġdoors":5495,"lication":5496,"Ġraised":5497,"Ġidentify":5498,"VE":5499,"ker":5500,"Ġ<":5501,"reprene":5502,"Ġdinner":5503,"igration":5504,"ĠDou":5505,"Ġride":5506,"Ġupcoming":5507,"Ġ300":5508,"ĠChampions":5509,"Ġincred":5510,"Ġcalling":5511,"Ġinterior":5512,"Ġmort":5513,"ĠUnder":5514,"ograp":5515,"Ġremains":5516,"Ġalternative":5517,"ĠVirgin":5518,"Per":5519,"ench":5520,"Ġpsych":5521,"ani":5522,"ownt":5523,"verse":5524,"osen":5525,"oria":5526,"Ġtrading":5527,"Ġmissing":5528,"ĠGerman":5529,"orter":5530,"Ġpin":5531,"Ġdepos":5532,"ĠOl":5533,"Ġcaused":5534,"Learn":5535,"Ġinternal":5536,"lete":5537,"Ġgrade":5538,"Ġsources":5539,"ĠIreland":5540,"ĠProv":5541,"Ġthrow":5542,"vere":5543,"Ġvisiting":5544,"pon":5545,"Ġhearing":5546,"Ġchain":5547,"Ġpassion":5548,"Ġspending":5549,"Ġapplied":5550,"ĠSar":5551,"Ġcontinued":5552,"Ġresearc":5553,"ĠPolice":5554,"ĠRussia":5555,"Ĥ¬":5556,"ĠMo":5557,"ĠMain":5558,"ĠDub":5559,"Ġpair":5560,"ĠCH":5561,"ĠPack":5562,"ainless":5563,"ĠON":5564,"ĠChair":5565,"ĠExecut":5566,"TA":5567,"ĠRest":5568,"Ġcertainly":5569,"Ġhusband":5570,");":5571,"Take":5572,"ĠMP":5573,"Ġstruct":5574,"ĠEnd":5575,"Ġrise":5576,"cles":5577,"Ġflu":5578,"Ġpreviously":5579,"ealand":5580,"Ġsociety":5581,"Ġbreat":5582,"ĠBal":5583,"achel":5584,"Ġ32":5585,"Ġsav":5586,"Ġregional":5587,"away":5588,"Ġmanufacturing":5589,"Ġsolar":5590,"43":5591,"59":5592,"Ġcouncil":5593,"ordin":5594,"ovel":5595,"Ġdecide":5596,"Ġveget":5597,"Another":5598,"Ġinspired":5599,"Ġfigure":5600,"ĠPriv":5601,"Ġswim":5602,"Ġbrain":5603,"ien":5604,"Ġtab":5605,"elines":5606,"ĠPenn":5607,"Ġsugar":5608,"Ġdespite":5609,"which":5610,"Ġoccup":5611,"ĠAuthor":5612,"ĠAfrican":5613,"Ġfell":5614,"Ġotherwise":5615,"Ġgeneration":5616,"Ġemergency":5617,"BI":5618,"Ġap":5619,"Ġguys":5620,"va":5621,"Ġlunch":5622,"Ġnar":5623,"outs":5624,"Ġdoctor":5625,"Ġsubmit":5626,"Ġsurg":5627,"ĠÂ»":5628,"ĠRussian":5629,"Ġmanufacturer":5630,"Ġsuitable":5631,"FL":5632,"Ġmo":5633,"Ġdyn":5634,"ulated":5635,"Ġrecipe":5636,"Ġactual":5637,"ĠScot":5638,"ĠCanadian":5639,"liers":5640,"Ġinnovative":5641,"Â°":5642,"ato":5643,"ifts":5644,"Ġdomain":5645,"Ġticket":5646,"03":5647,"Ġdram":5648,"ifically":5649,"Ġnotes":5650,"Col":5651,"Ġ01":5652,"Ġfelt":5653,"lying":5654,"Ġlights":5655,"Ġcombination":5656,"Ġengineering":5657,"Ġfixed":5658,"Ġfantastic":5659,"rick":5660,"Ġpump":5661,"ĠCall":5662,"ĠFort":5663,"ĠHuman":5664,"Ġrule":5665,"Ġscript":5666,"Ġ2005":5667,"77":5668,"Follow":5669,"ban":5670,"bar":5671,"pan":5672,"rition":5673,"Ġgun":5674,"Ġgallery":5675,"ĠFull":5676,"ĠCoast":5677,"Ġconcrete":5678,"ĠAccount":5679,"Ġchemical":5680,"06":5681,"DS":5682,"king":5683,"Ġleaving":5684,"ĠInsurance":5685,"ĠMexico":5686,"edia":5687,"ĠSup":5688,"cohol":5689,"Ġlarger":5690,"ĠLouis":5691,"Book":5692,"ĠIll":5693,"ĠTimes":5694,"ml":5695,"Ġfo":5696,"that":5697,"Stud":5698,"ĠPeople":5699,"Ġwest":5700,"ĠAfter":5701,"Ġarm":5702,"Ġspect":5703,"Ġsheet":5704,"Ġcheese":5705,"PM":5706,"âĦ":5707,"ĠZealand":5708,"Ġofficer":5709,"Ġrecommended":5710,"Ġappears":5711,"Ġpartnership":5712,"ala":5713,"Ġarrest":5714,"Ġtransform":5715,"Ġcris":5716,"Ġvolume":5717,"Ġlicense":5718,"ĠBi":5719,"ĠHand":5720,"Ġshut":5721,"Ġhttps":5722,"Ġgirls":5723,"ste":5724,"ĠCost":5725,"cling":5726,"Ġvisitor":5727,"Ġcoverage":5728,"bury":5729,"ii":5730,"Ġdial":5731,"anda":5732,"Ġwasn":5733,"acific":5734,"Ġpurs":5735,"Ġanimals":5736,"Ġbon":5737,"Ġlose":5738,"Ġreturned":5739,"Many":5740,"UT":5741,"ĠAR":5742,"ĠMA":5743,"Ġdeals":5744,"ups":5745,"osing":5746,"ĠUse":5747,"Ġimpl":5748,"ulty":5749,"Ġspok":5750,"Ġbright":5751,"ĠWhy":5752,"Ġwebsites":5753,"Ġachie":5754,"Ġextremely":5755,"stone":5756,"ĠGame":5757,"Ġking":5758,"ĠGuide":5759,"Ġtom":5760,"Ġdim":5761,"ĠMid":5762,"âĢĻ.":5763,"Ġbutter":5764,"Ġrail":5765,"Ġentertain":5766,"Ġenjoyed":5767,"ĠThomas":5768,"ĠHD":5769,"ĠKh":5770,"Ġedition":5771,"????":5772,"ĠSystems":5773,"Ġfeedback":5774,"Ġvictory":5775,"ĠMachine":5776,"Ġacademic":5777,"bre":5778,"Ġnurs":5779,"Ġconsid":5780,"Ġbrown":5781,"Ġcombined":5782,"Ġfeatured":5783,"Ġconcerns":5784,"ua":5785,"atures":5786,"ilit":5787,"Ġeducational":5788,"Call":5789,"Work":5790,"EST":5791,"Ġparticipants":5792,"Ġaudio":5793,"ĠSupport":5794,"Ġicon":5795,"ĠAccess":5796,"cking":5797,"Ġcomprehensive":5798,"Ġbelong":5799,"Ġedited":5800,"Ġstrategies":5801,"Because":5802,"GB":5803,"Ġfol":5804,"Ġbecoming":5805,"Ġ36":5806,"orship":5807,"Ġrental":5808,"Ġcandidates":5809,"water":5810,"ora":5811,"Ġmental":5812,"ĠSqu":5813,"Ġang":5814,"ĠHaw":5815,"Inst":5816,"Ġedge":5817,"Ed":5818,"fa":5819,"Ġbought":5820,"ician":5821,"Ġdu":5822,"Ġeast":5823,"ĠGen":5824,"ĠThese":5825,"Ġscen":5826,"Ġemp":5827,"Ġrequires":5828,"¿½":5829,"Ġinput":5830,"ĠStr":5831,"ĠChris":5832,"Ġhelpful":5833,"Ġcharges":5834,"opped":5835,"Ġcrow":5836,"âĢľ":5837,"terior":5838,"ultural":5839,"Ġpresence":5840,"Ġviewed":5841,"Ġcontinues":5842,"Ġbask":5843,"Ġfourth":5844,"Pe":5845,"nam":5846,"itage":5847,"anish":5848,"Ġreb":5849,"ĠJo":5850,"ĠJun":5851,"Ġadapt":5852,"Ġcommission":5853,"Ġdiet":5854,"hentic":5855,"Ġtun":5856,"elly":5857,"rency":5858,"ĠFrank":5859,"ĠAirport":5860,"gment":5861,"ran":5862,"Ġhab":5863,"ĠSports":5864,"Ġnav":5865,"ĠMa":5866,"ĠFair":5867,"Ġleaves":5868,"ĠView":5869,"Ġunless":5870,"Ġcommittee":5871,"Ġsounds":5872,"icians":5873,"ĠCross":5874,"ĠPass":5875,"Ġplate":5876,"oval":5877,"Ġflat":5878,"Ġguess":5879,"Ġfunctions":5880,"ĠEnvironment":5881,"Ġingredients":5882,"known":5883,"Ġtill":5884,"Ġfilled":5885,"ĠAwards":5886,"rain":5887,"ĠLink":5888,"Ġexclusive":5889,"Ġrub":5890,"Ġcommitted":5891,"Ġaccounts":5892,"Sm":5893,"pid":5894,"Ġrevenue":5895,"ĠMobile":5896,"oga":5897,"Ġproposed":5898,"Gu":5899,"ca":5900,"eria":5901,"Ġshares":5902,"Ġplenty":5903,"Ġsurpr":5904,"Ġconsumer":5905,"Ġorders":5906,"57":5907,"spe":5908,"reate":5909,"Ġinch":5910,"ĠTable":5911,"ĠLive":5912,"ĠGar":5913,"ĠOver":5914,"Ġjump":5915,"Ġtea":5916,"Ġagent":5917,"Ġairport":5918,"Ġautomatically":5919,"ias":5920,"Ġreality":5921,"apore":5922,"ĠColumb":5923,"Ġholding":5924,"Ġfeaturing":5925,"Vis":5926,"ĠFREE":5927,"Ġaren":5928,"oston":5929,"Ġupload":5930,"Ġmini":5931,"Ġcutting":5932,"Comp":5933,"Ġappeared":5934,"âĦ¢":5935,"Ġactions":5936,"ĠExt":5937,"ĠJose":5938,"Ġtrad":5939,"Ġtopics":5940,"Ġlighting":5941,"Ġexplain":5942,"elligence":5943,"eries":5944,"Ġvillage":5945,"Ġended":5946,"Ġwatching":5947,"Ġcollaboration":5948,"ĠCR":5949,"Ġalle":5950,"Ġtechniques":5951,"Ġconfirmed":5952,"Ġperformed":5953,"Ġtrial":5954,"Ġcampus":5955,",,,,,,,,":5956,"Ġintroduced":5957,"Ġsilver":5958,"Ġbike":5959,"Ġmine":5960,"Ġgather":5961,"ĠPub":5962,"riz":5963,"Ġappeal":5964,"Ġkept":5965,"ĠAssist":5966,"Ġseeking":5967,"po":5968,"inct":5969,"ĠFarm":5970,"Ġconcent":5971,"print":5972,"Ġsample":5973,"Ġchannel":5974,"Ġknew":5975,"Ġrare":5976,"Ġstarts":5977,"Ġeditor":5978,"Ġinfrastructure":5979,"ĠTraining":5980,"Ġlearned":5981,"Ġneighbor":5982,"ĠAngeles":5983,"Ġscheduled":5984,"Part":5985,"Ġfestival":5986,"roy":5987,"ĠEr":5988,"Ġteach":5989,"Ġhighlight":5990,"Ġluxury":5991,"CO":5992,"Ġconvert":5993,"ĠLog":5994,"Ġcomput":5995,"Ġinstitut":5996,"Ġassets":5997,"Ġhappens":5998,"Ġinvestigation":5999,"Ġwalking":6000,"Ġmeasures":6001,"Ġinnovation":6002,"Ġcandidate":6003,"secut":6004,"Ġenhance":6005,"ĠCarolina":6006,"Two":6007,"Ġmir":6008,"Ġhyd":6009,"Ġlamp":6010,"race":6011,"Ġkit":6012,"ĠKn":6013,"Ġfocused":6014,"ĠExecutive":6015,"lines":6016,"Ġleads":6017,"iquid":6018,"Ġextensive":6019,"Ġelectronic":6020,"ĠPrice":6021,"GE":6022,"ĠMen":6023,"ĠArea":6024,"lets":6025,"urate":6026,"ĠEarth":6027,"Ġboat":6028,"Ġputting":6029,"Ġcultural":6030,"ĠMartin":6031,"Each":6032,"liam":6033,"ailable":6034,"afe":6035,"Ġexcited":6036,"Ġparticipate":6037,"Hi":6038,"mary":6039,"Ġboost":6040,"Ġyesterday":6041,"Ġwhatever":6042,"Oh":6043,"zen":6044,"aning":6045,"Ġelement":6046,"ella":6047,"intage":6048,"Ġsupports":6049,"ournament":6050,"Ġsettings":6051,"Ġlabor":6052,"ĠWin":6053,"aks":6054,"berry":6055,"ĠVer":6056,"Ġstudio":6057,"Ġimportance":6058,"Ġallowing":6059,"Ġopinion":6060,"%.":6061,"iability":6062,"uction":6063,"hester":6064,"Ġod":6065,"ĠPoint":6066,"ĠJud":6067,"Ġcovers":6068,"Ġproviders":6069,"ĠQuality":6070,"Ġelig":6071,"Ġring":6072,"Ġ48":6073,"Ġmajority":6074,"urban":6075,"ĠLu":6076,"Ġaccident":6077,"Ġorganis":6078,"41":6079,"56":6080,"HS":6081,"Ġmist":6082,"ĠBas":6083,"ĠStone":6084,"Ġscored":6085,"Ġrot":6086,"bsite":6087,"Ġpurpos":6088,"Ġfilter":6089,"Ġbringing":6090,"Ġ;":6091,"Ġprop":6092,"ĠNOT":6093,"Ġfields":6094,"Ġimprovement":6095,"Ġadvertising":6096,"ĠArab":6097,"Ġbecomes":6098,"Ġju":6099,"ĠForm":6100,"Ġfactors":6101,"Ġcircum":6102,"liament":6103,"97":6104,"itoring":6105,"lymp":6106,"ĠDom":6107,"ĠFederal":6108,"Ġolder":6109,"ĠFinancial":6110,"Ġappointment":6111,"Ġinstructions":6112,"Good":6113,"Great":6114,"ĠWal":6115,"Ġ2003":6116,"Ġesc":6117,"LS":6118,"eper":6119,"Ġbes":6120,"oves":6121,"ĠProcess":6122,"Ġthoughts":6123,"ĠParis":6124,"Ġdebt":6125,"ĠJeff":6126,"respond":6127,"Ġcompar":6128,"Ġworkshop":6129,"Ġ04":6130,"Ġtrees":6131,"Pr":6132,"Whether":6133,"uable":6134,"ĠWild":6135,"quir":6136,"eller":6137,"Before":6138,"Ġresponsibility":6139,"Ġnegot":6140,"Ġawards":6141,"ĠTax":6142,"Reg":6143,"Ġmembership":6144,"iveness":6145,"ĠMarketing":6146,"Ġrevealed":6147,"UM":6148,"Ġmagn":6149,"Ġec":6150,"ĠMult":6151,"ĠTO":6152,"utch":6153,"ĠDownload":6154,"Ġoutput":6155,"ampion":6156,"Ġcarried":6157,"azz":6158,"ĠCheck":6159,"Ġflowers":6160,"Ġcooper":6161,"ĠLee":6162,"ĠOk":6163,"Ġtend":6164,"ĠHistory":6165,"ĠCas":6166,"ĠNiger":6167,"ancer":6168,"Ġadvis":6169,"ixture":6170,"ĠMS":6171,"Ġminor":6172,"Ġlisten":6173,"ĠIran":6174,"Ġnumerous":6175,"UL":6176,"cious":6177,"iors":6178,"Ġapps":6179,"Ġinteg":6180,"Ġexpensive":6181,"Ġmeetings":6182,"Ġdrivers":6183,"Ġpractical":6184,"ĠGeorg":6185,"____":6186,"rance":6187,"Ġcake":6188,"ĠWalk":6189,"Ġkilled":6190,"Ġdelicious":6191,"Ġbreakfast":6192,"ĠJapanese":6193,"Ġfle":6194,"ĠSP":6195,"ĠVan":6196,"Ġtech":6197,"Ġdecisions":6198,"Ġaffordable":6199,"HA":6200,"pons":6201,"ĠBoy":6202,"Ġmanual":6203,"anged":6204,"ĠThanks":6205,"ĠTravel":6206,"ĠBox":6207,"Ġanimal":6208,"ĠAnnual":6209,"Ġprocedures":6210,"ĠRead":6211,"ĠPhys":6212,"ĠAndrew":6213,"Ġsalt":6214,"Ġasking":6215,"Ġbusy":6216,"Ġefficiency":6217,"Ġreplacement":6218,"98":6219,"View":6220,"Ġbattle":6221,"Ġment":6222,"ĠSale":6223,"ĠAS":6224,"ĠDigital":6225,"Ġphil":6226,"ĠRev":6227,"Ġcouldn":6228,"ĠiP":6229,"pes":6230,"Ġchocolate":6231,"Ġwarrant":6232,"lig":6233,"Ġtables":6234,"Ġresidential":6235,"Ġsauce":6236,"Ġdelight":6237,"ĠChildren":6238,"Car":6239,"onto":6240,"orough":6241,"Ġanc":6242,"ĠLiving":6243,"ĠGarden":6244,"Ġrecovery":6245,"Ġmilk":6246,"Ġcharacters":6247,"Ġimplementation":6248,"Ġyes":6249,"ĠLin":6250,"erves":6251,"Ġcelebrate":6252,"ĠObama":6253,"::":6254,"gas":6255,"look":6256,"Ġterror":6257,"Ġsessions":6258,"ĠMake":6259,"ĠStation":6260,"Ġdisapp":6261,"Ġargu":6262,"Ġobt":6263,"Ġpublish":6264,"His":6265,"days":6266,"ras":6267,"rum":6268,"ĠCast":6269,"adium":6270,"ĠFL":6271,"ĠOil":6272,"arks":6273,"Ġdefault":6274,"2017":6275,"Ġsam":6276,"ĠAC":6277,"Ġelim":6278,"Ġessay":6279,"Ġawarded":6280,"52":6281,"cm":6282,"Ġaid":6283,"ĠUl":6284,"aked":6285,"Ġagreed":6286,"Ġrestrict":6287,"Ġpainting":6288,"Ġmagazine":6289,"Contact":6290,"Co":6291,"Ġ)":6292,"ĠEp":6293,"ĠJul":6294,"ending":6295,"comp":6296,"ĠWho":6297,"Ġskill":6298,"Ġbuildings":6299,"ĠItaly":6300,"ĠBuilding":6301,"clusion":6302,"Ġroute":6303,"Ġfif":6304,"ĠSea":6305,"Ġreporting":6306,"Ġstream":6307,"Ġpurchased":6308,"Ġaccepted":6309,"Ġsustainable":6310,"TR":6311,"Ġtherapy":6312,"ĠColl":6313,"ims":6314,"endar":6315,"Ġcolumn":6316,"pected":6317,"Ġauto":6318,"ĠÂ©":6319,"Ġveter":6320,"Ġdistribution":6321,"car":6322,"orters":6323,"Ġvirtual":6324,"Ġconflic":6325,"Ġglad":6326,"Ġconstruct":6327,"Ġbrands":6328,"Ġinfluence":6329,"ĠFun":6330,"Ġwilling":6331,"ava":6332,"Ġpayments":6333,"Ġemployment":6334,"Ġmachines":6335,"ĠProducts":6336,"Step":6337,"owntown":6338,"Ġtast":6339,"Ġperman":6340,"Ġamb":6341,"Ġentered":6342,"Ġremoved":6343,"Ġimproved":6344,"Ġcompetitive":6345,"idden":6346,"Ġqualified":6347,"Ġexhibition":6348,"Ġassessment":6349,"Ġpurposes":6350,"300":6351,"case":6352,"ĠId":6353,"Ġcontext":6354,"ĠHen":6355,"ĠHom":6356,"erman":6357,"ĠItalian":6358,"anna":6359,"Ġrestaurants":6360,"Ġbirthday":6361,"MC":6362,"VD":6363,"she":6364,"ĠCe":6365,"ĠMiddle":6366,"ĠPage":6367,"estion":6368,"earning":6369,"Ġresolution":6370,"Ġworldwide":6371,"uclear":6372,"ĠCommunic":6373,"Ġtotally":6374,"opyright":6375,"Ġlabel":6376,"Ġaspects":6377,"Ġtomorrow":6378,"Ġther":6379,"isters":6380,"Ġintern":6381,"Ġkm":6382,"Ġwheel":6383,"ĠExpress":6384,"Ġfailed":6385,"Press":6386,"Sec":6387,"low":6388,"Ġcop":6389,"ĠPract":6390,"Ġwhom":6391,"this":6392,"Ġtruth":6393,"ĠAny":6394,"ĠAND":6395,"bi":6396,"ĠSign":6397,"ĠTerm":6398,"Ġbrings":6399,"Ġplanned":6400,"Ġfiled":6401,"Ġdomestic":6402,"Ġsides":6403,"ĠSS":6404,"aren":6405,"duate":6406,"Ġaccord":6407,"Ġconfidence":6408,"Ġspecifically":6409,"ĠMinistry":6410,"ĠAbout":6411,"Ġawareness":6412,"Ġcommitment":6413,"mony":6414,"ĠFed":6415,"Ġagencies":6416,"Ġdescription":6417,"iversary":6418,"ployment":6419,"ĠSmall":6420,"Ġcells":6421,"Ġintegrated":6422,"iated":6423,"itar":6424,"Ġore":6425,"ĠDC":6426,"Ġath":6427,"ĠJersey":6428,"Ġtherefore":6429,"Ġdetect":6430,"Ġcharged":6431,"Ġobvious":6432,"ĠStep":6433,"ydney":6434,"Ġcomponents":6435,"ĠMur":6436,"akistan":6437,"Ġperhaps":6438,"ĠJohnson":6439,"Ġhosting":6440,"Ġclearly":6441,"Ġapartment":6442,"Ġtail":6443,"Ġnor":6444,"ushed":6445,"Ġsmaller":6446,"ennis":6447,"Spe":6448,"Ġthr":6449,"ĠBoston":6450,"sey":6451,"Ġchicken":6452,"ĠOpt":6453,"Ġquant":6454,"Ġinvestors":6455,"ĠAgency":6456,"Ġpremium":6457,"Ġevalu":6458,"Welcome":6459,"Ġborder":6460,"Ġnine":6461,"uries":6462,"ĠEnt":6463,"Ġchat":6464,"ĠStore":6465,"izer":6466,"Ġspeaking":6467,"Ġcrim":6468,"ĠYoung":6469,"Ġappearance":6470,"Ġpersons":6471,"Ġadults":6472,"Ġfavourite":6473,"Def":6474,"Ð¾":6475,"Ġcro":6476,"Ġdance":6477,"ĠJim":6478,"Ġanywhere":6479,"Ġgenerally":6480,"Ġforest":6481,"Ġexpertise":6482,"51":6483,"].":6484,"df":6485,"ta":6486,"zil":6487,"Ġtro":6488,"ĠToday":6489,"erest":6490,"Ġfinance":6491,"Ġ2004":6492,"Ġabsolutely":6493,"equ":6494,"Ġfruit":6495,"Ġmal":6496,"ĠGames":6497,"ĠJones":6498,"Ġprivacy":6499,"Ġexamples":6500,"ĠDivision":6501,"ĠCond":6502,"irms":6503,"Ġleather":6504,"Ġleague":6505,"class":6506,"ĠPrint":6507,"Ġscheme":6508,"Ġconsidering":6509,"uing":6510,"ĠDrive":6511,"ĠFar":6512,"estyle":6513,"alled":6514,"ĠCountry":6515,"asp":6516,"asters":6517,"ĠFind":6518,"Ġsomew":6519,"Ġtests":6520,"AB":6521,"RS":6522,"Ġmuseum":6523,"ĠCreat":6524,"ĠConnect":6525,"Ġreceiving":6526,"ĠInstagram":6527,"Ġfamiliar":6528,"bourne":6529,"htt":6530,"iest":6531,"erts":6532,"Ġsan":6533,"Ġbond":6534,"ĠCath":6535,"umes":6536,"Ġkid":6537,"coin":6538,"Ġparam":6539,"Ġlicens":6540,"Ġclinical":6541,"ĠFrancisco":6542,"ns":6543,"Ġign":6544,"Ġcable":6545,"Ġpush":6546,"Ġdanger":6547,"ĠHave":6548,"Ġ(?)":6549,"Ġsequ":6550,"ĠSpanish":6551,"Ġfoods":6552,"Ġdraft":6553,"Ġtalks":6554,"Ġmarried":6555,"Ġfailure":6556,"Ġregularly":6557,"Ġtut":6558,"etime":6559,"Ġforces":6560,"ĠFac":6561,"abet":6562,"Ġexternal":6563,"ĠOS":6564,"ĠJob":6565,"rics":6566,"Ġofficers":6567,"Ġwriter":6568,"AY":6569,"Ġupp":6570,"Ġproceed":6571,"anges":6572,"Ġcoloring":6573,"Ġremaining":6574,"Ġsongs":6575,"Ġriver":6576,"ĠSafety":6577,"Ġbench":6578,"astern":6579,"ĠSC":6580,"ĠPDF":6581,"ĠBath":6582,"ĠBrand":6583,"riage":6584,"Ġprepar":6585,"ools":6586,"Ġsuccessfully":6587,"Ġhouses":6588,"oto":6589,"amber":6590,"ĠOlymp":6591,"ansion":6592,"ibilities":6593,"Ġcoal":6594,"profit":6595,"ĠPerform":6596,"Ġsurrounding":6597,"fe":6598,"hand":6599,"inar":6600,"ĠSearch":6601,"ĠBul":6602,"Ġdefined":6603,"Ġinterests":6604,"Ġhosted":6605,"Ġrecorded":6606,"Ġregulations":6607,"Ġslightly":6608,"54":6609,"Ġeating":6610,"ĠPri":6611,"ĠBlog":6612,"ĠFOR":6613,"ĠLittle":6614,"Ġmeant":6615,"Ġmostly":6616,"2016":6617,"Ġauthority":6618,"Ġcitizens":6619,"tion":6620,"ĠMos":6621,"Ġstars":6622,"ĠBlo":6623,"aped":6624,"Ġspaces":6625,"Ġcreation":6626,"Ġauthorities":6627,"Ġmountain":6628,"Ġcircumst":6629,"made":6630,"pret":6631,"vy":6632,"Ġthick":6633,"Ġnative":6634,"ĠMax":6635,"ĠEll":6636,"Ġrid":6637,"ĠStart":6638,"Ġspr":6639,"Ġmanaging":6640,"ĠSingapore":6641,"Download":6642,"ME":6643,"orable":6644,"itz":6645,"Ġoven":6646,"ĠSanta":6647,"othes":6648,"Ġneck":6649,"Ġsubmitted":6650,"ATION":6651,"Ġanswers":6652,"ĠSales":6653,"Ġvoter":6654,"Ġfemale":6655,"MP":6656,"fin":6657,"mosp":6658,"ĠCur":6659,"Ġnovel":6660,"Ġplays":6661,"ĠKen":6662,"Ġoffices":6663,"ĠProper":6664,"rence":6665,"Ġmotiv":6666,"Ġepisode":6667,"Best":6668,"Sub":6669,"Ġgolf":6670,"ĠVideo":6671,"Ġquote":6672,"ĠIdeas":6673,"ĠVirginia":6674,"John":6675,"lyn":6676,"Ġmeal":6677,"Ġcorrespond":6678,"Ġstrategic":6679,"FC":6680,"Ġmur":6681,"Ġlit":6682,"ĠPacific":6683,"ĠRose":6684,"related":6685,".'":6686,"ĠLocal":6687,"ĠYOU":6688,"ĠIsl":6689,"ĠPolicy":6690,"Ġcommunications":6691,"ĠTwo":6692,"ĠCharl":6693,"Ġsuperv":6694,"ĠMedicine":6695,"Ġresearchers":6696,"86":6697,"AA":6698,"rator":6699,"xy":6700,"Ġast":6701,"icing":6702,"ĠSn":6703,"Ġstanding":6704,"ĠKorea":6705,"ati":6706,"Ġforg":6707,"gend":6708,"ĠLLC":6709,"ĠNight":6710,"Ġdish":6711,"otten":6712,"Ġreturns":6713,"Ġtreated":6714,"Ġmanufacturers":6715,"rease":6716,"Ġped":6717,"Ġyellow":6718,"Ġongoing":6719,"ĠAT":6720,"ĠMic":6721,"Ġheight":6722,"ĠStat":6723,"Ġrecy":6724,"Ġsecret":6725,"Ġrom":6726,"Ġexport":6727,"Ġobtain":6728,"Ġpleased":6729,"Ġdepending":6730,"Ġprocedure":6731,"ĠSummer":6732,"ĠRichard":6733,"Ġpredict":6734,"Ġbasket":6735,"Join":6736,"inating":6737,"Ġpp":6738,"Ġder":6739,"Ġindex":6740,"Ġreliable":6741,"riting":6742,"Ġbooking":6743,"Ġhardware":6744,"bration":6745,"Ġpod":6746,"ĠAD":6747,"ĠEvery":6748,"Ġcontemporary":6749,"inton":6750,"ocket":6751,"ĠPrime":6752,"Ġextended":6753,"ĠLimited":6754,"Ġcoc":6755,"Ġfro":6756,"arp":6757,"ĠAsh":6758,"ĠHor":6759,"ĠEstate":6760,"ĠNorthern":6761,"Ġrug":6762,"Ġchosen":6763,"Ġcompliance":6764,"ĠStock":6765,"apes":6766,"Ġminister":6767,"Ġremote":6768,"ĠShop":6769,"Ġweekly":6770,"ĠMcC":6771,"Ġfreed":6772,"Ġconsumers":6773,"Aut":6774,"Americ":6775,"Love":6776,"wich":6777,"illy":6778,"Ġinterface":6779,"Ġorganisation":6780,"ĠForum":6781,"enger":6782,"Ġcertified":6783,"Ġtrend":6784,"Ġconducted":6785,"onom":6786,"Ġfear":6787,"Ġpil":6788,"Ġpure":6789,"Ġthus":6790,"ĠTri":6791,"ership":6792,"ĠLine":6793,"Ġarts":6794,"Ġentreprene":6795,"ĠDoes":6796,"holders":6797,"Ġpowder":6798,"hetic":6799,"Ġappreciate":6800,".;":6801,"uzz":6802,"Ġfaster":6803,"âĢĻ,":6804,"ĠRs":6805,"ĠGh":6806,"Ġdeck":6807,"inds":6808,"Ġsigns":6809,"Ġjoining":6810,"Ġrecognized":6811,"Ġhistorical":6812,"Ġdates":6813,"ircle":6814,"Ġmonitor":6815,"ardens":6816,"Ġunivers":6817,"iana":6818,"weet":6819,"Ġapproval":6820,"ĠSoftware":6821,"63":6822,"85":6823,"oral":6824,"Ġbound":6825,"ulous":6826,"Ġpharm":6827,"Ġspecialist":6828,"Ġmessages":6829,"Posted":6830,"GO":6831,"High":6832,"hus":6833,"Ġhire":6834,"ĠFoot":6835,"Ġjack":6836,"Ġtravell":6837,"Ġrapid":6838,"ĠManufact":6839,"Ġ....":6840,"Ġattended":6841,"Ġentertainment":6842,"800":6843,"Ġid":6844,"ouston":6845,"ĠCamb":6846,"utation":6847,"ĠLow":6848,"Ġkill":6849,"ĠWilliams":6850,"Previous":6851,"Ġguarantee":6852,"Ġneighborhood":6853,"Ġsink":6854,"Ġsoul":6855,"ela":6856,"osite":6857,"Ġdogs":6858,"Ġ37":6859,"Ġadvoc":6860,"Ġdefe":6861,"ĠMichigan":6862,"Ġhall":6863,"olve":6864,"olly":6865,"Ġconv":6866,"ansas":6867,"Ġresume":6868,"Ġknows":6869,"iki":6870,"Ġadventure":6871,"Ġbroken":6872,"fortun":6873,"Ġlayer":6874,"EP":6875,"dy":6876,"Ġcute":6877,"otal":6878,"Ġshoes":6879,"Ġunc":6880,"ensation":6881,"oking":6882,"Ġorganic":6883,"Ġreduced":6884,"ĠSilver":6885,"TER":6886,"Ð°":6887,"hem":6888,"ĠMike":6889,"ĠPin":6890,"Ġstated":6891,"Ġvir":6892,"Ġnoted":6893,"ĠHelp":6894,"Ġarrived":6895,"folio":6896,"?!":6897,"Ġlift":6898,"ĠDu":6899,"Ġhel":6900,"ighter":6901,"icket":6902,"Ġsaving":6903,"Ġattached":6904,"plete":6905,"Ġrelationships":6906,".-":6907,"Bel":6908,"gers":6909,"ĠSite":6910,"ĠSydney":6911,"ĠBang":6912,"ĠKitchen":6913,"Ġdesigner":6914,"Ġbehalf":6915,"Ġfulf":6916,"Ġmatters":6917,"Ġjudge":6918,"yth":6919,"ĠCam":6920,"unting":6921,"ĠHon":6922,"ĠSmart":6923,"yard":6924,"ĠDie":6925,"Ġincident":6926,"Ġcarbon":6927,"ĠOrder":6928,"Ġdestination":6929,"ĠOhio":6930,"gent":6931,"ĠAvenue":6932,"ĠJon":6933,"Ġcontest":6934,"obby":6935,"aze":6936,"Ġvend":6937,"Ġprize":6938,"ĠDaniel":6939,"Ġmedicine":6940,"pack":6941,"rig":6942,"ĠPot":6943,"Ġcrew":6944,"Ġextension":6945,"Ġpaying":6946,"ĠBrook":6947,"Under":6948,"ls":6949,"aylor":6950,"Ġalcohol":6951,"ĠChall":6952,"Ġspeech":6953,"ĠContact":6954,"what":6955,"Ġlogo":6956,"ĠDisney":6957,"Ġfigures":6958,"Did":6959,"Ġsister":6960,"Ġdie":6961,"ĠSher":6962,"Ġstake":6963,"ĠFact":6964,"pection":6965,"ially":6966,"ĠKim":6967,"ĠPlant":6968,"Ġcrushing":6969,"Ġprompt":6970,"ĠKingdom":6971,"Ġscholars":6972,"awn":6973,"arly":6974,"ĠSA":6975,"Ġ150":6976,"ĠHard":6977,"Ġrecording":6978,"Ġspecies":6979,"Ġinspiration":6980,"Ġtruck":6981,"ĠProfessional":6982,"Ġsurgery":6983,"ao":6984,"yers":6985,"Ġburn":6986,"eler":6987,"ulf":6988,"Ġroot":6989,"Ġvisited":6990,"Ġ2002":6991,"ĠPlace":6992,"Ġworry":6993,"ican":6994,"ĠSouthern":6995,"Ġstunning":6996,"cknow":6997,"ĠKey":6998,"Ġdecades":6999,"letter":7000,"Ġinvolve":7001,"orgeous":7002,"RC":7003,"RL":7004,"ĠCra":7005,"Ġgro":7006,"quar":7007,"Ġjew":7008,"Ġ33":7009,"iece":7010,"Ġamend":7011,"ĠClin":7012,"Ġnetworks":7013,"Ġcooking":7014,"Ġattacks":7015,"96":7016,"worth":7017,"Ġtight":7018,"ĠProm":7019,"abeth":7020,"umer":7021,"duction":7022,"orders":7023,"Ġknowing":7024,"Ġauthentic":7025,"ĠLeg":7026,"ĠWebsite":7027,"Ġmainly":7028,"Ġbehavior":7029,"wall":7030,"ĠMap":7031,"Ġoutstanding":7032,"Ġcertificate":7033,"forcement":7034,"oir":7035,"Ġcorn":7036,"ĠRights":7037,"Ġchoo":7038,"Ġ34":7039,"Ġoperate":7040,"ĠAuto":7041,"Ġgraduate":7042,"ĠForest":7043,"Ġdollars":7044,"Ġsyn":7045,"ĠSenior":7046,"ĠTer":7047,"Ġproof":7048,"ERE":7049,"Ġblogg":7050,"ĠSecretary":7051,"Ġguidance":7052,"Ġupper":7053,"Ġsizes":7054,"ĠKnow":7055,"Ġinvited":7056,"Ġphotography":7057,"Ġoriginally":7058,"Ġzone":7059,"Comm":7060,"Ġduty":7061,"ĠJr":7062,"Ġaccurate":7063,"Ġtwice":7064,"Ġvaluable":7065,"ylvan":7066,"Ġmixed":7067,"Ġnegative":7068,"front":7069,"site":7070,"owing":7071,"ĠFre":7072,"terest":7073,"Ġwouldn":7074,"autiful":7075,"Ġeffectively":7076,"ĠSteve":7077,"Ġaffected":7078,"Ġdrugs":7079,"ĠProfessor":7080,"from":7081,"Ġtile":7082,"Ġfellow":7083,"una":7084,"Ġusual":7085,"odies":7086,"Ġ38":7087,"Ġsuppliers":7088,"Ġrand":7089,"ĠSection":7090,"Ġstring":7091,"ographic":7092,"Ġidentified":7093,"ĠJackson":7094,"Keep":7095,"FA":7096,"Tube":7097,"Ġbread":7098,"othe":7099,"ĠDog":7100,"ĠGallery":7101,"tered":7102,"Ġdelay":7103,"ĠConc":7104,"Ġextract":7105,"ĠAgree":7106,"ĠJustice":7107,"Ġconversation":7108,"62":7109,"Ass":7110,"CD":7111,"Fi":7112,"LY":7113,"Like":7114,"law":7115,"Ġbanks":7116,"ĠBridge":7117,"ĠRos":7118,"phas":7119,"Ġhotels":7120,"Ġmissed":7121,"Ġconvenient":7122,"ĠGeorgia":7123,"Finally":7124,"VER":7125,"wan":7126,"inst":7127,"ĠUt":7128,"Ġsurf":7129,"Ġperforming":7130,"Ġwalls":7131,"Ġearned":7132,"Ġbrowser":7133,"Ġhundreds":7134,"Gener":7135,"page":7136,"Ġtomat":7137,"Ġbeer":7138,"amil":7139,"ĠBrad":7140,"Ġdevelo":7141,"agon":7142,"awa":7143,"Ġmodule":7144,"Ġengagement":7145,"QL":7146,"ĠSon":7147,"ĠPow":7148,"Ġtransition":7149,"Start":7150,"rooms":7151,"Ġimproving":7152,"Ġmusical":7153,"Free":7154,"Ã¡":7155,"Ġrisks":7156,"Ġtasks":7157,"pat":7158,"Ġjoy":7159,"ignment":7160,"Ġquiet":7161,"Ġinstruct":7162,"Ġpositions":7163,"gypt":7164,"Ġproperly":7165,"Ġengage":7166,"apping":7167,"Ġrecommendations":7168,"Ġidentity":7169,"Ġsolve":7170,"Ġintroduce":7171,"Ġobjects":7172,"amsung":7173,"inf":7174,"Ġcaught":7175,"ĠFriend":7176,"comm":7177,"ĠHeart":7178,"Ġfounded":7179,"Ġequal":7180,"Ġsympt":7181,"Ġtalent":7182,"ĠLabor":7183,"ĠOx":7184,"Ġinstance":7185,"Ġfacilit":7186,"Ġassociation":7187,"Ġlandscape":7188,"ba":7189,"ĠPA":7190,"Ġcompare":7191,"ĠKar":7192,"Ġmanner":7193,"Ġundert":7194,"Ġsimpl":7195,"Ġnearby":7196,"Ġelectrical":7197,"ĠNext":7198,"ĠStudent":7199,"Ġhonest":7200,"ĠConsult":7201,"ĠMountain":7202,"ĠColorado":7203,"RI":7204,"och":7205,"Ġille":7206,"inery":7207,"Ġbags":7208,"Ġfort":7209,"otton":7210,"ĠMD":7211,"Ġresort":7212,"Ġphase":7213,"Ġmonitoring":7214,"Ġfoundation":7215,"Ġfacing":7216,"Ġconsultation":7217,"Pol":7218,"da":7219,"alty":7220,"Ġshift":7221,"odge":7222,"Ġcontribute":7223,"Ġsofa":7224,"Ġuns":7225,"ĠStudio":7226,"Looking":7227,"Off":7228,"grad":7229,"kes":7230,"Ġtack":7231,"ĠCro":7232,"iginal":7233,"ĠPS":7234,"Ġavailability":7235,"ĠConf":7236,"ĠUSB":7237,"ĠSecond":7238,"fficient":7239,"Ġsymbol":7240,"Ġhistoric":7241,"Ġhorse":7242,"ĠScotland":7243,"Ġol":7244,"alle":7245,"Ġlin":7246,"ĠSat":7247,"ĠRen":7248,"ĠFlo":7249,"weight":7250,"aza":7251,"2015":7252,"rizona":7253,"BM":7254,"EA":7255,"nic":7256,"pool":7257,"ship":7258,"ĠÃ":7259,"Ġbid":7260,"Ġliquid":7261,"Ġatmosp":7262,"Ġnewly":7263,"Ġbigger":7264,"Ġindustries":7265,"Ġgrinding":7266,"Ġhonor":7267,"Ġconcerned":7268,"Ġtelevision":7269,"Ġdepth":7270,"61":7271,"Fl":7272,"bro":7273,"Ġtall":7274,"iti":7275,"Ġtoile":7276,"Ġreform":7277,"Ġshops":7278,"athan":7279,"Ġpoly":7280,"Ġwooden":7281,"ĠCharles":7282,"Ġtransportation":7283,"ĠToronto":7284,"Av":7285,"aver":7286,"tics":7287,"stal":7288,"ĠCP":7289,"ĠPakistan":7290,"ĠFord":7291,"ĠField":7292,"Ġexcess":7293,"ĠâĢ¢":7294,"Ġadmin":7295,"Ġtwe":7296,"Ġflower":7297,"Ġintended":7298,"ĠTele":7299,"Ġholds":7300,"ĠBrazil":7301,"Ġshooting":7302,"Ġeligible":7303,"ylvania":7304,"EX":7305,"ĠEmer":7306,"uster":7307,"earing":7308,"aka":7309,"Ġpresents":7310,"shops":7311,"Ġlessons":7312,"Ġoccasion":7313,"ĠAdministration":7314,"ĠPrivate":7315,"xi":7316,"Ġjaw":7317,"ĠKent":7318,"Ġmeat":7319,"Ġreaders":7320,"Ġdiscovered":7321,"Prov":7322,"novation":7323,"Ġcycle":7324,"Ġaccompl":7325,"53":7326,"Disc":7327,"TV":7328,"xx":7329,"Ġtank":7330,"otic":7331,"ĠFA":7332,"ĠOnt":7333,"Ġboys":7334,"Red":7335,"Ġtip":7336,"Ġtough":7337,"athe":7338,"uling":7339,"ĠRoll":7340,"inson":7341,"ĠSpain":7342,"Play":7343,"ĠPhilipp":7344,"Ġceremony":7345,"Ġsavings":7346,"DP":7347,"Us":7348,"inity":7349,"ĠPersonal":7350,"Ġweap":7351,"Ġchampions":7352,"ocation":7353,"never":7354,"Ġcharity":7355,"Ġhealthcare":7356,"ĠServer":7357,"Ġordered":7358,"?\"":7359,"cue":7360,"rations":7361,"Ġacknow":7362,"Ġcm":7363,"icial":7364,"Ġrear":7365,"olved":7366,"Ġwealth":7367,"ĠTheatre":7368,"Ġ400":7369,"Ġbless":7370,"Ġdefense":7371,"Ġletters":7372,"Ġeventually":7373,"Ġstret":7374,"AND":7375,"ĠDonald":7376,"Ġimpressive":7377,"Ġfreedom":7378,"Pub":7379,"lace":7380,"Ġwet":7381,"Ġpun":7382,"ĠTit":7383,"irement":7384,"Ġagric":7385,"Ġpray":7386,"Ġinvent":7387,"Ġbridge":7388,"Ġends":7389,"Ġpassword":7390,"ĠAutom":7391,"Ġdebut":7392,"Ġcollected":7393,"Ġproposal":7394,"Ġexpression":7395,"tle":7396,"Ġurban":7397,"alysis":7398,"Ġcompat":7399,"Ġupgrade":7400,"Ġkinds":7401,"Ġcloser":7402,"Ġdetermined":7403,"Ġdivision":7404,"ĠSenate":7405,"Ġsupplies":7406,"long":7407,"lights":7408,"Ġwitness":7409,"Ġwithd":7410,"osoph":7411,"ussion":7412,"Ġprinted":7413,"Ġeleg":7414,"Ġcrisis":7415,"GA":7416,"ja":7417,"Ġtournament":7418,"alm":7419,"ĠTake":7420,"ĠGirl":7421,"izabeth":7422,"ordan":7423,"Ġscan":7424,"Ġ75":7425,"ucky":7426,"ĠStudies":7427,"Ġdegrees":7428,"OK":7429,"rich":7430,"Ġmut":7431,"Ġreward":7432,"ĠCN":7433,"aints":7434,"ĠOak":7435,"ervice":7436,"Ġpermission":7437,"Ġflash":7438,"Ġ2001":7439,"Ġcrime":7440,"2014":7441,"Ġstands":7442,"Ġrepresentative":7443,"Ġpicked":7444,"ĠOfficer":7445,"Ġbonus":7446,"born":7447,"greg":7448,"ĠAp":7449,"raq":7450,"ĠLew":7451,"pson":7452,"Ġmotion":7453,"Ġdisplayed":7454,"ĠCapital":7455,"ĠProtection":7456,"Ġrandom":7457,"Ġpill":7458,"Ġagents":7459,"ĠThank":7460,"oker":7461,"ĠTech":7462,"ĠCollection":7463,"ĠSpace":7464,"Ġtrends":7465,"Ġperfectly":7466,"Ġrequests":7467,"Back":7468,"CS":7469,"sen":7470,"ali":7471,"Ġenroll":7472,"Ġtrail":7473,"phy":7474,"ĠCloud":7475,"Ġlists":7476,"Ġauth":7477,"Ġexpos":7478,"Ġgenerated":7479,"Ġrequirement":7480,"Ġperspective":7481,"Ġviolence":7482,"ĠIndustry":7483,"Ġalleged":7484,"iary":7485,"vit":7486,"Ġsight":7487,"Ġcodes":7488,"Ġfishing":7489,"ĠMining":7490,"ĠPen":7491,"sea":7492,"ĠHP":7493,"ĠWi":7494,"Ġdiss":7495,"iano":7496,"ĠSwed":7497,"Ġsuggested":7498,"Ġpromotion":7499,"ĠSem":7500,"ĠRod":7501,"Ġlect":7502,"Ġadm":7503,"enced":7504,"Ġguy":7505,"Ġestimated":7506,"Out":7507,"run":7508,"level":7509,"ĠBit":7510,"ĠHouston":7511,"ĠUr":7512,"Ġreserved":7513,"Ġ64":7514,"ĠSche":7515,"ĠBuy":7516,"ĠCustomer":7517,"Look":7518,"sylvania":7519,"ila":7520,"Ġlived":7521,"ĠFile":7522,"Ġran":7523,"Ġremoval":7524,"Ġlisting":7525,"auc":7526,"Ġphotograp":7527,"Ġhousehold":7528,"Ġturning":7529,"Act":7530,"ĠMah":7531,"Ġtradition":7532,"cluded":7533,"Ġentit":7534,"Ġdevelopers":7535,"Ġfactory":7536,"Ġparticipation":7537,"Ġprinting":7538,"Ġfitness":7539,"Ġgarage":7540,"Ġdoubt":7541,"Ġinstitutions":7542,"bles":7543,"rates":7544,"eters":7545,"ador":7546,"ĠBible":7547,"Ġvit":7548,"Ġcontents":7549,"ĠVillage":7550,"aping":7551,"Ġ55":7552,"Ġflood":7553,"Ġforecast":7554,"ĠFinance":7555,"ĠQueen":7556,"Ġlegislation":7557,"Ġdeposit":7558,"Ġorganisations":7559,"79":7560,"Eng":7561,"pass":7562,"Ġtou":7563,"ĠToy":7564,"ĠRh":7565,"Ġwash":7566,"ells":7567,"acks":7568,"pton":7569,"plates":7570,"ounce":7571,"ounter":7572,"Ġpossibly":7573,"Ġvenue":7574,"burgh":7575,"Would":7576,"ĠBon":7577,"lose":7578,"ĠOther":7579,"ĠViet":7580,"Ġtrig":7581,"Ġemphas":7582,"Ġaccessible":7583,"Ġlinked":7584,"Ġsearching":7585,"Ġplatforms":7586,"Ġframework":7587,"Ġaccordance":7588,"Ġsitting":7589,"anes":7590,"ifies":7591,"cket":7592,"ĠNatural":7593,"Ġ39":7594,"ĠLevel":7595,"Ġenterprise":7596,"Ġarchitecture":7597,"Ġfirms":7598,"Ġpapers":7599,"ĠSus":7600,"eling":7601,"ĠPop":7602,"cker":7603,"ĠEst":7604,"sole":7605,"Ġpatio":7606,"upport":7607,"Ġreduction":7608,"Ġincredible":7609,"78":7610,"ais":7611,"real":7612,"Ġcos":7613,"ingu":7614,"Ġpor":7615,"ione":7616,"ĠArizona":7617,"ĠRam":7618,"Ġrice":7619,"ĠJac":7620,"Ġcompr":7621,"Ġclimb":7622,"iking":7623,"Ġprotected":7624,"Ġacquis":7625,"missions":7626,"List":7627,"UP":7628,"Ġpra":7629,"ĠCook":7630,"Ġgrown":7631,"ĠMu":7632,"ĠDun":7633,"ĠHong":7634,"Ġ($":7635,"Ġsky":7636,"Ġexplained":7637,"Ġclosely":7638,"ĠPartners":7639,"Fe":7640,"Ġmac":7641,"urse":7642,"urning":7643,"Ġstamp":7644,"ogue":7645,"Ġourselves":7646,"ĠYouTube":7647,"thew":7648,"Ġsubscrib":7649,"Watch":7650,"Ġsou":7651,"Ġwarn":7652,"ĠAve":7653,"ĠRun":7654,"umps":7655,"ials":7656,"ĠKenn":7657,"athy":7658,"Ġattorney":7659,"Ġcarefully":7660,"Ġversions":7661,"Ġreducing":7662,"ĠRegional":7663,"Ġreasonable":7664,"umni":7665,"Copyright":7666,"Set":7667,"person":7668,"rite":7669,"including":7670,"nding":7671,"ĠMost":7672,"Ġdefend":7673,"Ġpossibility":7674,"ĠColumbia":7675,"Ġpreparation":7676,"CP":7677,"Ġtub":7678,"ĠRail":7679,"ĠHa":7680,"Ġresident":7681,"Ġages":7682,"Ġserves":7683,"Ġorganized":7684,"Ġdirectory":7685,"Ġtested":7686,"Ġfactor":7687,"Both":7688,"Ġgifts":7689,"ĠType":7690,"Ġ65":7691,"Ġgenerate":7692,"Ġcauses":7693,"Ġsending":7694,"Ġcapture":7695,"foot":7696,"nda":7697,"Ġpip":7698,"ilst":7699,"ĠHu":7700,"ĠLED":7701,"ĠNick":7702,"urer":7703,"rug":7704,"Ġspecified":7705,"ĠGovern":7706,"Ġinitiative":7707,"ĠAuthority":7708,"Ġdynamic":7709,"Ġintegration":7710,"ĠAgreement":7711,"ped":7712,"ĠCamer":7713,"ĠDVD":7714,"Ġhero":7715,"Ġvital":7716,"Ġspin":7717,"Ġeveryday":7718,"Ġclicking":7719,"ĠCorporation":7720,"Ġsusp":7721,"Ġcomponent":7722,"Ġflexible":7723,"Ġcircumstances":7724,"star":7725,"ĠSEO":7726,"oly":7727,"Ġwherein":7728,"Ġintelligence":7729,"ĠSpirit":7730,"Ġelectricity":7731,"Ġspokes":7732,"SW":7733,"gor":7734,"inem":7735,"rell":7736,"Ġmand":7737,"ĠWhere":7738,"ĠGro":7739,"ĠKong":7740,"Ġaccommodation":7741,"Open":7742,"Ġpink":7743,"alse":7744,"olis":7745,"ĠAction":7746,"ĠRight":7747,"ghan":7748,"Those":7749,"Ġsupplier":7750,"ĠAdvis":7751,"Should":7752,"----":7753,"Ġrespectively":7754,"ĠSky":7755,"Ġdrawing":7756,"Ġholidays":7757,"Ġcontinuing":7758,"Ġcriminal":7759,"Ġmm":7760,"ĠCase":7761,"Ġforth":7762,"ĠRay":7763,"Ġtransaction":7764,"ĠPlus":7765,"ĠTrade":7766,"ĠApplication":7767,"Ġalongside":7768,"Ġcritic":7769,"Ġdescribe":7770,"Ġscientific":7771,"ĠCatholic":7772,"FF":7773,"ï¿½":7774,"Ġfest":7775,"Ġham":7776,"igure":7777,"Ġstorm":7778,"ĠEgypt":7779,"acon":7780,"Ġtrained":7781,"Ġgrab":7782,"Ġ2020":7783,"ĠForce":7784,"Ġlapt":7785,"Ġpanels":7786,"ĠAPI":7787,"Ġconfiguration":7788,"Ġguidelines":7789,"ĠMelbourne":7790,"rants":7791,"Ġmic":7792,"ĠCredit":7793,"adow":7794,"Ġarrive":7795,"Ġdesire":7796,"anchester":7797,"ikes":7798,"',":7799,"ĥ»":7800,"Ġsew":7801,"anwhile":7802,"icit":7803,"ĠSolutions":7804,"ĠIraq":7805,"Ġstainless":7806,"ĠRoman":7807,"Ġjun":7808,"Ġteen":7809,"Ġspoke":7810,"Ġgreatest":7811,"Only":7812,"Ġautomatic":7813,"Ġhoping":7814,"fortunately":7815,"cor":7816,"eah":7817,"etary":7818,"Ġforced":7819,"Ġguard":7820,"Ġformed":7821,"Ġequival":7822,"Ġgrass":7823,"Ġmovies":7824,"inois":7825,"Ġbottle":7826,"ĠGlass":7827,"Ġappointed":7828,"Art":7829,"Ġwidely":7830,"Ġwireless":7831,"ĠVictoria":7832,"Ġachieved":7833,"Ġmirror":7834,"Ġobtained":7835,"words":7836,"Ġgorgeous":7837,"irty":7838,"uls":7839,"Ġ47":7840,"Ġflag":7841,"Ġinteractive":7842,"Ġapplicable":7843,"Ġtaxes":7844,"Ġcalendar":7845,"Ġmarks":7846,"Ġtrouble":7847,"Ġvert":7848,"Ġgear":7849,"ums":7850,"oster":7851,"ĠKids":7852,"Ġroles":7853,"Ġpregn":7854,"Ġreligious":7855,"Ġposting":7856,"Ġfollows":7857,"Ġclock":7858,"Ġvacation":7859,"Ġimmediate":7860,"Ġannouncement":7861,"Ġbegins":7862,"TE":7863,"han":7864,"heast":7865,"ĠSD":7866,"ĠSym":7867,"Ġease":7868,"ĠFour":7869,"ĠLearning":7870,"izz":7871,"Ġrelief":7872,"axy":7873,"Ġinsight":7874,"unicip":7875,"ĠNeed":7876,"Ġtypical":7877,"abetes":7878,"Rel":7879,"onna":7880,"Ġmouth":7881,"Ġgod":7882,"ĠPur":7883,"Ġshock":7884,"Ġrose":7885,"ensus":7886,"???":7887,"400":7888,"Ġtheory":7889,"aron":7890,"Ġmixture":7891,"ether":7892,"ĠSH":7893,"ĠMatt":7894,"ĠBand":7895,"Ġwearing":7896,"ĠEth":7897,"ĠEss":7898,"resents":7899,"acher":7900,"Ġcarpet":7901,"Ġremind":7902,"annels":7903,"Ġcovering":7904,"ĠBritain":7905,"ĠâĤ¬":7906,"Ġcategories":7907,"Ġmassive":7908,"Ġinstrument":7909,"Ġlifestyle":7910,"Ġpermanent":7911,"%,":7912,"Cong":7913,"cons":7914,"reation":7915,"asts":7916,"ĠUk":7917,"ĠRef":7918,"Ġentrance":7919,"Ġsurprise":7920,"Ġdiscussed":7921,"Ġaims":7922,"ĠPennsylvania":7923,"Top":7924,"uer":7925,"icate":7926,"Ġweak":7927,"Ġvice":7928,"Ġapparent":7929,"Ġjustice":7930,"Ġrack":7931,"Ġinterpret":7932,"Ġfilms":7933,"Ġprotein":7934,"ĠHolly":7935,"Ġbroadcast":7936,"ĠArchitect":7937,"ĠEquipment":7938,"Ġtap":7939,"Ġyards":7940,"aya":7941,"Ġ1000":7942,"Ġvul":7943,"Ġrating":7944,"Ġchoices":7945,"ĠJoe":7946,"ĠArmy":7947,"Ġfounder":7948,"Ġdirected":7949,"Ġtracking":7950,"flow":7951,"Ġsituations":7952,"achelor":7953,"home":7954,"yo":7955,"Ġdiverse":7956,"ĠSep":7957,"ĠDaily":7958,"ĠLuc":7959,"Ġchapter":7960,"ĠOR":7961,"izza":7962,"Ġclar":7963,"being":7964,"ĠGuard":7965,"Ġensuring":7966,"ĠRadio":7967,"Cons":7968,"onym":7969,"ingham":7970,"ersion":7971,"Ġvary":7972,"andy":7973,"Ġoverview":7974,"ologist":7975,"ĠShould":7976,"Ġportfolio":7977,"Ġmarked":7978,"Ġintroduction":7979,"Ġdollar":7980,"Ġdropped":7981,"Ġevaluation":7982,"ĠJoseph":7983,"wa":7984,"ĠBh":7985,"Ġrecover":7986,"Ġsetup":7987,"Ġpublication":7988,"ĠComputer":7989,"Ġpackages":7990,"Ġmanagers":7991,"Ġlikes":7992,"Ġpercentage":7993,"ĠTransport":7994,"94":7995,"aug":7996,"pact":7997,"Ġgrey":7998,"ĠRom":7999,"oof":8000,"ĠLA":8001,"Ġ600":8002,"Ġincreases":8003,"ĠAsian":8004,"ĠMeeting":8005,"ĠChem":8006,"urable":8007,"ĠAnth":8008,"ĠMemorial":8009,"Ġathlet":8010,"alo":8011,"ĠCru":8012,"Ġnic":8013,"Ġgate":8014,"Ġbear":8015,"ĠDown":8016,"ĠWales":8017,"ĠGolf":8018,"acter":8019,"Ġflour":8020,"Ġflights":8021,"Ġrelating":8022,"ĠExam":8023,"Exper":8024,"Ġtypically":8025,"Ġcelebration":8026,"ĠModern":8027,"Ġcounsel":8028,"ĠMembers":8029,"About":8030,"Ġfifth":8031,"MT":8032,"Using":8033,"mont":8034,"atal":8035,"isa":8036,"ĠFall":8037,"ĠEvent":8038,"uma":8039,"Ġdepress":8040,"Ġusage":8041,"agen":8042,"ĠStan":8043,"Ġclothes":8044,"Ġunable":8045,"Ġrelation":8046,"Ġacid":8047,"ĠBuild":8048,"ĠHoly":8049,"Ġreferred":8050,"ĠSquare":8051,"vas":8052,"inent":8053,"Ġmob":8054,"ĠTR":8055,"ĠRyan":8056,"ĠHolid":8057,"ĠNC":8058,"Ġrough":8059,"ĠOs":8060,"Ġclothing":8061,"Ġscr":8062,"Ġbranch":8063,"Ġboxes":8064,"Ġdebate":8065,"ĠConstruction":8066,"Ġprinciples":8067,"gree":8068,"then":8069,"Ġram":8070,"Ġow":8071,"Ġnuclear":8072,"ĠBase":8073,"ĠBob":8074,"Ġsex":8075,"Ġseed":8076,"Ġsevere":8077,"lications":8078,"Ġrefund":8079,"ĠCommon":8080,"Ġstreets":8081,"ĠPrim":8082,"Ġlayout":8083,"malink":8084,"Ġsynt":8085,"Ġãĥ»":8086,"erning":8087,"Ġsac":8088,"Ġdowntown":8089,"ĠMember":8090,"aine":8091,"ĠAmericans":8092,"ĠMagazine":8093,"ĠMotor":8094,"ĠSom":8095,"raction":8096,"Ġconsequ":8097,"ĠNon":8098,"Ġrural":8099,"ousing":8100,"Ġreserve":8101,"Ġclaimed":8102,"Ġcompletion":8103,"Ġdefinition":8104,"Ġprospect":8105,"92":8106,"LO":8107,"Ġtie":8108,"ĠDar":8109,"Through":8110,"ildren":8111,"Ġcurrency":8112,"ĠFront":8113,"Ġceiling":8114,"ĠModel":8115,"Ġnutrition":8116,"People":8117,"Visit":8118,"ĠAssistant":8119,"Dav":8120,"Em":8121,"Mod":8122,"best":8123,"lections":8124,"Ġdental":8125,"omy":8126,"ĠCreek":8127,"ĠPsych":8128,"Ġassembly":8129,"agues":8130,"Ġpermalink":8131,"Ġraw":8132,"ĠDeb":8133,"Ġpersonnel":8134,"ATE":8135,"Ġenjoying":8136,"aska":8137,"ĠRegist":8138,"ĠMonth":8139,"Ġconsumption":8140,"Ġcontainer":8141,"Ġvolunteer":8142,"ĠWordPress":8143,"Current":8144,"Her":8145,"outer":8146,"Ġok":8147,"stream":8148,"igs":8149,"oos":8150,"ĠLic":8151,"Ġcontaining":8152,"Ġrecruit":8153,"Ġscreens":8154,"neys":8155,"Ġbug":8156,"Ġinstruction":8157,"Ġaccessories":8158,"Ġprofessor":8159,"Ġclosing":8160,"Ġdocumentation":8161,"ĠIrish":8162,"ĠPhoto":8163,"ĠEconomic":8164,"Ret":8165,"dale":8166,"hot":8167,"iy":8168,"jo":8169,"war":8170,"Ġtape":8171,"Ġpul":8172,"Ġloving":8173,"aded":8174,"ĠWatch":8175,"ĠEs":8176,"Ġ42":8177,"Ġsupposed":8178,"ronics":8179,"Ġrealize":8180,"Ġgraphics":8181,"ĠDemocratic":8182,"Mon":8183,"bell":8184,"rong":8185,"inals":8186,"ilton":8187,"ĠCry":8188,"Ġvintage":8189,"quest":8190,"losure":8191,"Ġsole":8192,"ĠYouth":8193,"Ġformal":8194,"Ġsubsequ":8195,"Christ":8196,"Ġmatches":8197,"ĠiPad":8198,"Ġatmosphere":8199,"El":8200,"illiant":8201,"ĠLiber":8202,"ĠGene":8203,"acc":8204,"plore":8205,"Ġindeed":8206,"ixed":8207,"Ġblank":8208,"Ġedit":8209,"Ġkeeps":8210,"Ġequipped":8211,"Ġpricing":8212,"Ġblocks":8213,"ĠGolden":8214,"Ġarrival":8215,"Ġfolder":8216,"72":8217,"mates":8218,"Ġsen":8219,"Ġhur":8220,"ĠCorn":8221,"ĠMaterial":8222,"ĠTaylor":8223,"ĠLas":8224,"ĠEN":8225,"onder":8226,"Ġarray":8227,"ĠiOS":8228,"âĢ¦âĢ¦":8229,"Ġturns":8230,"Ġchallenging":8231,"ĠJewish":8232,"http":8233,"TT":8234,"Ġmel":8235,"Ġmile":8236,"Ġmaker":8237,"ication":8238,"ĠSav":8239,"elph":8240,"ĠPH":8241,"Ġstored":8242,"ulum":8243,"ĠUnit":8244,"Ġinches":8245,"apped":8246,"Ġhopes":8247,"Ġpatterns":8248,"ĠFilm":8249,"friendly":8250,"ĠAffairs":8251,"Ġmortgage":8252,"Ġsymptoms":8253,"ĠOntario":8254,"Med":8255,"Ġhang":8256,"Ġhanging":8257,"ĠCB":8258,"ĠCivil":8259,"ĠOwn":8260,"ĠJenn":8261,"Ġinsert":8262,"Ġanniversary":8263,"Ġconcert":8264,"Ġofficially":8265,"Ġelev":8266,"regon":8267,"ĠTurkey":8268,"Ġnarrow":8269,"Ġconflict":8270,"lah":8271,"oz":8272,"Ġsouthern":8273,"ĠRon":8274,"ĠHills":8275,"ĠHappy":8276,"lder":8277,"claim":8278,"ults":8279,"Ġspeaker":8280,"Ġexpenses":8281,"iami":8282,"Ġinformed":8283,"ĠVegas":8284,"ĠNigeria":8285,"Ġchoosing":8286,"!)":8287,"aters":8288,"ĠBirth":8289,"Ġaside":8290,"ĠLy":8291,"ĠNO":8292,"Ġyours":8293,"Ġprovision":8294,"Ġhandling":8295,"Ġexpansion":8296,"Ġsignal":8297,"2013":8298,"anned":8299,"Ġassistant":8300,"Ġrepresentatives":8301,"Ġhappening":8302,"ĠBooks":8303,"Ġmillions":8304,"ĠMalays":8305,"ĠRepublican":8306,"Trans":8307,"American":8308,"charge":8309,"ĠMrs":8310,"ĠTurn":8311,"Ġstations":8312,"ĠEastern":8313,"iley":8314,"Ġaircraft":8315,"Ġtracks":8316,"Ġstyles":8317,"Ġeggs":8318,"Ġarrested":8319,"93":8320,"iac":8321,"edu":8322,"udi":8323,"Ġunf":8324,"Ġunion":8325,"Ġprime":8326,"Ġwinners":8327,"Ġengaged":8328,"ESS":8329,"rison":8330,"iscons":8331,"nesota":8332,"Ġrequested":8333,"Ġhyp":8334,"ĠStandard":8335,"Ġswimming":8336,"Ġancient":8337,"ĠHenry":8338,"Ġtoilet":8339,"ko":8340,"link":8341,"ðŁ":8342,"Ġwins":8343,"ĠCou":8344,"char":8345,"estone":8346,"ĠLike":8347,"arest":8348,"ĠYes":8349,"ĠShare":8350,"Ġrepresents":8351,"Ġelected":8352,"Ġrepresented":8353,"Ġrecognition":8354,"Ġfrequently":8355,"Ġbelieves":8356,"Ġcontrolled":8357,"rating":8358,"tes":8359,"Ġft":8360,"ashed":8361,"ĠMoney":8362,"ĠPaper":8363,"ifier":8364,"ĠFred":8365,"Ġchairs":8366,"Ġprogramming":8367,"Ġpassing":8368,"Ġloans":8369,"proof":8370,"oen":8371,"uan":8372,"ĠSome":8373,"ĠBrian":8374,"Ġvent":8375,"Ġmeets":8376,"Ġdispl":8377,"Ġfeels":8378,"Ġcopper":8379,"Ġprison":8380,"ERS":8381,"Ġfaculty":8382,"Ġtreatments":8383,"ĠElizabeth":8384,"Ġvolunteers":8385,"Ġfraud":8386,"Ġhabit":8387,"Apr":8388,"Ob":8389,"Ġerr":8390,"itals":8391,"Ġfence":8392,"Ġthorough":8393,"ellect":8394,"ĠManchester":8395,"ĠBa":8396,"ifer":8397,"ĠHERE":8398,"aret":8399,"issions":8400,"Ġasset":8401,"ĠResources":8402,"ĠBroad":8403,"anguages":8404,"Ġcookies":8405,"Ġapplying":8406,"Ġseemed":8407,"Ġterrit":8408,"isconsin":8409,"Ge":8410,"Search":8411,"don":8412,"oom":8413,"oured":8414,"ĠCS":8415,"otive":8416,"ĠEdition":8417,"ĠChange":8418,"Ġworkshops":8419,"issue":8420,"Ġinspection":8421,"Ġtransactions":8422,"Ġlesson":8423,"Ġpubl":8424,"Despite":8425,"Meanwhile":8426,"bel":8427,"iro":8428,"Ġwal":8429,"Ġwra":8430,"Ġhole":8431,"ĠMess":8432,"ĠBud":8433,"ĠWhe":8434,"ĠNav":8435,"Ġchampion":8436,"Ġchannels":8437,"ĠOcean":8438,"Ġkil":8439,"Ġportable":8440,"Ġmagic":8441,"losed":8442,"IO":8443,"PN":8444,"stract":8445,"Ġheating":8446,"ĠVice":8447,"Ġdriven":8448,"Ġsinger":8449,"Prof":8450,"Ġdealing":8451,"Ġstaying":8452,"Ġentirely":8453,"Ġdelivering":8454,"Ġreplaced":8455,"ĠIllinois":8456,"EF":8457,"Ġsad":8458,"Ġsour":8459,"leep":8460,"ĠLind":8461,"Ġscrew":8462,"ensity":8463,"Ġcrash":8464,"Ġchecking":8465,"Ġportion":8466,"Ġdiagram":8467,"Ġflying":8468,"Ġillegal":8469,"CL":8470,"ĠHold":8471,"ĠNote":8472,"Ġenables":8473,"Ġconsent":8474,"aux":8475,"Ġreputation":8476,"Ġscreening":8477,"Ġsuspect":8478,"Select":8479,"Students":8480,"Ġtutorial":8481,"Ġexposure":8482,"Ġequivalent":8483,"Ġnorthern":8484,"Ġstopped":8485,"ĠBern":8486,"ĠName":8487,"oper":8488,"Ġcompensation":8489,"clude":8490,"Ġregions":8491,"Ġempt":8492,"Ġassum":8493,"Ġtransp":8494,"Ġcertification":8495,"Ġimprovements":8496,"Enjoy":8497,"Following":8498,"74":8499,"found":8500,"gov":8501,"tail":8502,"stra":8503,"ĠRub":8504,"ureau":8505,"osit":8506,"udden":8507,"Ġoperated":8508,"Ġexplan":8509,"ĠPalest":8510,"ĠDelhi":8511,"ĠIII":8512,"ĠPremier":8513,")?":8514,"84":8515,"Ġhook":8516,"ĠSE":8517,"tery":8518,"Ġconver":8519,"Ġdeleg":8520,"ĠJam":8521,"Ġsaved":8522,"Ġproducing":8523,"ferent":8524,"ificial":8525,"Ġenthus":8526,"Ġexpectations":8527,"Ġworst":8528,"Ġcrypt":8529,"76":8530,"Based":8531,"Ġhat":8532,"otion":8533,"Ġcharm":8534,"ĠJordan":8535,"occer":8536,"Ġsoil":8537,"Ġ49":8538,"aturally":8539,"Ġconfident":8540,"Ġpromoting":8541,"Ġvulner":8542,"BO":8543,"lers":8544,"mod":8545,"Ġtelling":8546,"aton":8547,"Ġwarning":8548,"ĠCT":8549,"oween":8550,"igate":8551,"ĠTru":8552,"Ġfindings":8553,"ĠSciences":8554,"ĠAlbert":8555,"cover":8556,"Ġ120":8557,"Ġcapabilities":8558,"ĠDavis":8559,"Ġcooperation":8560,"ĠChallenge":8561,"Ġwithdraw":8562,"cs":8563,"ping":8564,"itu":8565,"Ġlosing":8566,"utter":8567,"ribe":8568,"aha":8569,"Ġaimed":8570,"Ġcontribution":8571,"Ġauthors":8572,"NS":8573,"chers":8574,"riger":8575,"lee":8576,"ĠTreat":8577,"uties":8578,"ĠBad":8579,"Ġbuff":8580,"Ġproducer":8581,"Ġlistening":8582,"ĠÂ·":8583,"Ġattractive":8584,"Ġphotographs":8585,"ĠDiego":8586,"Day":8587,"card":8588,"vard":8589,"Ġbaking":8590,"Ġrein":8591,"Ġyard":8592,"ĠCC":8593,"ĠTenn":8594,"Ġseats":8595,"ĠVen":8596,"ĠWhich":8597,"Ġsignature":8598,"Ġheads":8599,"Ġdistinct":8600,"Ġbuyers":8601,"Ġmoves":8602,"ĠSarah":8603,"lahoma":8604,"Pres":8605,"vo":8606,"Ġboss":8607,"asant":8608,"ĠBell":8609,"Ġorange":8610,"cludes":8611,"Ġfunny":8612,"ART":8613,"Ġcontrols":8614,"ĠIndustrial":8615,"Ġbelieved":8616,"uminum":8617,"ĠEnvironmental":8618,"PL":8619,"pa":8620,"Ġmale":8621,"Ġdust":8622,"ĠSport":8623,"Ġgall":8624,"Ġgiant":8625,"âĢĺ":8626,"ushers":8627,"Ġstable":8628,"Ġ250":8629,"ista":8630,"quality":8631,"Ġnewest":8632,"Ġguitar":8633,"ocument":8634,"Ġinjuries":8635,"Ġexpressed":8636,"Ġsubstant":8637,"Ġsemi":8638,"Ġfighting":8639,"ĠElectric":8640,"ruption":8641,"osophy":8642,"Ġhidden":8643,"iders":8644,"igion":8645,"ĠDJ":8646,"abb":8647,"ĠNumber":8648,"quis":8649,"akh":8650,"Ġarg":8651,"Ġoverse":8652,"Ġ44":8653,"Ġending":8654,"Ġviewing":8655,"Ġcommunicate":8656,"ĠWedding":8657,"Ġconsistent":8658,"Ġincorpor":8659,"ĠChampionship":8660,"Ġlicensed":8661,"ĠProperty":8662,"intend":8663,"inyl":8664,"onut":8665,"etch":8666,"ĠSamsung":8667,"olar":8668,"irts":8669,"ĠRd":8670,"ĠFurniture":8671,"ĠWinter":8672,"ĠURL":8673,"Ġads":8674,"Ġ800":8675,"ĠExchange":8676,"Ġaccounting":8677,"Ġpreparing":8678,"Ġpriority":8679,"ĠHistor":8680,"Ġblend":8681,"Ġresistance":8682,"Ġsamples":8683,"DC":8684,"Det":8685,"iour":8686,"km":8687,"heim":8688,"lements":8689,"Ġlake":8690,"ĠSaint":8691,"Ġnone":8692,"ĠEX":8693,"Ġdeploy":8694,"Ġrising":8695,"Ġabuse":8696,"nee":8697,"Ġsupplement":8698,"Ġshell":8699,"ĠSelect":8700,"Ġpromise":8701,"ĠContract":8702,"Ġstatistics":8703,"Ġtelephone":8704,"ĠDecor":8705,"Ġcasino":8706,"ordinator":8707,"stein":8708,"UD":8709,"ouver":8710,"Ġmatt":8711,"ĠSave":8712,"ĠMother":8713,"ĠPed":8714,"ĠRound":8715,"sem":8716,"ĠLast":8717,"rix":8718,"ĠEffect":8719,"Ġexceed":8720,"Ġsuc":8721,"ĠKat":8722,"phones":8723,"Ġattach":8724,"Ġheaded":8725,"Ġcapable":8726,"ossible":8727,"Ġcreates":8728,"Ġstrike":8729,"Buy":8730,"Ġrepeated":8731,"Ġtonight":8732,"Ġrecipes":8733,"ĠMuslim":8734,"was":8735,"inos":8736,"Ġgym":8737,"ĠTal":8738,"ĠBB":8739,"Ġcontro":8740,"Ġcock":8741,"Ġraising":8742,"ĠAdam":8743,"Ġbreast":8744,"ĠMinnesota":8745,"Ġanticip":8746,"Ġtells":8747,"Ġclubs":8748,"limited":8749,"quiry":8750,"ĠLewis":8751,"pir":8752,"uis":8753,"Ġbars":8754,"Ġbodies":8755,"Ġinn":8756,"ĠAh":8757,"ĠAz":8758,"ige":8759,"ĠMov":8760,"ĠTy":8761,"ulpt":8762,"ĠFram":8763,"ĠLO":8764,"Ġexterior":8765,"Ġreader":8766,"ĠIndepend":8767,"Ġtechnique":8768,"Ġelections":8769,"Ġimagine":8770,"82":8771,"brid":8772,"cal":8773,"cut":8774,"making":8775,"oa":8776,"ori":8777,"Ġfurn":8778,"Ġloves":8779,"Ġstim":8780,"ĠBan":8781,"ĠLat":8782,"Ġsegment":8783,"arts":8784,"ustral":8785,"ĠStadium":8786,"Ġphones":8787,"Ġnoise":8788,"Ġdecade":8789,"Ġboot":8790,"ĠClean":8791,"Ġconnections":8792,"ĠMiller":8793,"Ġmerch":8794,"Ġdangerous":8795,"Ġdeveloper":8796,"Ġstretch":8797,"89":8798,"GR":8799,"Having":8800,"Min":8801,"Point":8802,"Som":8803,"Very":8804,"bow":8805,"Ġsoph":8806,"rog":8807,"Ġstages":8808,"ĠEaster":8809,"Ġvibr":8810,"oses":8811,"ĠOK":8812,"Ġentering":8813,"ĠDeath":8814,"ĠArm":8815,"Ġinteract":8816,"ĠSchools":8817,"Ġcombine":8818,"month":8819,"Ġwaters":8820,"Ġsplit":8821,"Ġwarranty":8822,"lay":8823,"hemat":8824,"Ġocean":8825,"etry":8826,"ĠSize":8827,"ĠIron":8828,"ĠBag":8829,"ĠDO":8830,"ĠDream":8831,"Ġvess":8832,"Ġspots":8833,"obe":8834,"Ġinvite":8835,"Ġconcerning":8836,"Ġ1999":8837,"ĠPolit":8838,"Ġinvolving":8839,"Ġmoments":8840,"entle":8841,"ĠAlp":8842,"ĠMs":8843,"unn":8844,"Ġalloc":8845,"ĠFox":8846,"ĠNut":8847,"ailing":8848,"ĠStory":8849,"Ġcoaching":8850,"Ġmodified":8851,"ĠPhone":8852,"Ġroads":8853,"Ġfunctional":8854,"ĠInte":8855,"Ġultimate":8856,"xiety":8857,"Ġtu":8858,"Ġtor":8859,"incess":8860,"Ġdivid":8861,"vet":8862,"ĠCape":8863,"Ġgal":8864,"unes":8865,"ĠWH":8866,"Ġhes":8867,"allas":8868,"Ġrh":8869,"oding":8870,"elled":8871,"ributes":8872,"2012":8873,"Ġscientists":8874,"Below":8875,"Ġentitled":8876,".:":8877,"bra":8878,"bound":8879,"zing":8880,"Ġmaps":8881,"Ġdiamond":8882,"ĠHR":8883,"Ġriding":8884,"Ġdishes":8885,"ĠUnivers":8886,"Ġfinishing":8887,"Ġadvise":8888,"Ġpersonally":8889,"Ġbroke":8890,"Ġfacts":8891,"Ġsignificantly":8892,"olesale":8893,"Time":8894,"UST":8895,"Ġ00":8896,"esy":8897,"ĠPict":8898,"ĠRog":8899,"ĠNEW":8900,"ĠOregon":8901,"Ġmeals":8902,"ĠStaff":8903,"erving":8904,"Ġpermit":8905,"Ġdesired":8906,"Ġadds":8907,"ounge":8908,"Ġsheets":8909,"Ġsurve":8910,"there":8911,"Ġconstant":8912,"ĠAssembly":8913,"Ġorigin":8914,"olec":8915,"ĠStudy":8916,"Ġattending":8917,"Ġcarrying":8918,"uum":8919,"Ġtiny":8920,"Ġwave":8921,"Ġpa":8922,"Ġdont":8923,"Ġhub":8924,"ĠCore":8925,"ĠBarn":8926,"ustic":8927,"Ġarms":8928,"Ġ41":8929,"ancouver":8930,"week":8931,"Ġtemporary":8932,"ĠBrother":8933,"haust":8934,"ĠIslands":8935,"ĠCreative":8936,"quarters":8937,"aire":8938,"cers":8939,"gi":8940,"pay":8941,"rus":8942,"zes":8943,"Ġfasc":8944,"Ġpitch":8945,"Ġdual":8946,"herry":8947,"ĠFab":8948,"ĠWisconsin":8949,"Ġcancel":8950,"ipt":8951,"onda":8952,"Ġaged":8953,"angle":8954,"Ġbelief":8955,"ĠSeason":8956,"ĠBookmark":8957,"Ġdrinks":8958,"IGH":8959,"Ġcrowd":8960,"bec":8961,"categ":8962,"high":8963,"uct":8964,"Ġpipe":8965,"step":8966,"Ġreject":8967,"ĠCa":8968,"ĠAk":8969,"ĠTok":8970,"asting":8971,"Ġcontrast":8972,"Ġtrim":8973,"Ġreply":8974,"Ġfaces":8975,"ĠOnly":8976,"ĠCorp":8977,"Ġsubsid":8978,"Ġconversion":8979,"Ġstructures":8980,"Ġcomparison":8981,"Ġpodcast":8982,"Ġacquisition":8983,"150":8984,"Hot":8985,"je":8986,"ashes":8987,"Ġlad":8988,"ĠCell":8989,"ĠCapt":8990,"ĠCooper":8991,"ĠHope":8992,"anted":8993,"ints":8994,"Ġ43":8995,"encing":8996,"Ġvisits":8997,"Ġdonation":8998,"ĠAdvent":8999,"Ġsalary":9000,"Ġdrag":9001,"Ġsteam":9002,"ĠIndiana":9003,"Ġcontributions":9004,"Ġemotional":9005,"ĠPerformance":9006,"elphia":9007,"hat":9008,"wick":9009,"erate":9010,"organ":9011,"Ġcul":9012,"Ġpic":9013,"ĠSound":9014,"ution":9015,"unter":9016,"Ġrated":9017,"Ġshots":9018,"Ġcoord":9019,"Ġinstant":9020,"engers":9021,"ĠCompet":9022,"Ġrespective":9023,"Ġcopyright":9024,"Ġmaxim":9025,"TML":9026,"ĠOklahoma":9027,"IB":9028,"fall":9029,"hour":9030,"world":9031,"Ã¼":9032,"Ġfilling":9033,"Ġdating":9034,"olt":9035,"ractions":9036,"ĠPL":9037,"ĠRa":9038,"oore":9039,"river":9040,"Ġdelete":9041,"teen":9042,"pense":9043,"atching":9044,"Ġretirement":9045,"ĠPharm":9046,"Ġlawyer":9047,"screen":9048,"Ġemployer":9049,"Ġnights":9050,"Ġ1998":9051,"ĠCourse":9052,"Ġworse":9053,"Ġcontinuous":9054,"Ġsituated":9055,"Ġbirds":9056,"Ġmoist":9057,"Ġdisappoint":9058,"Ġsomewhere":9059,"ML":9060,"Ġbat":9061,"ĠMiami":9062,"ĠBus":9063,"ĠNic":9064,"ĠNAS":9065,"asted":9066,"ickets":9067,"Ġtwin":9068,"ĠClinton":9069,"Ġrefresh":9070,"ĠPlanning":9071,"Ġratio":9072,"Ġmurder":9073,"FO":9074,"Pat":9075,"Ġriv":9076,"Ġtaught":9077,"Ġware":9078,"Ġrefere":9079,"ĠSW":9080,"olit":9081,"ĠDam":9082,"ĠHay":9083,"Ġvast":9084,"Ġchances":9085,"ocated":9086,"ockey":9087,"Ġwhenever":9088,"Ġscores":9089,"Ġministry":9090,"Ġcoupon":9091,"ĠAgric":9092,"ĠImm":9093,"Ġrecognize":9094,"Defin":9095,"IE":9096,"Sign":9097,"cellent":9098,"ĠMoh":9099,"adelphia":9100,"sex":9101,"Ġconvey":9102,"ĠWel":9103,"ĠGas":9104,"Ġventure":9105,"Ġspark":9106,"riculum":9107,"Ġcoat":9108,"Ġacting":9109,"Ġcurtain":9110,"Ġreturning":9111,"Ġheading":9112,"Ġcausing":9113,"Ġzero":9114,"Ġcampaigns":9115,"Ġlaptop":9116,"Bet":9117,"itis":9118,"ĠCancer":9119,"olk":9120,"igen":9121,"ulating":9122,"Ġchose":9123,"ogen":9124,"Ġracing":9125,"riter":9126,"ĠIndones":9127,"Ġbreaking":9128,"ĠOrange":9129,"Ġinjured":9130,"Ġsensor":9131,"ĠISO":9132,"ĠMatthew":9133,"Ġgranted":9134,"ĠOxford":9135,",.":9136,"MO":9137,"Mem":9138,"VC":9139,"ji":9140,"ĠPo":9141,"iller":9142,"Ġprove":9143,"ĠLook":9144,"ĠUser":9145,"Ġplane":9146,"Ġplanet":9147,"2010":9148,"ĠBlu":9149,"Ġconsideration":9150,"Ġdestroy":9151,"Ġspiritual":9152,"81":9153,"Ac":9154,"Ag":9155,"ĠÑ":9156,"inch":9157,"Ġfault":9158,"usal":9159,"ĠTai":9160,"abil":9161,"Ġcancell":9162,"angers":9163,"Ġprayer":9164,"Ġrelatively":9165,"Ġsmile":9166,"Ġremark":9167,"Ġcenters":9168,"works":9169,"Ġstrongly":9170,"Ġregulatory":9171,"Ġindicate":9172,"Ġdesktop":9173,"ĠDubai":9174,"ĠSupreme":9175,"DR":9176,"Jan":9177,"boy":9178,"vi":9179,"only":9180,"Ġfinger":9181,"Ġmig":9182,"Ġthin":9183,"ima":9184,"ĠBlock":9185,"Ġhealing":9186,"ellite":9187,"ogether":9188,"Ġchecked":9189,"Ġaddresses":9190,"arents":9191,"ĠInstall":9192,"graduate":9193,"ĠHawai":9194,"Ġjuice":9195,"gorith":9196,",'":9197,"cies":9198,"will":9199,"Ġbow":9200,"Ġborrow":9201,"rage":9202,"ĠBird":9203,"ĠLatin":9204,"ĠNations":9205,"Ġlegend":9206,"ĠChap":9207,"Ġresidence":9208,"Ġmineral":9209,"rives":9210,"Ġski":9211,"ĠAustin":9212,"Ġ1996":9213,"Ġimplemented":9214,"ILL":9215,"ragon":9216,"Ġpreferred":9217,"ĠLetter":9218,"ĠAtlanta":9219,"ĠRestaur":9220,"ĠPractice":9221,"73":9222,"giving":9223,"host":9224,"hire":9225,"onic":9226,"enth":9227,"Ġgene":9228,"ami":9229,"ĠPa":9230,"ĠGrow":9231,"through":9232,"Ġnoticed":9233,"ression":9234,"ĠThree":9235,"Ġrelative":9236,"Ġ02":9237,"2011":9238,"Ġresulting":9239,"Ġpackaging":9240,"Ġpotentially":9241,"ratulations":9242,"!\"":9243,"Its":9244,"gener":9245,"uz":9246,"Ġaer":9247,"Ġpup":9248,"oli":9249,"oln":9250,"ĠMethod":9251,"ĠBaby":9252,"ĠEric":9253,"Ġsections":9254,"Ġdoctors":9255,"ailand":9256,"Ġ46":9257,"oven":9258,"Ġprovisions":9259,"Ġindoor":9260,"ĠSeattle":9261,"ĠResort":9262,"Ġperformances":9263,"ĠTrail":9264,"Ġfocusing":9265,"Ġlogin":9266,"Ġparticipating":9267,"ĠParliament":9268,"Ġexamination":9269,"Ġcatalog":9270,"ĠForeign":9271,"Ġseriously":9272,"ĠQueens":9273,"Black":9274,"Ġlucky":9275,"Ġspectac":9276,"dd":9277,"tains":9278,"Ġtours":9279,"essee":9280,"ols":9281,"raine":9282,"ĠHur":9283,"Ġheav":9284,"ĠNFL":9285,"airy":9286,"leton":9287,"Ġ99":9288,"Ġbrilliant":9289,"Ġoperational":9290,"Ġsubjects":9291,"Ġsuggestions":9292,"Ġfarmers":9293,"Ġinitiatives":9294,"ĠWilson":9295,"Cent":9296,"Ġfalse":9297,"ĠAth":9298,"Ġseal":9299,"Ġscope":9300,"Ġspeakers":9301,"Ġtrick":9302,"ĠUSD":9303,"Ġemployers":9304,"Ġfundra":9305,"Ġnewspaper":9306,"Ġtablet":9307,"Enter":9308,"ĠEvents":9309,"Ġempty":9310,"Cor":9311,"Dis":9312,"Ġcer":9313,"ĠCirc":9314,"elle":9315,"uset":9316,"Ġalumni":9317,"ĠRO":9318,"Ġorient":9319,"open":9320,"opher":9321,"Ġcolours":9322,"Ġdifferences":9323,"ĠAnalysis":9324,"Ġoblig":9325,"Ġholder":9326,"ibraries":9327,"ĠBarb":9328,"Ġpolitics":9329,"Ġvoted":9330,"Ġsubscription":9331,"Ġneighb":9332,"MB":9333,"mo":9334,"Ġsorry":9335,"arl":9336,"roke":9337,"ĠSong":9338,"Ġgap":9339,"owa":9340,"Ġalarm":9341,"ĠHal":9342,"Ġchrist":9343,"Ġabroad":9344,"Ġoutcome":9345,"Ġoppon":9346,"ĠMini":9347,"Ġcontracts":9348,"Ġgraphic":9349,"Ġnursing":9350,"Ġbasketball":9351,"Ġelegant":9352,"unicipal":9353,"MI":9354,"RP":9355,"Sw":9356,"vity":9357,"Ġduties":9358,"Ġhoney":9359,"ĠShel":9360,"ĠCabin":9361,"ĠBow":9362,"ĠBody":9363,"ĠLearn":9364,"ĠWA":9365,"riers":9366,"Ġseeds":9367,"Ġcontained":9368,"ervations":9369,"Ġprovince":9370,"Ġactor":9371,"ika":9372,"Ġdamaged":9373,"Ġsuperior":9374,"Ġcorrectly":9375,"Description":9376,"Ġencouraged":9377,"Ġdrinking":9378,"ĠBreak":9379,"ĠAttorney":9380,"ĠALL":9381,"ĠLinux":9382,"Ġcompatible":9383,"Custom":9384,"Data":9385,"Ġsudden":9386,"Ġpace":9387,"Ġgram":9388,"ĠTan":9389,"ĠPut":9390,"ĠLot":9391,"Ġsmoke":9392,"Ġsecondary":9393,"Ġreviewed":9394,"Ġexplains":9395,"ORE":9396,"ribution":9397,"ALL":9398,"Ġpurchasing":9399,"Ġanalyst":9400,"Ġfunctionality":9401,"Ġpainted":9402,"Ġbreath":9403,"Ġerrors":9404,"600":9405,"83":9406,"hell":9407,"Ġsq":9408,"eness":9409,"Ġinner":9410,"Ġmask":9411,"ĠSant":9412,"ĠTree":9413,"Ġstir":9414,"ĠEag":9415,"Ġvill":9416,"ĠNurs":9417,"Ġleaf":9418,"ĠKit":9419,"ouses":9420,"athon":9421,"ĠScreen":9422,"Ġsigning":9423,"Ġfaced":9424,"Ġmounted":9425,"Ġprevention":9426,"ĠKevin":9427,"Ġacquired":9428,"Ġcollections":9429,"Ġvegetables":9430,"ĠVietnam":9431,"Ġcontrovers":9432,"91":9433,"Special":9434,"orized":9435,"arr":9436,"Ġlaser":9437,"ĠCub":9438,"utical":9439,"urities":9440,"Ġwhilst":9441,"eping":9442,"Ġunw":9443,"Though":9444,"Ġrefuge":9445,"bean":9446,"Ġlegs":9447,"Ġconstantly":9448,"criptions":9449,"ĠHeritage":9450,"Ġdivide":9451,"Ġcabinets":9452,"Ġdiseases":9453,"Hello":9454,"David":9455,"DI":9456,"Happy":9457,"itate":9458,"itzer":9459,"Ġpocket":9460,"Ġmouse":9461,"oming":9462,"ĠCL":9463,"ifferent":9464,"ĠWars":9465,"Ġenforcement":9466,"Ġregulation":9467,"Ġinsights":9468,"Ġ08":9469,"Ġstatements":9470,"Ġclassroom":9471,"Ġfranch":9472,"Ġtemplates":9473,"Ġnewsletter":9474,"Ġflooring":9475,"Ġobjective":9476,"Gl":9477,"pur":9478,"Ġreact":9479,"eties":9480,"ĠSir":9481,"ĠPear":9482,"ĠPast":9483,"ĠBC":9484,"ouri":9485,"ĠLi":9486,"Ġlemon":9487,"avor":9488,"leted":9489,"Ġdefine":9490,"ĠMarsh":9491,"enna":9492,"Ġfunded":9493,"ropical":9494,"Ġconnecting":9495,"Ġvoting":9496,"Ġgenu":9497,"Hope":9498,"UC":9499,"ders":9500,"py":9501,"Ġsick":9502,"Ġreception":9503,"elry":9504,"Ġstrict":9505,"ĠLiter":9506,"Ġoutcomes":9507,"ruits":9508,"Ġaccused":9509,"Ġbackup":9510,"Ġinstitution":9511,"Ġboards":9512,"Ġexploring":9513,"ĠPrince":9514,"Ġregardless":9515,"ĠAnton":9516,"Ġsensitive":9517,"Ġcircuit":9518,"Ġsponsored":9519,"Ġcolleagues":9520,"ĠChairman":9521,"Create":9522,"ĠðŁ":9523,"Ġtube":9524,"anite":9525,"ĠAst":9526,"ĠMail":9527,"ĠTro":9528,"ĠPages":9529,"ĠBBC":9530,"ĠGP":9531,"Ġrum":9532,"Ġlets":9533,"Ġadmitted":9534,"izon":9535,"Ġspray":9536,"Ġproven":9537,"Ġbelt":9538,"def":9539,"Ġequip":9540,"Ġrevolution":9541,"ĠStephen":9542,"Ġdisplays":9543,"**":9544,"71":9545,"BR":9546,"Come":9547,"hou":9548,"nie":9549,"uous":9550,"Ġmath":9551,"ĠSelf":9552,"uten":9553,"ĠBru":9554,"ĠFast":9555,"ĠGreg":9556,"quire":9557,"Ġrig":9558,"undry":9559,"ounded":9560,"iances":9561,"ova":9562,"Ġexperiment":9563,"ĠColoring":9564,"ĠHighway":9565,"Ġillness":9566,"Ġemerging":9567,"Ġprimarily":9568,"Ġroutine":9569,"ĠSyria":9570,"ĠInvestment":9571,"Ġplugin":9572,"Full":9573,"La":9574,"dem":9575,"makers":9576,"sk":9577,"xic":9578,"arat":9579,"ĠTel":9580,"ĠDyn":9581,"ĠFather":9582,"ĠLE":9583,"ĠJay":9584,"Ġmemories":9585,"lington":9586,"Ġmarriage":9587,"ĠChel":9588,"Ġ1990":9589,"ĠHalloween":9590,"Ġsatisfied":9591,"Ġshelf":9592,"%)":9593,"FS":9594,"WS":9595,"pot":9596,"post":9597,"ÃŃ":9598,"Ġdipl":9599,"ĠAge":9600,"Ġhack":9601,"Ġcomplim":9602,"ĠChapter":9603,"Ġpepper":9604,"ĠShort":9605,"icted":9606,"Ġrepairs":9607,"ĠExp":9608,"Ġintent":9609,"Ġrestore":9610,"itches":9611,"Ġemails":9612,"Ġlowest":9613,"Ġsummary":9614,"Ġcuts":9615,"Ġopens":9616,"Ġadministrative":9617,"Develop":9618,"Ġreveal":9619,"Ġdistributed":9620,"Ġquotes":9621,"ĠFootball":9622,"athered":9623,"Ġmattress":9624,"Fin":9625,"cat":9626,"jection":9627,"Ġslo":9628,"Ġbills":9629,"store":9630,"ĠDI":9631,"ĠGreek":9632,"Ġsuite":9633,"Ġenem":9634,"Three":9635,"Ġoverw":9636,"Ġ52":9637,"Ġconsists":9638,"Ġentity":9639,"Ġassigned":9640,"ĠText":9641,"ucks":9642,"Ġliked":9643,"ĠValent":9644,"ĠGrant":9645,"Ġcriteria":9646,"Ġcrack":9647,"Ġdirections":9648,"Ġchairman":9649,"Ġdreams":9650,"Ġsuffering":9651,"Ġdemonstrate":9652,"ĠDenver":9653,"Ġflavor":9654,"Ġcomputers":9655,"ĠCommunications":9656,"fers":9657,"Ġwo":9658,"Ġcircle":9659,"Ġalive":9660,"ĠHyd":9661,"abling":9662,"ĠOw":9663,"Ġprinter":9664,"Ġentries":9665,"Ġkeys":9666,"Ġdiscip":9667,"incoln":9668,"ĠAfghan":9669,"Ġsolo":9670,"ĠPatrick":9671,"ĠGalaxy":9672,"Ġstruggle":9673,"Ġdelighted":9674,"ellectual":9675,"Further":9676,"VA":9677,"fire":9678,"Ã³":9679,"Ġgained":9680,"ĠPain":9681,"ĠBush":9682,"ĠBudd":9683,"ĠET":9684,"ĠJane":9685,"ĠStyle":9686,"Ġknock":9687,"ĠMarc":9688,"Ġbasically":9689,"Ġswing":9690,"ĠStudents":9691,"Ġhyper":9692,"Maybe":9693,"ĠAdvanced":9694,"bing":9695,"bass":9696,"sl":9697,"when":9698,"isdom":9699,"iliate":9700,"Ġyield":9701,"ĠCand":9702,"rait":9703,"Ġalt":9704,"aba":9705,"about":9706,"Ġplain":9707,"ĠKansas":9708,"Ġchef":9709,"ĠLegal":9710,"Ġservers":9711,"Ġrefriger":9712,"ĠAlliance":9713,"Ġpacked":9714,"Ġstudying":9715,"Ġnormally":9716,"Ġfabulous":9717,"Ġprotest":9718,"ĠAtlantic":9719,"Ġrubber":9720,"Ġhydro":9721,"Ġentrepreneurs":9722,"ĠPhilippines":9723,"usetts":9724,"Del":9725,"Dep":9726,"Mark":9727,"Oct":9728,"Ġcam":9729,"Ġcord":9730,"Ġbone":9731,"Ġlanguages":9732,"oted":9733,"ĠBry":9734,"ĠDark":9735,"ĠRout":9736,"ĠLady":9737,"Ġexit":9738,"aceutical":9739,"comed":9740,"auty":9741,"Star":9742,"INE":9743,"Ġtalked":9744,"Ġwalked":9745,"Ġtargeted":9746,"Ġconsulting":9747,"Ġdeadline":9748,"Ġultimately":9749,"IVE":9750,"Interest":9751,"Ġsurprised":9752,"Ġvertical":9753,"Ant":9754,"Pal":9755,"ĠTX":9756,"ĠRA":9757,"ĠHim":9758,"abad":9759,"ĠLane":9760,"ĠVancouver":9761,"click":9762,"Ġ56":9763,"Ġvisible":9764,"Ġcurtains":9765,"Ġadvent":9766,"ĠResume":9767,"Ġengaging":9768,"Ġexcell":9769,"ĠRepair":9770,"Ġyounger":9771,"Ġassociate":9772,"Ġpleasure":9773,"ĠPhiladelphia":9774,"Ġexceptional":9775,"Ġincreasingly":9776,"Ġcomplaint":9777,"ĠCambridge":9778,"ĠHollywood":9779,"ĠAnthony":9780,"Want":9781,"mouth":9782,"Ġlie":9783,"Ġreaction":9784,"ĠCON":9785,"âĢ³":9786,"ĠIss":9787,"ĠBurn":9788,"ĠGlo":9789,"ĠEven":9790,"ighth":9791,"ĠJer":9792,"aga":9793,"agan":9794,"ĠVeter":9795,"Ġworkplace":9796,"Ġbacked":9797,"Ġinvestments":9798,"Ġopposition":9799,"minute":9800,"Ġinstalling":9801,"overty":9802,"Ġ1994":9803,"ĠImage":9804,"Ġobjectives":9805,"Ġabsor":9806,"ĠSprings":9807,"Ġmuscle":9808,"Ġsmartphone":9809,"Ġguaranteed":9810,"ĠĠĠĠĠĠĠĠ":9811,"html":9812,"Ġtravelling":9813,"250":9814,"Hz":9815,"VP":9816,"effect":9817,"lik":9818,"mitting":9819,"Ġlaugh":9820,"Ġliability":9821,"Ġren":9822,"Ġgrew":9823,"ĠMade":9824,"ĠBron":9825,"ĠDiamond":9826,"ĠDallas":9827,"abies":9828,"Ġ360":9829,"Ġteeth":9830,"achusetts":9831,"Ġdispos":9832,"Ġroy":9833,"inking":9834,"ĠThailand":9835,"ĠAnaly":9836,"otted":9837,"Ġbeds":9838,"ospitals":9839,"Ġforever":9840,"Ġwriters":9841,"ĠHarry":9842,"Ġbedrooms":9843,"Ġadopted":9844,"Try":9845,"ho":9846,"Ã¶":9847,"Ġwrap":9848,"Ġdump":9849,"Ġhits":9850,"Ġliber":9851,"ĠCash":9852,"ĠAG":9853,"urers":9854,"iesel":9855,"Ġcomplic":9856,"ichael":9857,"ector":9858,"Ġupgrad":9859,"Ġmere":9860,"ĠVA":9861,"Ġsupporters":9862,"Ġdesigners":9863,"Ġbron":9864,"ĠAlso":9865,"Ġopposite":9866,"ĠMayor":9867,"Ġidentification":9868,"Ġutility":9869,"winning":9870,"Ġoccurred":9871,"Ġsupplied":9872,"Published":9873,"CR":9874,"Ġbay":9875,"Ġdent":9876,"ĠAI":9877,"ĠMO":9878,"ĠMort":9879,"uters":9880,"iral":9881,"ĠBalt":9882,"Ġconsole":9883,"ĠHS":9884,"ĠChannel":9885,"Ġtrailer":9886,"iverpool":9887,"ventional":9888,"anny":9889,"Ġbuyer":9890,"umbing":9891,"ĠQuest":9892,"Among":9893,"Ġtalented":9894,"ĠIsraeli":9895,"Ġpenalty":9896,"Ġcredits":9897,"Mc":9898,"aud":9899,"nut":9900,"Ġtone":9901,"enz":9902,"Ġmold":9903,"ilitation":9904,"ĠTalk":9905,"utral":9906,"Ġanxiety":9907,"ĠFuture":9908,"ĠGall":9909,"Ġcompact":9910,"reece":9911,"Ġminim":9912,"ĠCover":9913,"Ġcontacts":9914,"ĠImpact":9915,"Ġvariable":9916,"Ġmaintaining":9917,"Ġgolden":9918,"Ġmatching":9919,"Ġcameras":9920,"Ġconcepts":9921,"Ġwatched":9922,"General":9923,"Ġolive":9924,"ĠMalaysia":9925,"Ġsucceed":9926,"Net":9927,"gate":9928,"tons":9929,"ĠâĢĻ":9930,"ingly":9931,"Ġmos":9932,"ĠBureau":9933,"ĠDave":9934,"ĠHum":9935,"ĠGift":9936,"Ġlease":9937,"Ġsufficient":9938,"Ġadj":9939,"Ġacceler":9940,"Ġoperator":9941,"ĠRepresent":9942,"Ġlimits":9943,"Ġtargets":9944,"Ġsatisfaction":9945,"Dec":9946,"bul":9947,"power":9948,"Ġfont":9949,"icide":9950,"style":9951,"ĠSug":9952,"olving":9953,"uther":9954,"ourse":9955,"ĠGate":9956,"ĠNature":9957,"odd":9958,"Ġcompos":9959,"Ġadmission":9960,"ĠKy":9961,"ervative":9962,"Ġsculpt":9963,"atern":9964,"Ġpride":9965,"Ġconscious":9966,"ĠCoach":9967,"ĠAnderson":9968,"ĠMarine":9969,"Ġgray":9970,"ANT":9971,"vironments":9972,"ĠDesk":9973,"Ġtitled":9974,"ĠLaure":9975,"Ġdepends":9976,"ĠCertificate":9977,".),":9978,"AE":9979,"Social":9980,"dep":9981,"uana":9982,"Ġdiversity":9983,"ilty":9984,"ĠSO":9985,"ĠDuration":9986,"Ġcann":9987,"Ġunknown":9988,"ĠClark":9989,"Ġdecent":9990,"Ġexplo":9991,"ĠAnne":9992,"Ġ03":9993,"China":9994,"Ġdrawn":9995,"Ġvotes":9996,"ĠInterior":9997,"Ġsuspend":9998,"Ġcrucial":9999,"ĠKorean":10000,"Ġnegoti":10001,"()":10002,"Ġnaturally":10003,"Ġgardens":10004,"iments":10005,"irk":10006,"ĠEC":10007,"Ġvine":10008,"Ġseasons":10009,"agers":10010,"agraph":10011,"Ġwheels":10012,"Ġincent":10013,"Ġ07":10014,"Ġ09":10015,"Ġapproaches":10016,"ĠReserve":10017,"Ġequity":10018,"Ġtrips":10019,"Ġaffili":10020,"books":10021,"Ġportal":10022,"Ġhosts":10023,"Ġmaintained":10024,"Ġsuggests":10025,"Ġexception":10026,"Ġexpanded":10027,"ĠAvailable":10028,"Ġfrequency":10029,"Ġgovernments":10030,"Fr":10031,"PP":10032,"after":10033,"Ġye":10034,"ĠAB":10035,"ĠTool":10036,"amics":10037,"urious":10038,"ĠDat":10039,"section":10040,"ĠFinal":10041,"Ġenabled":10042,"Ġunex":10043,"Ġarmy":10044,"Ġrod":10045,"Ġherself":10046,"Ġwanting":10047,"Ġremained":10048,"Ġ85":10049,"prises":10050,"Ġtourism":10051,"ĠClassic":10052,"Ġimmigration":10053,"ĠBelg":10054,"Ġthousand":10055,"Ġera":10056,"Ġparameters":10057,"oenix":10058,"World":10059,"sub":10060,"table":10061,"tical":10062,"uits":10063,"Ġsin":10064,"Ġpad":10065,"anne":10066,"Ġrehab":10067,"Ġyoga":10068,"Ġeuro":10069,"ĠMove":10070,"ĠDoll":10071,"Ġsees":10072,"ĠJosh":10073,"ĠChamber":10074,"Ġexposed":10075,"Ġ06":10076,"Ġcompete":10077,"Ġtitles":10078,"Ġbanking":10079,"Att":10080,"Big":10081,"Val":10082,"aa":10083,"bie":10084,"pire":10085,"Ġtons":10086,"erk":10087,"Ġwider":10088,"Ġfib":10089,"Ġmood":10090,"Ġreaching":10091,"otes":10092,"racy":10093,"ceived":10094,"ĠMagn":10095,"Ġstability":10096,"rior":10097,"Ġwashing":10098,"ĠOre":10099,"Ġneither":10100,"Ġreserves":10101,"Ġdismiss":10102,"ĠCommercial":10103,"Ġheritage":10104,"Ġfinancing":10105,"Ġprogrammes":10106,"aura":10107,"Ġchecks":10108,"Ġbrew":10109,"Ġprotocol":10110,"Ġmechanism":10111,"ĠTerms":10112,"\")":10113,"Bes":10114,"SL":10115,"market":10116,"Ġ%":10117,"rection":10118,"reated":10119,"Ġwishes":10120,"Ġpounds":10121,"ĠDance":10122,"Ġconj":10123,"abama":10124,"ĠEasy":10125,"ummy":10126,"ĠOp":10127,"apolis":10128,"Ġphr":10129,"elfare":10130,"ĠConvention":10131,"Ġpassengers":10132,"Ġobst":10133,"Ġsalad":10134,"Ġestimate":10135,"Ġcaps":10136,"Ġsentence":10137,"Ġsquad":10138,"Ġadvertise":10139,"Ġpulled":10140,"Ġcopies":10141,"Ġaccomplish":10142,"Cal":10143,"Could":10144,"MW":10145,"NY":10146,"iot":10147,"oust":10148,"itative":10149,"ĠCraft":10150,"owers":10151,"Ġstack":10152,"Ġprosecut":10153,"Ġangle":10154,"ĠHTML":10155,"ĠJason":10156,"Ġhasn":10157,"ailed":10158,"Ġproved":10159,"Ġconservation":10160,"Ġcarrier":10161,"Ġdevelopments":10162,"Ġbrush":10163,"ĠCentury":10164,"ĠPoly":10165,"Ġamounts":10166,"Ġtourist":10167,"Design":10168,"Ġearnings":10169,"ĠMaryland":10170,"Ġownership":10171,"ĠRelations":10172,"Ġtranslation":10173,"ĠVictor":10174,"spec":10175,"Give":10176,"rep":10177,"Ġshed":10178,"ications":10179,"ĠCOM":10180,"ĠMission":10181,"ĠDR":10182,"ĠRot":10183,"ĠRand":10184,"ĠHart":10185,"Ġsectors":10186,"Ġchest":10187,"Ġengines":10188,"Ġairline":10189,"inciple":10190,"Ġblogs":10191,"ĠRegion":10192,"Ġrepresenting":10193,"ĠTechnologies":10194,"ĠSummit":10195,"ĠScottish":10196,"Ġtradem":10197,"Ġargument":10198,"ĠCastle":10199,"Ġweapons":10200,"Ġdepression":10201,"ĠHoliday":10202,"ĠTennessee":10203,"zed":10204,"âĤ¬":10205,"era":10206,"Ġlens":10207,"Ġgrid":10208,"ĠMom":10209,"ĠMust":10210,"ĠMajor":10211,"ĠRaj":10212,"ĠLanguage":10213,"ĠKelly":10214,"ressed":10215,"Ġ54":10216,"Ask":10217,"Ġextent":10218,"ĠCoffee":10219,"Ġshortly":10220,"prove":10221,"Ġdiscussions":10222,"Ġworkshe":10223,"Ġfalling":10224,"Ġinterviews":10225,"Ġpowers":10226,"Ġexpanding":10227,"TO":10228,"city":10229,"dated":10230,"mers":10231,"ritten":10232,"Ġworship":10233,"Ġcush":10234,"Ġtooth":10235,"lend":10236,"lean":10237,"stery":10238,"ceeds":10239,"ĠDor":10240,"ĠLam":10241,"acious":10242,"iah":10243,"asses":10244,"Ġprest":10245,"elson":10246,"they":10247,"Ġspecialists":10248,"Ġdrain":10249,"Ġdiabetes":10250,"ĠEmail":10251,"ĠEmploy":10252,"uracy":10253,"ĠSimon":10254,"Ġï½":10255,"Remember":10256,"Ġescape":10257,"ĠOlympic":10258,"semble":10259,"rif":10260,"town":10261,"wear":10262,"Ġwestern":10263,"ito":10264,"Ġloose":10265,"ĠSri":10266,"Ġgentle":10267,"amental":10268,"ĠHost":10269,"ĠNJ":10270,"Ġexhaust":10271,"oda":10272,"Ġcomply":10273,"Ġresid":10274,"Ġrescue":10275,"lla":10276,"Ġpreview":10277,"Ġacts":10278,"mann":10279,"Ġcomplement":10280,"Ġbreed":10281,"2009":10282,"Ġgarlic":10283,"building":10284,"ĠMissouri":10285,"Ġranked":10286,"iatric":10287,"ĠBedroom":10288,"Ġexcellence":10289,"EG":10290,"GS":10291,"cure":10292,"Ġfiber":10293,"Ġphen":10294,"Ġhurt":10295,"sters":10296,"Ġly":10297,"ĠSQL":10298,"Ġisol":10299,"chain":10300,"ĠBuff":10301,"ĠHousing":10302,"ĠLes":10303,"Ġunus":10304,"Ġhighlights":10305,"ĠBeh":10306,"ĠCoal":10307,"State":10308,"ĠContent":10309,"iscal":10310,"who":10311,"ACK":10312,"2008":10313,"Ġparks":10314,"Ġwondering":10315,"ĠMorgan":10316,"build":10317,"Ġsuffered":10318,"Ġflexibility":10319,"Ġwelcomed":10320,"Ġdrama":10321,"Ġapparently":10322,"ĠBirthday":10323,"April":10324,"ez":10325,"fig":10326,"Ġpatch":10327,"ĠCool":10328,"ĠTa":10329,"Ġalert":10330,"ppers":10331,"ĠLux":10332,"Ġhaz":10333,"Ġadequ":10334,"Ġapple":10335,"assion":10336,"anka":10337,"Ġinvitation":10338,"iox":10339,"Ġreleases":10340,"Ġnetworking":10341,"Ġvoters":10342,"Ġbehaviour":10343,"ĠMassachusetts":10344,"Ġconvenience":10345,"ĠLeadership":10346,"ĠUrban":10347,"Ġax":10348,"inian":10349,"rets":10350,"Ġsid":10351,"Ġcotton":10352,"Ġbatt":10353,"stan":10354,"Ġgonna":10355,"ĠMir":10356,"ĠMoon":10357,"ĠTen":10358,"uris":10359,"ĠRoss":10360,"Ġseam":10361,"Ġsharp":10362,"ĠStorage":10363,"aved":10364,"Ġ95":10365,"Ġinteraction":10366,"Ġspecially":10367,"Ġslide":10368,"Ġgrate":10369,"ĠCarl":10370,"ICE":10371,"Ġcalc":10372,"ĠTechnical":10373,"Ġrolling":10374,"Ġvictims":10375,"ĠEnterprise":10376,"Ġprincipal":10377,"Ġpublishing":10378,"ĠCele":10379,"ĠJacob":10380,"ĠRestaurant":10381,"Gold":10382,"UB":10383,"UI":10384,"lined":10385,"oned":10386,"itable":10387,"edge":10388,"Ġgathered":10389,"olph":10390,"Ġ101":10391,"ĠLock":10392,"Ġchip":10393,"ireless":10394,"ĠKind":10395,"ĠVersion":10396,"Ġthemes":10397,"ĠReading":10398,"Ġassign":10399,"ĠExhib":10400,"Ġprocessed":10401,"ĠAssess":10402,"ĠAppro":10403,"Ġsafely":10404,"Ġtraveling":10405,"ĠWorking":10406,"Ġdescribes":10407,"Ġdatas":10408,"Ġpowered":10409,"ĠSpeed":10410,"Ġfolks":10411,"ĠJunior":10412,"ĠBitcoin":10413,"RO":10414,"South":10415,"bet":10416,"gely":10417,"hill":10418,"Ġward":10419,"isure":10420,"Ġloyal":10421,"abe":10422,"Ġvirt":10423,"Ġru":10424,"ĠOpp":10425,"Ġproductivity":10426,"Ġtransmission":10427,"ĠMarg":10428,"Ġpractition":10429,"Ġ1995":10430,"Ġcleaner":10431,"Ġoils":10432,"Place":10433,"Ġslowly":10434,"Ġuniversities":10435,"Ġacknowled":10436,"Aug":10437,"KE":10438,"LD":10439,"Log":10440,"bridge":10441,"iw":10442,"sis":10443,"walk":10444,"Ġcater":10445,"asm":10446,"ĠSM":10447,"ationally":10448,"ĠIV":10449,"ĠBrew":10450,"ĠDer":10451,"Ġprohib":10452,"Ġanch":10453,"ĠHig":10454,"ĠWy":10455,"Ġunve":10456,"Ġqueen":10457,"Ġextreme":10458,"Ġcement":10459,"IST":10460,"cycle":10461,"Ġfireplace":10462,"ĠPortug":10463,"........":10464,"ĠSingle":10465,"Ġlifetime":10466,"Ġwidth":10467,"ĠãĢ":10468,"Second":10469,"NC":10470,"Ok":10471,"elect":10472,"piece":10473,"rators":10474,"Ġtiles":10475,"Ġcrown":10476,"ĠCoun":10477,"ĠIC":10478,"ĠBat":10479,"ĠDoor":10480,"season":10481,"ĠNavy":10482,"ordinary":10483,"Ġ51":10484,"ĠCommerce":10485,"Ġgreatly":10486,"oked":10487,"Ġaccessed":10488,"venth":10489,"itched":10490,"ĠContin":10491,"Ġparticipated":10492,"ĠUpdate":10493,"Ġphilosophy":10494,"ĠGovernor":10495,"ĠPrimary":10496,"Ġoverseas":10497,"Bay":10498,"Sum":10499,"Save":10500,"Ġrib":10501,"Ġcust":10502,"Ġmoon":10503,"Ġrend":10504,"eld":10505,"otte":10506,"Ġ(âĢľ":10507,"Ġshirt":10508,"iva":10509,"owned":10510,"Ġblow":10511,"Ġprofiles":10512,"Ġdemands":10513,"Ġkeyboard":10514,"cribed":10515,"Ġengineers":10516,"ĠRecords":10517,"Ġcourtesy":10518,"Ġslee":10519,"Ġvanity":10520,"Ġopinions":10521,"Ġbrothers":10522,"Ġevaluate":10523,"Ġpilot":10524,"FT":10525,"Par":10526,"VI":10527,"burn":10528,"cr":10529,"ele":10530,"Ñĸ":10531,"Ġauction":10532,"Ġoh":10533,"Ġovers":10534,"Ġlip":10535,"ulator":10536,"ĠRap":10537,"ĠRoy":10538,"ĠLincoln":10539,"ĠEver":10540,"ĠNap":10541,"Ġdisability":10542,"Ġanyway":10543,"Inc":10544,"commerce":10545,"Ġeverywhere":10546,"Ġvisa":10547,"ĠWhile":10548,"Still":10549,"Choose":10550,"iameter":10551,"Ġfrust":10552,"AST":10553,"Ġ1997":10554,"Ġinvolves":10555,"Ġagenda":10556,"ECT":10557,"Ġstocks":10558,"celona":10559,"Ġvacc":10560,"ĠMetal":10561,"Ġdiscounts":10562,"Ġcruise":10563,"ĠOrganization":10564,"ĠSolar":10565,"Ġstakeholders":10566,"Ġphotographer":10567,"Bar":10568,"Know":10569,"fish":10570,"oft":10571,"pres":10572,"range":10573,"Ġlies":10574,"ĠCos":10575,"Ġgaming":10576,"cho":10577,"ĠIL":10578,"ĠPath":10579,"ifting":10580,"ĠWat":10581,"ĠEP":10582,"Ġexch":10583,"Ġchips":10584,"Ġadmit":10585,"Ġenvironments":10586,"ishop":10587,"Inter":10588,"itts":10589,"Ġunderst":10590,"Ġlocally":10591,"ugs":10592,"shore":10593,"Ġrealized":10594,"Ġcompleting":10595,"ORD":10596,"Ġresponsibilities":10597,"Ġmixing":10598,"Need":10599,"ELL":10600,"ĠCleaning":10601,"tainment":10602,"ijuana":10603,"ĠTurk":10604,"Ġwildlife":10605,"Ġratings":10606,"Ġiconic":10607,"ĠSweden":10608,"Ġexplanation":10609,"NT":10610,"Pay":10611,"code":10612,"fly":10613,"hy":10614,"lan":10615,"lies":10616,"via":10617,"Ġbare":10618,"Ġmad":10619,"roit":10620,"ĠMind":10621,"ĠWas":10622,"ĠGre":10623,"Ġexclus":10624,"ĠTherapy":10625,"orses":10626,"Ġaggress":10627,"angel":10628,"Ġskilled":10629,"ĠRober":10630,"ĠCorporate":10631,"Ġbaseball":10632,"iscover":10633,"Ġtower":10634,"ĠExperience":10635,"Dan":10636,"good":10637,"Ġwake":10638,"Ġfits":10639,"Ġhate":10640,"Ġnob":10641,"rape":10642,"imore":10643,"ĠPerson":10644,"ĠDate":10645,"Ġalleg":10646,"Ġalgorith":10647,"sect":10648,"ĠHan":10649,"Ġranging":10650,"tech":10651,"ĠVar":10652,"Ġindicated":10653,"Ġdesigning":10654,"Ġspecialized":10655,"Ġinvesting":10656,"Ġsurely":10657,"ĠAllen":10658,"itutional":10659,"Ġliterature":10660,"ĠSaudi":10661,"ĠIslamic":10662,"Definition":10663,"Ġspectacular":10664,"Support":10665,"papers":10666,"xit":10667,"atile":10668,"Ġhung":10669,"ĠCut":10670,"Ġstraw":10671,"ĠGO":10672,"ĠGraph":10673,"ĠED":10674,"ĠNation":10675,"alling":10676,"ĠUsing":10677,"ĠThen":10678,"Ġclip":10679,"Ġ53":10680,"veland":10681,"Ġlistings":10682,"Ġorganised":10683,"Ġlargely":10684,"Ġfiling":10685,"Ġlaid":10686,"Ġsinging":10687,"ĠDirectors":10688,"Ġdecoration":10689,"ĠDouble":10690,"Ġfoam":10691,"Ġempower":10692,"ĠHomes":10693,"Ġquantity":10694,"ĠMichel":10695,"itzerland":10696,"Max":10697,"PT":10698,"Sur":10699,"West":10700,"bn":10701,"à¤":10702,"Ġuk":10703,"Ġtv":10704,"angh":10705,"ĠSide":10706,"ĠClo":10707,"imental":10708,"ĠPers":10709,"ĠBowl":10710,"ĠDutch":10711,"ĠFresh":10712,"ĠVirtual":10713,"Ġscoring":10714,"Ġ72":10715,"ĠArgent":10716,"Ġdiscovery":10717,"Ġformula":10718,"Ġhandy":10719,"Ġcourts":10720,"Ġthinks":10721,"Ġintention":10722,"Ġparliament":10723,"ĠQuick":10724,"Ġcooked":10725,"Ġconsultant":10726,"Ġimmig":10727,"Ġvictim":10728,"Ġtransferred":10729,"Tech":10730,"Ġcrazy":10731,"Ġsponsor":10732,"ĠTemplate":10733,"ilation":10734,"Ġreferences":10735,"ĠSac":10736,"ĠSony":10737,"Ġgoogle":10738,"ĠMany":10739,"Ġbeans":10740,"ĠFle":10741,"Ġconsecut":10742,"Ġruling":10743,"Ġshr":10744,"plus":10745,"Ġ1980":10746,"Ġactively":10747,"Ġimpossible":10748,"Ġsecretary":10749,"Ġassault":10750,"Ġposter":10751,"Ġremoving":10752,"Ġbrick":10753,"ĠWhit":10754,"Ġdelivers":10755,"Ġpointed":10756,"Ġlawn":10757,"Ġprivile":10758,"Ġcontractor":10759,"Ġtexture":10760,"Ġdepartments":10761,"Ġtrusted":10762,"ĠMagic":10763,"ĠSurvey":10764,"ixtures":10765,"Ġshelves":10766,"ĠPanel":10767,"Ġarrangements":10768,"Ġincredibly":10769,"Ġenthusi":10770,"Port":10771,"Ã¢":10772,"Ġbout":10773,"alyst":10774,"Ġhide":10775,"ĠChen":10776,"ĠAw":10777,"ĠMand":10778,"Ġbeef":10779,"adi":10780,"Ġstuck":10781,"ĠRace":10782,"ĠLyn":10783,"ĠWine":10784,"ĠNE":10785,"Ġplot":10786,"ĠInn":10787,"ĠInnovation":10788,"Ġresolve":10789,"Ġperf":10790,"Ġdisk":10791,"Ġpersonality":10792,"ĠScient":10793,"ĠIndex":10794,"irmingham":10795,"Ġcalm":10796,"Ġfacebook":10797,"ĠWorks":10798,"ĠPortland":10799,"Ġframes":10800,"Ġdeclared":10801,"ĠVisual":10802,"Ġglobe":10803,"ĠNether":10804,"Ġobviously":10805,"Ġdefeat":10806,"Ġsoup":10807,"UE":10808,"aft":10809,"bird":10810,"Ġtact":10811,"rer":10812,"Ġtherap":10813,"isms":10814,"Ġoz":10815,"Ġrect":10816,"ĠSource":10817,"ĠSett":10818,"cend":10819,"ĠBenef":10820,"Ġmakeup":10821,"Ġindia":10822,"Ġdonations":10823,"Ġheadquarters":10824,"annah":10825,"enny":10826,"Ġlegit":10827,"Ġaffairs":10828,"ĠMcK":10829,"Ġdownloaded":10830,"ĠHarris":10831,"Ġengineer":10832,"borough":10833,"holder":10834,"Ġsettlement":10835,"Ġacquire":10836,"Ġattempts":10837,"Ġstylish":10838,"Ġgathering":10839,"Ġveteran":10840,"ĠFederation":10841,"Bo":10842,"Br":10843,"HD":10844,"Id":10845,"UK":10846,"Ġtags":10847,"Ġbomb":10848,"Ġloop":10849,"ĠIM":10850,"ĠIowa":10851,"urches":10852,"ader":10853,"ĠRome":10854,"ĠGreece":10855,"emed":10856,"Ġvoc":10857,"001":10858,"Ġplates":10859,"ordon":10860,"Ġunlock":10861,"Ġquery":10862,"plant":10863,"Ġroots":10864,"Ġpeak":10865,"Web":10866,"cope":10867,"ĠPhD":10868,"ĠPhill":10869,"Product":10870,"ĠMcG":10871,"Ġexistence":10872,"Ġroutes":10873,"Donald":10874,"Ġclinic":10875,"Ġcoconut":10876,"Ġfacilitate":10877,"Ġsexual":10878,"))":10879,"AG":10880,"Har":10881,"Ġske":10882,"Ġdash":10883,"ĠSi":10884,"ĠDra":10885,"ĠDNA":10886,"ĠHop":10887,"ĠHub":10888,"ĠLarge":10889,"ĠWW":10890,"ĠGi":10891,"emet":10892,"osph":10893,"Ġaccuracy":10894,"Ġminimal":10895,"Ġcustomized":10896,"Ġslot":10897,"Ġcapability":10898,"ARD":10899,"roduction":10900,"Ġagreements":10901,"Ġautomated":10902,"Ġinspire":10903,"Ġstrengthen":10904,"Ġmechanical":10905,"Ġcorresponding":10906,"Ġsubsequent":10907,"Ġdivided":10908,"tic":10909,"uly":10910,"inth":10911,"Ġpuzz":10912,"Ġmit":10913,"ĠCulture":10914,"Ġgender":10915,"ĠBE":10916,"ĠDur":10917,"ĠHas":10918,"rices":10919,"Ġ66":10920,"Ġkeen":10921,"Ġcurriculum":10922,"ĠLeon":10923,"ĠMaria":10924,"Ġgrants":10925,"ĠCarib":10926,"mediate":10927,"scape":10928,"Ġfloors":10929,"Ġaudit":10930,"Ġcommonly":10931,"Ġlicence":10932,"reedom":10933,"Ġstruck":10934,"Ġrobust":10935,"Ġcasual":10936,"Ġconfirmation":10937,"Ġrepeat":10938,"ĠCasino":10939,"ĠToyota":10940,"?âĢĿ":10941,"Paul":10942,"dis":10943,"disc":10944,"Ġ\\":10945,"Ġmaj":10946,"rock":10947,"Ġlatter":10948,"ĠMath":10949,"ĠIce":10950,"ĠPas":10951,"Ġstood":10952,"ĠFollow":10953,"ĠHoll":10954,"ĠGR":10955,"ĠGive":10956,"eman":10957,"Ġexec":10958,"Ġchronic":10959,"cca":10960,"Ġpron":10961,"Ġraces":10962,"rowse":10963,"Ġstudied":10964,"Ġsecured":10965,"ĠDeal":10966,"Ġtransformation":10967,"Ġexplos":10968,"plex":10969,"Ġpossess":10970,"rises":10971,"Ġdocumentary":10972,"Ġcelebrated":10973,"Ġcontributed":10974,"Ġtimely":10975,"Ġbulk":10976,"Ġranking":10977,"Ġrecycling":10978,"ĠFloor":10979,"ĠKentucky":10980,"Ġjunior":10981,"Bre":10982,"Sorry":10983,"iology":10984,"ui":10985,"orce":10986,"ouble":10987,"Ġduration":10988,"ĠMC":10989,"ĠBL":10990,"ĠFR":10991,"Ġconclusion":10992,"ĠHair":10993,"isted":10994,"Ġsear":10995,"aki":10996,"iper":10997,"Ġneuro":10998,"ĠKings":10999,"aware":11000,"Ġshouldn":11001,"ottage":11002,"ĠManual":11003,"Ġoperators":11004,"Ġselecting":11005,"ITY":11006,"Ġstronger":11007,"Ġvacuum":11008,"Ġburning":11009,"Ġscholarship":11010,"inema":11011,"Direct":11012,"Feb":11013,"kers":11014,"erals":11015,"Ġfired":11016,"ĠSab":11017,"ĠCM":11018,"Ġbearing":11019,"ĠRain":11020,"ĠRoc":11021,"ĠHo":11022,"ĠLiverpool":11023,"ĠGB":11024,"ĠStew":11025,"Ġdisaster":11026,"ĠYellow":11027,"ĠThrough":11028,"blem":11029,"Ġguides":11030,"Ġdecre":11031,"Ġformation":11032,"Ġdirectors":11033,"Ġstreaming":11034,"Ġmeters":11035,"Ġemployed":11036,"Ġgrounds":11037,"Ġcooling":11038,"Ġembed":11039,"Contin":11040,"Ġobserved":11041,"ĠMississ":11042,"ĠBerlin":11043,"info":11044,"iere":11045,"Ġfing":11046,"Ġpoverty":11047,"aro":11048,"user":11049,"ĠBor":11050,"ĠFC":11051,"ĠEc":11052,"ĠUC":11053,"ĠTheir":11054,"Ġrecru":11055,"Ġ57":11056,"ĠThings":11057,"ologists":11058,"Ġfinds":11059,"Ġ05":11060,"Health":11061,"Ġlegacy":11062,"Ġterminal":11063,"ORT":11064,"ASH":11065,"Adv":11066,"ĠHoward":11067,"Ġdealer":11068,"Ġrecommendation":11069,"Ġpriced":11070,"Ġseller":11071,"rategy":11072,"Ġloaded":11073,"ĠArchives":11074,"Address":11075,"Ġsurprising":11076,"Ġeliminate":11077,"ĠFriends":11078,"Ġinventory":11079,"Ġcomplicated":11080,"March":11081,"WA":11082,"cow":11083,"Ñķ":11084,"onia":11085,"Ġcub":11086,"Ġhip":11087,"Ġgreet":11088,"olas":11089,"raid":11090,"ĠIts":11091,"kee":11092,"ĠLib":11093,"Ġshipped":11094,"Ġnearest":11095,"Ġcloth":11096,"ĠInv":11097,"âĢĿ)":11098,"phan":11099,"Ġencounter":11100,"ĠGrade":11101,"Business":11102,"LP":11103,"Never":11104,"dam":11105,"pany":11106,"Ġic":11107,"itations":11108,"Ġhiring":11109,"ĠSix":11110,"rac":11111,"ĠTar":11112,"Ġstops":11113,"ĠDining":11114,"iform":11115,"ĠHind":11116,"Ġ(\"":11117,"Ġvinyl":11118,"ĠNik":11119,"Ġnotification":11120,"Ġkilling":11121,"pled":11122,"olds":11123,"Ġinvention":11124,"ĠShipping":11125,"ĠArk":11126,"Ġdecrease":11127,"Ġediting":11128,"ĠAlabama":11129,"Ġcareful":11130,"Ġamongst":11131,"Ġcontractors":11132,"Ġprotecting":11133,"Ġcharacteristics":11134,"ĠClear":11135,"Ġinstruments":11136,"Ġefficiently":11137,"ĠEconomics":11138,"Ġconsecutive":11139,"/.":11140,"atoes":11141,"Ġpension":11142,"Ġpdf":11143,"anning":11144,"Ġdess":11145,"Ġdough":11146,"Ġhood":11147,"ĠMoore":11148,"ĠBR":11149,"ĠFalls":11150,"abs":11151,"ĠNash":11152,"love":11153,"ocracy":11154,"Ġcomposition":11155,"Ġspa":11156,"ĠDean":11157,"shirt":11158,"Ġretain":11159,",,,":11160,"Ġpasses":11161,"ĠAppl":11162,"Ġversus":11163,"Ġfastest":11164,"Ġmountains":11165,"Ġimplementing":11166,"Ġcyber":11167,"Ġadvantages":11168,"Ġsuffer":11169,"elligent":11170,"ĠCertified":11171,"Ġlaboratory":11172,"Ġfleet":11173,"Congratulations":11174,"Care":11175,"Dem":11176,"PH":11177,"Put":11178,"SM":11179,"count":11180,"your":11181,"Ġ!!":11182,"Ġtied":11183,"Ġtissue":11184,"Ġsought":11185,"Ġtheatre":11186,"edar":11187,"ĠCart":11188,"Ġnations":11189,"idal":11190,"ĠMun":11191,"ĠBull":11192,"erse":11193,"ĠFine":11194,"Ġdeput":11195,"oples":11196,"Ġ68":11197,"ificates":11198,"Ġblind":11199,"Ġsurge":11200,"Ġintellectual":11201,"ĠAndre":11202,"scale":11203,"Ġzip":11204,"Ġrepresentation":11205,"Ġrecognised":11206,"Ġpremier":11207,"Ġmassage":11208,"Anyone":11209,"Ġmeaningful":11210,"Ġultra":11211,"Ġcomplaints":11212,"Ġadopt":11213,"ĠStrateg":11214,"Ġchampionship":11215,"ĠAntonio":11216,"Ġoverwhel":11217,"National":11218,"XX":11219,"bered":11220,"hew":11221,"Ġcats":11222,"Ġfitted":11223,"Ġbin":11224,"Ġmelt":11225,"Ġlady":11226,"Ġgains":11227,"eland":11228,"ĠBachelor":11229,"Ġreservation":11230,"Ġworker":11231,"Ġaggreg":11232,"Ġemissions":11233,"lando":11234,"ĠDeep":11235,"Ġdesignated":11236,"Ġretired":11237,"Ġchildhood":11238,"Ġfuneral":11239,"Ġgenerous":11240,"ĠResource":11241,"Ġtestim":11242,"asket":11243,"ĠHowever":11244,"ĠArticle":11245,"Ġanswered":11246,"Ġarrangement":11247,"Ġuploaded":11248,"ĠIslam":11249,"onymous":11250,"Ġterritory":11251,"ĠIndonesia":11252,"2000":11253,"?.":11254,"jan":11255,"Ġ^":11256,"Ġbands":11257,"Ġdrives":11258,"omatic":11259,"rot":11260,"ĠCateg":11261,"otation":11262,"ĠTower":11263,"ĠTony":11264,"amous":11265,"ĠBright":11266,"ĠFashion":11267,"ĠGA":11268,"agu":11269,"Ġabstract":11270,"asty":11271,"Ġouts":11272,"Ġoutlet":11273,"Ġdisabled":11274,"ounced":11275,"Ġmodify":11276,"Ġartwork":11277,"Ġdefence":11278,"lishing":11279,"Ġaddressed":11280,"Ġqualify":11281,"ĠPalace":11282,"Ġcaptured":11283,"Ġintegrate":11284,"Ġexercises":11285,"Ġappreciated":11286,"Ġsustainability":11287,"Ġabsolute":11288,"Ġsequence":11289,"Ġunexpected":11290,"Green":11291,"Link":11292,"tage":11293,"ref":11294,"oning":11295,"Ġpizza":11296,"Ġmush":11297,"Ġreverse":11298,"ĠFer":11299,"ĠWolf":11300,"ĠNH":11301,"Ġanymore":11302,"endant":11303,"ĠAli":11304,"Ġprocessor":11305,"Ġobl":11306,"Ġeffectiveness":11307,"ĠMeet":11308,"Ġ1993":11309,"Ġoccurs":11310,"Ġattendance":11311,"ĠPeace":11312,"linary":11313,"Ġproposals":11314,"ĠScholars":11315,"Ġgraduated":11316,"Ġintegrity":11317,"ĠThompson":11318,"Ġscenes":11319,"ĠLuke":11320,"ĠBrooklyn":11321,"God":11322,"bes":11323,"Ġfare":11324,"Ġfiction":11325,"Ġmi":11326,"Ġhospitals":11327,"Ġrenown":11328,"Ġgam":11329,"ĠDid":11330,"ĠDays":11331,"ĠRisk":11332,"esty":11333,"ĠLess":11334,"ĠJess":11335,"ricts":11336,"issa":11337,"Ġassume":11338,"ĠDead":11339,"Ġshowcase":11340,"Ġadvised":11341,"Hey":11342,"Ġlaundry":11343,"Ġcreativity":11344,"ĠNev":11345,"Ġcombat":11346,"Ġmanufactured":11347,"ĠEditor":11348,"ĠPrep":11349,"Ġsixth":11350,"Ġdecline":11351,"Ġarranged":11352,"ĠAlexander":11353,"ĠEntertainment":11354,"Ġpassionate":11355,"Currently":11356,"Ġfranchise":11357,"(),":11358,"gow":11359,"hh":11360,"iop":11361,"name":11362,"vens":11363,"ĠCV":11364,"ello":11365,"owed":11366,"Ġstom":11367,"ĠGPS":11368,"ĠJava":11369,"ĠKal":11370,"izations":11371,"ĠVit":11372,"ibl":11373,"undle":11374,"owners":11375,"Ġreligion":11376,"Ġguilty":11377,"Ġartificial":11378,"Ġfundamental":11379,"white":11380,"Ġnecessarily":11381,"Ġdepot":11382,"ĠJean":11383,"Ġmeasurement":11384,"ĠLabour":11385,"Ġstruggling":11386,"ĠDemocrats":11387,"Ġconstructed":11388,"President":11389,"di":11390,"game":11391,"kg":11392,"ni":11393,"Ġtent":11394,"Ġpets":11395,"Ġhill":11396,"Ġhunting":11397,"etooth":11398,"ĠMB":11399,"ĠMi":11400,"ĠTrib":11401,"ĠTarget":11402,"ĠDE":11403,"ĠDress":11404,"ĠRow":11405,"Ġheater":11406,"ĠEarly":11407,"Ġexempt":11408,"Ġexpense":11409,"Ġaband":11410,"ĠComb":11411,"Ġentert":11412,"Ġplacement":11413,"ditionally":11414,"ĠFlash":11415,"Ġdiscussing":11416,"umbai":11417,"ĠGrinding":11418,"ĠSwitzerland":11419,"Ġcelebrating":11420,"ĠKeep":11421,"Ġapartments":11422,"Ġcontroller":11423,"Ġcompliment":11424,"emetery":11425,"Access":11426,"FP":11427,"Tom":11428,"hr":11429,"mg":11430,"school":11431,"orous":11432,"ĠSnow":11433,"ĠMall":11434,"Ġbeaches":11435,"Ġstem":11436,"ĠRules":11437,"Ġweigh":11438,"ĠGram":11439,"ĠNat":11440,"andel":11441,"andra":11442,"Ġpermitted":11443,"inkle":11444,"anches":11445,"Ġshowc":11446,"Ġannually":11447,"Ġresulted":11448,"ipper":11449,"Ġoldest":11450,"Ġmarine":11451,"urchase":11452,"Ġmachinery":11453,"Ġhopefully":11454,"Ġpresidential":11455,"News":11456,"Ġabsence":11457,"Ġmistake":11458,"Ġrapidly":11459,"otherapy":11460,"Ġathletes":11461,"ĠNetherlands":11462,"700":11463,"FR":11464,"IX":11465,"NOT":11466,"SO":11467,"eing":11468,"uv":11469,"vd":11470,"Ġfake":11471,"Ġfruits":11472,"omer":11473,"ĠSU":11474,"ĠCow":11475,"ĠDak":11476,"Ġlend":11477,"Ġspare":11478,"Ġcoaches":11479,"Ġ62":11480,"Ġ''":11481,"ashing":11482,"ĠAnimal":11483,"ĠQual":11484,"Ġvalve":11485,"Ġrestoration":11486,"Ġletting":11487,"Review":11488,"Ġdemo":11489,"Ġmultip":11490,"prof":11491,"ĠDoctor":11492,"ĠSecret":11493,"ĠCrim":11494,"ĠRecord":11495,"ĠWorkshop":11496,"Plus":11497,"Ġapplies":11498,"Ġindicates":11499,"Ġbatteries":11500,"Ġcoastal":11501,"ĠDefense":11502,"Ġdiagnosis":11503,"ĠTokyo":11504,"anghai":11505,"Creat":11506,"Ext":11507,"Long":11508,"Super":11509,"such":11510,"test":11511,"Ġq":11512,"Ġpione":11513,"Ġbub":11514,"ĠSustain":11515,"Ġonions":11516,"amel":11517,"Ġalter":11518,"outheast":11519,"ĠRidge":11520,"Ġ110":11521,"ĠWriting":11522,"ĠGT":11523,"Ġships":11524,"osystem":11525,"ĠJoint":11526,"Ġbuttons":11527,"Ġprev":11528,"ĠAlan":11529,"Ġcrushers":11530,"Ġcharging":11531,"Ġcorporation":11532,"ĠPhoenix":11533,"Ġoperates":11534,"Ġparagraph":11535,"ĠEdward":11536,"Ġinspiring":11537,"ĠGreater":11538,"ĠCampus":11539,"Question":11540,"trans":11541,"ĠMaine":11542,"Ġvendors":11543,"Besides":11544,"North":11545,"Right":11546,"ï½":11547,"inars":11548,"health":11549,"ishers":11550,"also":11551,"Ġnail":11552,"children":11553,"ĠME":11554,"ĠMas":11555,"ĠPresent":11556,"Ġstopping":11557,"ĠDise":11558,"ĠGulf":11559,"antry":11560,"oca":11561,"acle":11562,"Ġworkforce":11563,"avan":11564,"Ġproduces":11565,"iously":11566,"ĠProdu":11567,"Ġinspect":11568,"Ġhanded":11569,"Ġpassenger":11570,"ippi":11571,"Ġlawyers":11572,"Ġexploration":11573,"ĠCompanies":11574,"Shop":11575,"Ġbrace":11576,"Ġsleeping":11577,"Help":11578,"Ġvenues":11579,"ĠAudio":11580,"Ġodd":11581,"Ġrestrictions":11582,"ĠCommunication":11583,"ĠUtah":11584,"Ġtomato":11585,"allel":11586,"Ġagriculture":11587,"ĠAthlet":11588,"reach":11589,"Ġtheft":11590,"Ġwing":11591,"aration":11592,"Ġtoys":11593,"Ġrely":11594,"ĠMasters":11595,"ĠTools":11596,"ĠBO":11597,"ĠBond":11598,"ĠRick":11599,"aco":11600,"Ġje":11601,"Ġoverl":11602,"Ġcheaper":11603,"ĠClient":11604,"Ġdonated":11605,"gged":11606,"lessly":11607,"boards":11608,"Online":11609,"Ġhearts":11610,"Ġprintable":11611,"Ġdamages":11612,"Photo":11613,"ĠCleveland":11614,"Ġsoldiers":11615,"Ġachievement":11616,"ĠCommissioner":11617,"ĠPlayer":11618,"Ġaccompan":11619,"Ġdenied":11620,"ĠDetroit":11621,"Instead":11622,"ĠFactory":11623,"Ġhesitate":11624,"Ġgenuine":11625,"Has":11626,"Located":11627,"Mult":11628,"gun":11629,"Ġsoccer":11630,"atar":11631,"Ġloud":11632,"Ġnick":11633,"Ġonion":11634,"otype":11635,"ĠBirmingham":11636,"ĠDim":11637,"Ġcone":11638,"Ġexists":11639,"Ġdeeper":11640,"Ġcha":11641,"Ġoutfit":11642,"Ġ59":11643,"Ġtwenty":11644,"Ġprinciple":11645,"Ġacres":11646,"Ġlasting":11647,"Ġprofits":11648,"Ġeastern":11649,"Ġ180":11650,"Ġpresentations":11651,"Ġdeeply":11652,"Ġinitially":11653,"ĠHamilton":11654,"Ġinvolvement":11655,"ĠChelsea":11656,"1000":11657,"Ms":11658,"Ser":11659,"Ġtar":11660,"Ġtheater":11661,"Ġcant":11662,"Ġfert":11663,"Ġpit":11664,"Ġtoler":11665,"Ġhired":11666,"ĠSlo":11667,"ĠAren":11668,"ĠRS":11669,"ĠWol":11670,"Ġflags":11671,"arma":11672,"Ġbooth":11673,"Ġoptional":11674,"annon":11675,"attan":11676,"Ġputs":11677,"aneous":11678,"Ġ1991":11679,"Ġseparately":11680,"ĠYears":11681,"Ġgraduates":11682,"Ġfairly":11683,"ĠVeh":11684,"Ġharvest":11685,"Ġï¿½":11686,"ĠFaculty":11687,"Ġjewelry":11688,"Ġtackle":11689,"Ġemphasis":11690,"Ġrecruitment":11691,"ustralia":11692,"igenous":11693,"urisd":11694,"Gen":11695,"Life":11696,"Ps":11697,"base":11698,"Ġtennis":11699,"Ġwines":11700,"around":11701,"Ġdad":11702,"âĢĭ":11703,"ching":11704,"ĠBear":11705,"ĠBah":11706,"ĠBuck":11707,"isting":11708,"ĠElement":11709,"emade":11710,"Ġexpend":11711,"Ġdose":11712,"ptember":11713,"obb":11714,"azed":11715,"lett":11716,"plement":11717,"aintenance":11718,"ĠAndy":11719,"Ġopposed":11720,"ospel":11721,"opper":11722,"Ġ1992":11723,"Ġpurchases":11724,"ĠBarcelona":11725,"Ġprints":11726,"Ġperiods":11727,"ĠValue":11728,"Ġexperiencing":11729,"Ġdecorative":11730,"Ġdeparture":11731,"ĠPalm":11732,"Ġpremises":11733,"ĠJustin":11734,"Ġnutri":11735,"ĠSafe":11736,"Ġadoption":11737,"ĠJudge":11738,"ĠMulti":11739,"Profess":11740,"BB":11741,"BER":11742,"Key":11743,"SH":11744,"Sch":11745,"Sun":11746,"mad":11747,"maker":11748,"selling":11749,"ï¼":11750,"Ġtired":11751,"Ġsust":11752,"Ġsized":11753,"Ġfiscal":11754,"Ġbio":11755,"Ġholes":11756,"Ġrenov":11757,"ĠSurg":11758,"ĠCab":11759,"ĠCars":11760,"amon":11761,"ĠPil":11762,"ĠPod":11763,"ĠDrug":11764,"Ġcongr":11765,"Ġoral":11766,"ĠHung":11767,"Ġrustic":11768,"ĠOd":11769,"ĠâĢĿ":11770,"ivities":11771,"perform":11772,"Ġcomprises":11773,"ĠVi":11774,"ĠChi":11775,"Ġrecon":11776,"ĠAdams":11777,"Ġdistingu":11778,"Ġapplicants":11779,"Ġcontacted":11780,"Ġclaiming":11781,"ĠAssociates":11782,"check":11783,"ĠLawrence":11784,"guard":11785,"Ġglasses":11786,"Ġhybrid":11787,"ĠDublin":11788,"Discussion":11789,"Due":11790,"har":11791,"lon":11792,"mill":11793,"Ġsoci":11794,"Ġwisdom":11795,"Ġcow":11796,"Ġbunch":11797,"oline":11798,"chair":11799,"ĠTips":11800,"ĠRing":11801,"ĠFish":11802,"ĠHug":11803,"ĠOm":11804,"icking":11805,"Ġscal":11806,"Ġscroll":11807,"Ġovercome":11808,"Ġovernight":11809,"ricane":11810,"ancell":11811,"Ġmodules":11812,"ĠTea":11813,"ĠAlb":11814,"Ġorganize":11815,"ristol":11816,"owship":11817,"ĠÂ°":11818,"Ġ:)":11819,"Share":11820,"Ġresponses":11821,"Ġmedication":11822,"Ġimpression":11823,"Ġliterally":11824,"Ġconcentration":11825,"Ġbesides":11826,"ĠIdent":11827,"ĠBathroom":11828,"Ġwarned":11829,"ĠMovie":11830,"ĠCaribbean":11831,".).":11832,"Air":11833,"NG":11834,"PO":11835,"rin":11836,"rett":11837,"Ġslic":11838,"Ġbass":11839,"icut":11840,"Ġdil":11841,"racle":11842,"ĠPaint":11843,"ĠGib":11844,"Ġrecall":11845,"Ġdetection":11846,"ĠAnna":11847,"Ġreceipt":11848,"ĠSpot":11849,"Ġfeelings":11850,"Ġelectro":11851,"Ġhomeless":11852,"Ġimpacts":11853,"Ġpaintings":11854,"Ġafraid":11855,"Ġsubstance":11856,"ĠBrexit":11857,"ĠSuite":11858,"ĠPinterest":11859,"Ġfulfill":11860,"ython":11861,"Ġsurfaces":11862,"Ġtomatoes":11863,"Ġsubstantial":11864,"ĠBaltimore":11865,"Ġunusual":11866,"June":11867,"even":11868,"have":11869,"Ġtum":11870,"Ġarom":11871,"ndrome":11872,"Ġpour":11873,"Ġtoy":11874,"Ġine":11875,"Ġmarch":11876,"Ġmakers":11877,"asion":11878,"Ġhol":11879,"ĠCome":11880,"ĠCitiz":11881,"Ġaluminum":11882,"abis":11883,"ighters":11884,"ĠJoh":11885,"Ġtender":11886,"Ġqueries":11887,"Ġarmed":11888,"Ġattractions":11889,"Ġdefect":11890,"ormal":11891,"Ġfocuses":11892,"Ġbreaks":11893,"Ġextraordinary":11894,"elta":11895,"Ġexecution":11896,"ĠMetro":11897,"addle":11898,"Ġenhanced":11899,"ĠTemple":11900,"Ġnominated":11901,"atinum":11902,"ĠUkraine":11903,"uisine":11904,"ĠAfghanistan":11905,"Ġprestigious":11906,"Michael":11907,"],":11908,"ponse":11909,"orse":11910,"orneys":11911,"Ġfer":11912,"inge":11913,"Ġber":11914,"Ġink":11915,"omes":11916,"asgow":11917,"enter":11918,"ĠTam":11919,"uru":11920,"ĠHamp":11921,"ĠNA":11922,"Ġshade":11923,"Ġplacing":11924,"Ġneutral":11925,"ibration":11926,"rowave":11927,"Ġlocate":11928,"Ġsmoking":11929,"ĠExcell":11930,"Ġstrange":11931,"Ġgenerations":11932,"Ġbroker":11933,"Ġpresenting":11934,"Ġdried":11935,"Ġlanding":11936,"ACE":11937,"Ġexamine":11938,"Ġfalls":11939,"ĠConsumer":11940,"addy":11941,"Ġanalytics":11942,"Ġcitizen":11943,"ĠCosta":11944,"Ġspoken":11945,"Police":11946,"ĠHawaii":11947,"likely":11948,"Ang":11949,"Gra":11950,"Met":11951,"Opt":11952,"PD":11953,"cery":11954,"called":11955,"uj":11956,"vation":11957,"wing":11958,"Ġfed":11959,"Ġmart":11960,"Ġdup":11961,"oting":11962,"ĠPier":11963,"Ġassemb":11964,"ĠRice":11965,"ĠWa":11966,"umbers":11967,"anth":11968,"ĠOtt":11969,"acco":11970,"ĠVac":11971,"ĠYoga":11972,"Ġpeer":11973,"itty":11974,"ĠComplete":11975,"Ġstartup":11976,"ahoo":11977,"Ġartistic":11978,"ĠPlatform":11979,"Ġseasonal":11980,"Ġantib":11981,"ĠEdge":11982,"Unfortunately":11983,"Ġdecorating":11984,"ĠSupply":11985,"Ġconsistently":11986,"Ġdressing":11987,"Ġcrafts":11988,"Ġestimates":11989,"Ġentrepreneur":11990,"ĠCompetition":11991,"Ġceramic":11992,"bally":11993,"bane":11994,"pace":11995,"Ġwaves":11996,"Ġox":11997,"Ġpupp":11998,"Ġbold":11999,"Ġdurable":12000,"ceive":12001,"imedia":12002,"ĠBio":12003,"unct":12004,"ĠDental":12005,"ĠGardens":12006,"ivals":12007,"rypt":12008,"ĠStrategy":12009,"iang":12010,"redited":12011,"encer":12012,"Class":12013,"Ġcollective":12014,"ĠPhotography":12015,"glas":12016,"ĠPremium":12017,"Ġconverted":12018,"ĠWalker":12019,"Ġexclusively":12020,"Hand":12021,"Russ":12022,"TON":12023,"first":12024,"mic":12025,"pin":12026,"rise":12027,"Ġameric":12028,"Ġcaf":12029,"Ġfauc":12030,"Ġdivers":12031,"Ġhitting":12032,"Ġelder":12033,"irs":12034,"ĠDocument":12035,"ĠGil":12036,"ĠGround":12037,"ĠEye":12038,"ocur":12039,"Ġabilities":12040,"Ġkits":12041,"Ġamen":12042,"Ġmemorial":12043,"Ġgrace":12044,"ĠExplore":12045,"ĠZone":12046,"ĠBeautiful":12047,"Ann":12048,"Ġpersonalized":12049,"Ġwrites":12050,"Ġcloset":12051,"Ġdrum":12052,"Ġaudiences":12053,"Ġarchive":12054,"Ġsatellite":12055,"Ġneighbour":12056,"Ġnuts":12057,"ĠSpec":12058,"Ġtemperatures":12059,"ĠMexican":12060,"Ġhumans":12061,"Ġfolk":12062,"Ġhabits":12063,"ĠLinked":12064,"quiries":12065,"ĠGhana":12066,"ĠEmergency":12067,"Experience":12068,"ĠIndependent":12069,"Discover":12070,"Euro":12071,"Lead":12072,"NEW":12073,"Rich":12074,"Sl":12075,"oil":12076,"pop":12077,"itle":12078,"Ġreven":12079,"ĠSens":12080,"ĠCurrent":12081,"igator":12082,"irates":12083,"ully":12084,"ĠGun":12085,"Ġchap":12086,"udge":12087,"ĠJaw":12088,"ĠUAE":12089,"Ġanytime":12090,"Ġpreced":12091,"Ġremem":12092,"ĠBeauty":12093,"party":12094,"roller":12095,"ACT":12096,"Ġanimation":12097,"Ġaccommodate":12098,"ĠJobs":12099,"ĠClinical":12100,"ĠTurkish":12101,"Four":12102,"Wed":12103,"gary":12104,"lar":12105,"ĠÐ":12106,"Ġtune":12107,"oni":12108,"Ġfur":12109,"Ġpics":12110,"Ġbatch":12111,"Ġnest":12112,"Ġnose":12113,"ĠAqu":12114,"ĠPink":12115,"ulu":12116,"Ġalike":12117,"ĠFal":12118,"Ġseating":12119,"ĠOnce":12120,"ostic":12121,"Ġknee":12122,"ĠVery":12123,"Ġ63":12124,"Ġ700":12125,"ierra":12126,"Ġbooked":12127,"Ġsignals":12128,"author":12129,"Stay":12130,"Ġpossibilities":12131,"ĠOriginal":12132,"ropri":12133,"Ġbarrel":12134,"Ġdestinations":12135,"Ġstrip":12136,"Ġappliances":12137,"ascular":12138,"ĠSuccess":12139,"Ġaccompany":12140,"Ġcolleges":12141,"Build":12142,"Ġcrystal":12143,"Ġnavigation":12144,"Ġvendor":12145,"Mac":12146,"Wow":12147,"hist":12148,"may":12149,"rary":12150,"service":12151,"ĠCream":12152,"idth":12153,"olo":12154,"Ġcongress":12155,"ĠGary":12156,"istical":12157,"ĠNich":12158,"ĠChoice":12159,"Ġunlimited":12160,"Ġaccum":12161,"Ġevolution":12162,"Ġ58":12163,"Information":12164,"wealth":12165,"Ġtransit":12166,"Ġfollowers":12167,"ĠScript":12168,"ĠAlaska":12169,"atherine":12170,"Ġslip":12171,"Ġprominent":12172,"oppers":12173,"Ġstayed":12174,"ĠSubst":12175,"Ġbrowse":12176,"Ġprecious":12177,"Ġromantic":12178,"Author":12179,"Ġvirus":12180,"ĠGirls":12181,"Ġtrigger":12182,"olitan":12183,")(":12184,"Alex":12185,"City":12186,"Pack":12187,"San":12188,"mi":12189,"million":12190,"isan":12191,"Ġpix":12192,"start":12193,"Ġloo":12194,"Ġey":12195,"ĠCit":12196,"ĠCAR":12197,"Ġgotten":12198,"ĠMumbai":12199,"ĠTouch":12200,"ĠPad":12201,"ĠBee":12202,"abel":12203,"ĠNa":12204,"izont":12205,"ĠChart":12206,"Ġevil":12207,"ugg":12208,"loyd":12209,"beat":12210,"Ġheader":12211,"Ġpublicly":12212,"ommy":12213,"position":12214,"ĠPrincip":12215,"product":12216,"Ġcompetitors":12217,"Ġpleasant":12218,"ĠMorning":12219,"Ġconversations":12220,"Ġislands":12221,"Ġthreats":12222,"ruptcy":12223,"Ġdispute":12224,"Ġchemicals":12225,"Ġpursue":12226,"Ġdimensions":12227,"ĠRevolution":12228,"Ġinternationally":12229,"Speaking":12230,"Ġagricultural":12231,"101":12232,"PI":12233,"Sing":12234,"hu":12235,"Ġpaste":12236,"Ġpushing":12237,"Ġlobby":12238,"ĠBol":12239,"ĠDragon":12240,"Ġproport":12241,"rible":12242,"Their":12243,"ĠNort":12244,"ĠNep":12245,"rous":12246,"Ġjurisd":12247,"Ġdisabilities":12248,"Ġcoordin":12249,"okes":12250,"Ġsubmission":12251,"gging":12252,"Ġpossession":12253,"Ġequally":12254,"Ġofferings":12255,"itchell":12256,"Ġbeneficial":12257,"Ġfloating":12258,"Ġprizes":12259,"ĠImport":12260,"Ġspecifications":12261,"Ġrocks":12262,"Ġadjustable":12263,"Ġfrequent":12264,"ĠFrancis":12265,"doors":12266,"ĠCondition":12267,"Ġjacket":12268,"communic":12269,"has":12270,"hard":12271,"jamin":12272,"rt":12273,"Â´":12274,"inance":12275,"Ġsed":12276,"Ġwise":12277,"aria":12278,"Ġda":12279,"Ġdiameter":12280,"omin":12281,"ĠAy":12282,"ĠTotal":12283,"union":12284,"ĠEV":12285,"quer":12286,"Ġcompan":12287,"Ġenabling":12288,"ĠStre":12289,"ĠVision":12290,"Ġmanip":12291,"Ġperm":12292,"Ins":12293,"Ġinval":12294,"ĠDegree":12295,"swer":12296,"Ġauthorized":12297,"ĠAgent":12298,"Beautiful":12299,"Ġautomation":12300,"ĠSalt":12301,"ĠRussell":12302,"Ġlabels":12303,"Ġsnap":12304,"Ġexhibit":12305,"!!!!!!!!":12306,"ĠLicense":12307,"Ġkilomet":12308,"Ġremarkable":12309,"ĠCabinet":12310,"Ġbronze":12311,"Ġrenowned":12312,"ĠNevada":12313,"''":12314,"James":12315,"Micro":12316,"mons":12317,"ania":12318,"arity":12319,"Ġmg":12320,"stop":12321,"Ġlane":12322,"ctic":12323,"ĠTrip":12324,"ĠPra":12325,"ĠPick":12326,"Ġconventional":12327,"ĠGer":12328,"istent":12329,"Ġdisorder":12330,"amps":12331,"Ġcoins":12332,"rows":12333,"Ġrelate":12334,"ĠShot":12335,"Ġguided":12336,"Ġshoulder":12337,"ielder":12338,"Ġboats":12339,"Ġgrain":12340,"Ġsimult":12341,"working":12342,"ĠSpa":12343,"entials":12344,"333":12345,"Ġmeasuring":12346,"Ġautomotive":12347,"Ġmathemat":12348,"ĠBranch":12349,"ĠGraduate":12350,"Ġ1989":12351,"ijing":12352,"ĠRepublicans":12353,"Ġgovernor":12354,"Ġbegun":12355,"Ġhighlighted":12356,"Members":12357,"ĠValentine":12358,"BL":12359,"MD":12360,"Rob":12361,"SD":12362,"SU":12363,"Tw":12364,"lie":12365,"master":12366,"Ã¤":12367,"Ġcab":12368,"Ġfut":12369,"Ġpine":12370,"olen":12371,"verages":12372,"ĠPul":12373,"ĠBecause":12374,"ĠRBI":12375,"ĠHack":12376,"ĠNHS":12377,"quet":12378,"lop":12379,"Ġshaped":12380,"ĠOcc":12381,"Ġcomprom":12382,"Ġcomposed":12383,"shine":12384,"Soft":12385,"attery":12386,"ASE":12387,"Ġmarijuana":12388,"2007":12389,"ĠActive":12390,"Phot":12391,"Ġfallen":12392,"Ġtowns":12393,"Ġsuperb":12394,"Ġlayers":12395,"Ġpetition":12396,"Ġspeaks":12397,"Ġensures":12398,"Ġthermal":12399,"Ġsomewhat":12400,"Ġuniversal":12401,"Ġvitamin":12402,"Ġvessel":12403,"ĠDIY":12404,"FIG":12405,"Sk":12406,"Wind":12407,"fi":12408,"gie":12409,"Ġaest":12410,"Ġworn":12411,"Ġfitting":12412,"Ġoak":12413,"Ġbull":12414,"omed":12415,"roph":12416,"ĠSweet":12417,"ĠMaking":12418,"ĠIan":12419,"ĠIBM":12420,"ĠDal":12421,"essed":12422,"ĠLag":12423,"empl":12424,"ĠNob":12425,"Ġrally":12426,"Ġshapes":12427,"udes":12428,"Ġleisure":12429,"berries":12430,"Ġ350":12431,"Ġuniverse":12432,"ateral":12433,"ĠProp":12434,"Ġfinest":12435,"Ġhandles":12436,"Ġpassage":12437,"posium":12438,"ĠOrlando":12439,"ĠChristopher":12440,"Ġcamping":12441,"Ġharder":12442,"ICK":12443,"Being":12444,"Ġpicking":12445,"ĠIntel":12446,"Ġordinary":12447,"ĠOutdoor":12448,"Ġencouraging":12449,"Ġdatab":12450,"Ġloading":12451,"Image":12452,"ĠPRO":12453,"Ġrobot":12454,"ĠTourism":12455,"Ġutilize":12456,"Ġemotions":12457,"ĠLouisiana":12458,"Ġpregnancy":12459,"Ġinterpretation":12460,"Ġconsequences":12461,"MAN":12462,"NE":12463,"PG":12464,"aus":12465,"gments":12466,"Ġmolec":12467,"iciency":12468,"Ġdive":12469,"Ġgamb":12470,"ĠApart":12471,"ĠPap":12472,"ĠRoof":12473,"ĠLad":12474,"artz":12475,"ĠOH":12476,"ĠStainless":12477,"ĠVin":12478,"comfort":12479,"Ġ1970":12480,"aws":12481,"Ġ67":12482,"Ġactress":12483,"Ġ78":12484,"type":12485,"Ġexcite":12486,"Ġwallpaper":12487,"ĠAgain":12488,"Ġwalks":12489,"ĠAssociate":12490,"flix":12491,"Ġbottles":12492,"Ġpartnerships":12493,"Ġlosses":12494,"Ġdifficulty":12495,"ĠElectronic":12496,"ĠMadrid":12497,"Ġrelaxing":12498,"Ġfluid":12499,"break":12500,"ĠBasic":12501,"ĠMoscow":12502,"Ġsupervis":12503,"Ġfascinating":12504,"IGHT":12505,":)":12506,"BT":12507,"Pass":12508,"TD":12509,"gins":12510,"Ġfried":12511,"Ġtoxic":12512,"asures":12513,"raul":12514,"ĠPO":12515,"ĠBattle":12516,"ĠDriver":12517,"isticated":12518,"ĠEle":12519,"Ġchina":12520,"ivic":12521,"Ġjail":12522,"Ġproducers":12523,"Ġcoin":12524,"full":12525,"pring":12526,"Ġmemorable":12527,"Ġserial":12528,"Ġcareers":12529,"Ġrefers":12530,"ĠCommand":12531,"ĠTrue":12532,"Ġfewer":12533,"Ġphysician":12534,"Ġimpressed":12535,"Ġdrops":12536,"Ġsurrounded":12537,"Ġsponsors":12538,"Ġinvestigate":12539,"Ġdialogue":12540,"ĠPrize":12541,"Ġstomach":12542,"Jack":12543,"Vol":12544,"YY":12545,"nell":12546,"overs":12547,"some":12548,"writing":12549,"Ġcig":12550,"Ġbinding":12551,"rox":12552,"Ġreloc":12553,"eted":12554,"elve":12555,"ĠAid":12556,"ĠABC":12557,"ĠMix":12558,"ĠBris":12559,"ĠRange":12560,"ĠLang":12561,"ĠWright":12562,"ĠWelcome":12563,"riven":12564,"Ġdear":12565,"Ġshoe":12566,"Ġjam":12567,"ĠChicken":12568,"oba":12569,"ĠProduction":12570,"Ġrab":12571,"Ġinvoice":12572,"Ġcaring":12573,"ognitive":12574,"years":12575,"ĠGlen":12576,"OUR":12577,"onstruction":12578,"Ġinformations":12579,"Ġcontainers":12580,"Ġresponded":12581,"ĠReturn":12582,"ĠUsed":12583,"Ġurged":12584,"Ġnavigate":12585,"ĠWiFi":12586,"Ġspokesman":12587,"ĠAgriculture":12588,"ĠTaiwan":12589,"ĠQueensland":12590,"Ġgrateful":12591,"ĠRoberts":12592,"Jo":12593,"Sunday":12594,"Turn":12595,"cos":12596,"ections":12597,"pg":12598,"sor":12599,"vir":12600,"Ġtrib":12601,"itutes":12602,"Ġbell":12603,"ĠSel":12604,"ĠDraw":12605,"ĠGordon":12606,"Ġchic":12607,"ĠJoy":12608,"ĠChampion":12609,"ondition":12610,"Ġscar":12611,"International":12612,"Ġdeserve":12613,"Ġtray":12614,"shot":12615,"ooting":12616,"Ġpublications":12617,"âĢ¦..":12618,"Ġmargin":12619,"ĠAbu":12620,"Ġcultiv":12621,"ĠSkin":12622,"Ġlaunching":12623,"ĠCampaign":12624,"metic":12625,"Ġsatisfy":12626,"ĠWayne":12627,"Ġtroops":12628,"Ġcomprising":12629,"ĠRegistration":12630,"ĠMaterials":12631,"ĠPalestinian":12632,"Ġfundraising":12633,"Ġconjunction":12634,"Ġunderstood":12635,"Elect":12636,"Main":12637,"Sil":12638,"western":12639,"Ġties":12640,"Ġtropical":12641,"Ġbits":12642,"Ġhorses":12643,"ĠCOL":12644,"adows":12645,"ĠDry":12646,"ĠFro":12647,"ĠFeed":12648,"ĠNSW":12649,"ante":12650,"ĠJen":12651,"iph":12652,"Ġimper":12653,"Ġpert":12654,"rica":12655,"ĠUncateg":12656,"Ġconsolid":12657,"Ġattitude":12658,"Ġcurious":12659,"Ġcorpor":12660,"ĠBeck":12661,"aughters":12662,"ITE":12663,"ĠPerfect":12664,"Ġballs":12665,"ĠUlt":12666,"arency":12667,"install":12668,"Ġtuition":12669,"Ġrival":12670,"ĠAnalytics":12671,"Ġphenomen":12672,"COM":12673,"Su":12674,"kind":12675,"ument":12676,"Ġurg":12677,"Ġincl":12678,"Ġdrew":12679,"Ġlam":12680,"Ġgang":12681,"ĠAirl":12682,"imp":12683,"ĠBart":12684,"ĠBos":12685,"ĠDa":12686,"ĠLen":12687,"Ġheaven":12688,"ĠNS":12689,"rame":12690,"obs":12691,"gets":12692,"Ġeverybody":12693,"ĠiT":12694,"Ġformats":12695,"Ġretrie":12696,"ĠAdobe":12697,"ĠPlans":12698,"Ġdefensive":12699,"ĠBeat":12700,"ventions":12701,"Ġtrials":12702,"ĠGlasgow":12703,"Ġseparation":12704,"Ġaffecting":12705,"ĠCareer":12706,"Ġverify":12707,"Ġestablishing":12708,"ĠDetails":12709,"ĠOperations":12710,"Ġlamps":12711,"Ġpillow":12712,"Ġsubscribe":12713,"ĠTransportation":12714,"ĠLOVE":12715,"ĠQuestions":12716,"Est":12717,"NET":12718,"Yet":12719,"bay":12720,"Ġ000":12721,"onge":12722,"Ġinaug":12723,"Ġlounge":12724,"Ġgig":12725,"chron":12726,"ĠMt":12727,"ĠBapt":12728,"ifest":12729,"ĠFM":12730,"ĠEve":12731,"odium":12732,"ĠKid":12733,"Ġunlikely":12734,"Ġtrains":12735,"ango":12736,"Ġentities":12737,"Ġassured":12738,"Ġdonate":12739,"Ġspecialty":12740,"bey":12741,"attoo":12742,"Real":12743,"Ġpromised":12744,"ORK":12745,"Ġupdating":12746,"Ġholders":12747,"Ġmarble":12748,"ĠGray":12749,"Ġcollecting":12750,"Ġsurvive":12751,"Ġtroubles":12752,"ĠOfficial":12753,"Ġecosystem":12754,"ĠJonathan":12755,"Ġrejected":12756,"Ġdeputy":12757,"Sam":12758,"die":12759,"pub":12760,"Ġbol":12761,"ĠCrit":12762,"ĠAer":12763,"ĠBoot":12764,"ĠBristol":12765,"ĠHE":12766,"ĠHem":12767,"ĠLif":12768,"ĠWould":12769,"Ġrush":12770,"ĠOracle":12771,"ivan":12772,"Ġgover":12773,"ĠThird":12774,"anyon":12775,"chnology":12776,"ĠExcel":12777,"Ġrefused":12778,"Ġtries":12779,"ĠCarter":12780,"Ġmilit":12781,"ĠChef":12782,"Ġcombines":12783,"ĠHealthcare":12784,"ĠPartner":12785,"ĠCrime":12786,"USA":12787,"Ġradi":12788,"untary":12789,"Ġexecutives":12790,"Ġroller":12791,"Ġterrace":12792,"ĠRetail":12793,"Ġdramatic":12794,"ĠBoys":12795,"ĠConditions":12796,"ĠLegisl":12797,"ĠLaboratory":12798,"Ġvibrant":12799,"ĠBruce":12800,"Ġadequate":12801,"rapeut":12802,"Dist":12803,"Mat":12804,"Non":12805,"TI":12806,"mind":12807,"heart":12808,"orms":12809,"isodes":12810,"ĠSpect":12811,"cha":12812,"ĠMine":12813,"ĠTask":12814,"aman":12815,"uting":12816,"ĠBou":12817,"ĠBrid":12818,"ĠDig":12819,"ĠRAM":12820,"ĠFisher":12821,"Ġcomic":12822,"ĠLanka":12823,"ĠEL":12824,"Ġvou":12825,"Ġdeployment":12826,"acent":12827,"ogs":12828,"Ġquilt":12829,"Ġregime":12830,"ermarket":12831,"Ġpreserve":12832,"ĠWeight":12833,"Ġgrades":12834,"ĠPlastic":12835,"Ġpurple":12836,"Ġapplicant":12837,"Ġhappiness":12838,"Ġaffiliate":12839,"scar":12840,"ASS":12841,"ĠâĨ":12842,"Ġ1988":12843,"Ġburied":12844,"ĠReviews":12845,"OCK":12846,"ĠConstitution":12847,"Ġclimbing":12848,"Sometimes":12849,"ĠIntegr":12850,"Ġheavily":12851,"ĠAssessment":12852,"ĠMississippi":12853,"120":12854,"Ear":12855,"Google":12856,"Local":12857,"Mobile":12858,"Nice":12859,"Source":12860,"oT":12861,"path":12862,"rust":12863,"sim":12864,"sized":12865,"held":12866,"Ġtopped":12867,"iche":12868,"rose":12869,"Ġlibraries":12870,"ĠSud":12871,"ĠSession":12872,"Ġnode":12873,"chi":12874,"ĠMI":12875,"ĠMes":12876,"ĠFaith":12877,"ĠHat":12878,"ĠGa":12879,"ĠES":12880,"qual":12881,"Ġchurches":12882,"ĠKate":12883,"apse":12884,"acht":12885,"phalt":12886,"ĠComments":12887,"Ġsmell":12888,"develop":12889,"ĠAdvert":12890,"Ġ//":12891,"Ġgenerating":12892,"ĠReserved":12893,"Ġdisturb":12894,"exp":12895,"Ġearning":12896,"Ġcouples":12897,"Ġminds":12898,"ĠRecovery":12899,"boro":12900,"ĠWarren":12901,"Ġsettled":12902,"ĠDelivery":12903,"Ġcaptain":12904,"Ġcollaborative":12905,"EEE":12906,"Ġoccasions":12907,"Ġcalculated":12908,"Ġparameter":12909,"ĠFAQ":12910,"Ġaccompanied":12911,"900":12912,"PE":12913,"Rober":12914,"URE":12915,"lam":12916,"mel":12917,"writer":12918,"isers":12919,"Ġpushed":12920,"leans":12921,"eta":12922,"ĠSK":12923,"ifi":12924,"ĠFern":12925,"ĠHIV":12926,"ĠLaura":12927,"ĠGov":12928,"ĠEach":12929,"Ġvoices":12930,"ĠâĢĭ":12931,"inee":12932,"rylic":12933,"Ġoffensive":12934,"Ġtrails":12935,"Ġscrap":12936,"ishment":12937,"Ġ1960":12938,"Ġcolon":12939,"Ġwellness":12940,"Ġinstitute":12941,"cester":12942,"cedes":12943,"Ġintervention":12944,"ĠLeather":12945,"ĠExpo":12946,"Ġvalued":12947,"ONE":12948,"aneously":12949,"ĠStatement":12950,"Ġpasta":12951,"ĠPoland":12952,"ĠYorkshire":12953,"ĠAbd":12954,"Ġmeasured":12955,"Ġblocked":12956,"iffs":12957,"Ġtrucks":12958,"Ġsettle":12959,"Ġelsewhere":12960,"Ġepic":12961,"Ġviolation":12962,"Ġjudges":12963,"THE":12964,"ĠNorway":12965,"smith":12966,"small":12967,"Ġquoted":12968,"ĠKennedy":12969,"Ġsuspension":12970,"ĠTreatment":12971,"ittsburgh":12972,"Easy":12973,"Je":12974,"Made":12975,"School":12976,"Type":12977,"Ġouter":12978,"Ġsons":12979,"Ġwage":12980,"Ġwelfare":12981,"Ġbabies":12982,"Ġhiking":12983,"ĠCreate":12984,"oty":12985,"amine":12986,"ĠPool":12987,"ĠPump":12988,"ĠDifferent":12989,"ĠRio":12990,"ĠFirm":12991,"oooo":12992,"ĠNBA":12993,"achers":12994,"Ġsomehow":12995,"Ġcommod":12996,"Ġinstantly":12997,"Ġowns":12998,"Ġproductive":12999,"ĠCommons":13000,"Ġgeneric":13001,"Ġmeter":13002,"Char":13003,"2005":13004,"ĠRegister":13005,"ĠEdin":13006,"ĠArtist":13007,"Ġessentially":13008,"Ġretailers":13009,"ĠLeader":13010,"Ġdimension":13011,"ĠKhan":13012,"ĠConnecticut":13013,"ĠStatistics":13014,"Ġhammer":13015,"Ġvulnerable":13016,"ĠHistorical":13017,"ĠSugar":13018,"ND":13019,"ci":13020,"grow":13021,"nor":13022,"pal":13023,"wind":13024,"Ġfixtures":13025,"isen":13026,"Ġpond":13027,"Ġrewards":13028,"ĠSince":13029,"chant":13030,"ĠTun":13031,"Ġster":13032,"unal":13033,"Ġpropri":13034,"ĠHunter":13035,"ĠLanc":13036,"ĠNelson":13037,"Ġdozen":13038,"izard":13039,"Ġsoap":13040,"ountain":13041,"Ġunited":13042,"Ġunlike":13043,"hedral":13044,"encil":13045,"ĠAnim":13046,"ĠCollect":13047,"Ġcontacting":13048,"Ġpromo":13049,"anean":13050,"Ġbenefic":13051,"Ġsteady":13052,"Ġpopularity":13053,"Ġpromoted":13054,"Ġpromotional":13055,"ĠMadison":13056,"Ġethnic":13057,"Ġcomputing":13058,"ĠBloom":13059,"Ġblogging":13060,"ĠTitle":13061,"effective":13062,"Ġobligation":13063,"ĠDakota":13064,"110":13065,"NO":13066,"core":13067,"group":13068,"mate":13069,"si":13070,"uh":13071,"uy":13072,"woman":13073,"heat":13074,"Ġbicy":13075,"ede":13076,"Ġma":13077,"Ġmesh":13078,"omic":13079,"omas":13080,"ĠMT":13081,"ĠParent":13082,"ĠDest":13083,"Ġ130":13084,"ckets":13085,"than":13086,"opt":13087,"Ġadorable":13088,"ĠKay":13089,"ĠStra":13090,"acteria":13091,"Ġarc":13092,"version":13093,"White":13094,"Ġbranches":13095,"Ġhandled":13096,"Former":13097,"Ġvalley":13098,"Ġintense":13099,"Ġspecify":13100,"Ref":13101,"Head":13102,"Ġimportantly":13103,"Ġexpecting":13104,"Ġtreats":13105,"Ġsummit":13106,"Ġidentifying":13107,"ĠCorps":13108,"Ġtourists":13109,"ĠSimple":13110,"Ġburden":13111,"Ġdemanding":13112,"ĠNYC":13113,"Ġincorporate":13114,"Ġrecipient":13115,"ĠClinic":13116,"Ġroughly":13117,"ĠBudget":13118,"Ġsophisticated":13119,"usalem":13120,"ĠBarbara":13121,"ĠStewart":13122,"Group":13123,"father":13124,"Ġtort":13125,"Ġtribute":13126,"Ġcous":13127,"Ġtodd":13128,"Ġmigration":13129,"Ġdancing":13130,"stock":13131,"ete":13132,"ĠSL":13133,"Ġgently":13134,"otan":13135,"ĠBoth":13136,"illance":13137,"ĠRC":13138,"Ġconferences":13139,"ĠHans":13140,"ĠWik":13141,"rik":13142,"Ġheated":13143,"ĠGrey":13144,"ĠNOW":13145,"udson":13146,"ĠObs":13147,"Ġlear":13148,"astics":13149,"ipes":13150,"ĠKa":13151,"ĠStars":13152,"ĠVent":13153,"ĠIniti":13154,"ĠProceed":13155,"Ġbacking":13156,"Ġboots":13157,"Ġtempt":13158,"ĠAsk":13159,"Ġpotatoes":13160,"ĠHarvard":13161,"amboo":13162,"flu":13163,"ĠDisco":13164,"Organ":13165,"built":13166,"Ġpoetry":13167,"ĠThanksgiving":13168,"Ġterrorist":13169,"Ġpedest":13170,"ĠCrystal":13171,"Ġseniors":13172,"ĠCaptain":13173,"ĠBelgium":13174,"Figure":13175,"Mart":13176,"Such":13177,"Water":13178,"tw":13179,"onz":13180,"Ġcyl":13181,"Ġfrag":13182,"icity":13183,"asa":13184,"rogen":13185,"ĠCE":13186,"Ġgel":13187,"ĠIR":13188,"ĠBA":13189,"ĠFit":13190,"ĠFitness":13191,"ĠWard":13192,"ĠGM":13193,"ĠNike":13194,"Ġrings":13195,"resa":13196,"ĠOt":13197,"Ġcanvas":13198,"pert":13199,"Ġdoi":13200,"ervices":13201,"Ġknife":13202,"Ġtrash":13203,"web":13204,"ĠCompl":13205,"Ġ69":13206,"Ġassists":13207,"Ġdiscrim":13208,"Ġforming":13209,"Ġende":13210,"Ġbookmark":13211,"otta":13212,"Ġordering":13213,"retion":13214,"ĠDescription":13215,"ACH":13216,"ITH":13217,"ĠDeputy":13218,"Excellent":13219,"zech":13220,"ĠSwiss":13221,"ĠDesigns":13222,"ĠAnti":13223,"Ġdecorations":13224,"Ġtiming":13225,"Ġfantasy":13226,"Ġlawsuit":13227,"Ġestablishment":13228,"Ġluxurious":13229,"Ġimplications":13230,"ĠArabia":13231,"ĠProcessing":13232,"Ġproceedings":13233,"Ġallegedly":13234,"Ġdestroyed":13235,"Ġallegations":13236,"Ġcongrat":13237,"Gr":13238,"esis":13239,"Ġliver":13240,"ĠSAP":13241,"ĠSMS":13242,"ĠAle":13243,"ĠDrop":13244,"Ġalign":13245,"ĠFreedom":13246,"ĠHi":13247,"ĠLem":13248,"ĠNar":13249,"andal":13250,"ĠUpper":13251,"iplinary":13252,"ogy":13253,"ĠVPN":13254,"Ġworkout":13255,"Ġarbit":13256,"Ġamazon":13257,"Ġ77":13258,"Ġtransfers":13259,"ĠAlice":13260,"Ġgenerator":13261,"Ġinfect":13262,"Ġgranite":13263,"ĠTrack":13264,"Ġelectronics":13265,"Ġenjoys":13266,"ographical":13267,"ĠSteven":13268,"backs":13269,"Ġcookie":13270,"Ġinspir":13271,"ĠInterest":13272,"Ġreportedly":13273,"ĠIndustries":13274,"Ġdemonstrated":13275,"content":13276,"glass":13277,"ĠAddress":13278,"Ġvegetable":13279,"Ġadvisor":13280,"Ġfrozen":13281,"Ġinstructor":13282,"Available":13283,"October":13284,"Ġadventures":13285,"Aw":13286,"Friday":13287,"HO":13288,"Light":13289,"Offic":13290,"Rad":13291,"big":13292,"bank":13293,"lu":13294,"map":13295,"pher":13296,"rors":13297,"wer":13298,"itarian":13299,"robe":13300,"ĠShip":13301,"ĠSof":13302,"ĠCrown":13303,"ĠCultural":13304,"adise":13305,"Ġstove":13306,"Ġstadium":13307,"ĠFant":13308,"Ġhence":13309,"ĠNag":13310,"Ġmystery":13311,"Ġquarry":13312,"anga":13313,"Ġ61":13314,"Ġ73":13315,"Ġincidents":13316,"Ġedges":13317,"Ġworlds":13318,"ĠTeacher":13319,"ĠAlt":13320,"ĠPlaza":13321,"Ġconfidential":13322,"Ġlands":13323,"yler":13324,"Ġtaxi":13325,"chestra":13326,"Ġtexts":13327,"ĠSheet":13328,"ĠPortal":13329,"Ġcycling":13330,"Ġjudgment":13331,"Ġchemistry":13332,"ĠRobinson":13333,"Ġsurvived":13334,"Simply":13335,"ĠDomin":13336,"Ġsuspended":13337,"ĠUncategorized":13338,"!).":13339,"DE":13340,"July":13341,"Rest":13342,"green":13343,"hall":13344,"matic":13345,"zens":13346,"atics":13347,"itivity":13348,"Ġfrench":13349,"Ġfoster":13350,"icient":13351,"entry":13352,"Ġthro":13353,"stud":13354,"Ġlid":13355,"etics":13356,"ĠCold":13357,"ĠMuch":13358,"ĠMerc":13359,"ĠTab":13360,"Ġconcluded":13361,"ĠWant":13362,"ĠWorth":13363,"ĠWonder":13364,"Ġshades":13365,"nection":13366,"Ġ1987":13367,"Ġunderground":13368,"Ġ76":13369,"Ġplayoff":13370,"ĠShanghai":13371,"Ġrequiring":13372,"Ġ97":13373,"Ġretro":13374,"Ġoptical":13375,"ĠCole":13376,"ĠPrincess":13377,"Ġlogic":13378,"Ġassisted":13379,"Ġintroducing":13380,"Ġworthy":13381,"Ġqualifications":13382,"ĠButter":13383,"Meet":13384,"Ġgenetic":13385,"Ġconfigure":13386,"black":13387,"Ġpeaceful":13388,"Update":13389,"ĠBetter":13390,"Ġastron":13391,"ĠCraig":13392,"ĠKnowledge":13393,"Ġpregnant":13394,"ĠArena":13395,"ĠExcellence":13396,"ĠiTunes":13397,"?|":13398,"Ent":13399,"Fire":13400,"IAL":13401,"Lo":13402,"Yeah":13403,"eg":13404,"fr":13405,"wy":13406,"ergy":13407,"Ġpig":13408,"Ġpork":13409,"Ġpiano":13410,"Ġbust":13411,"ĠMills":13412,"ĠTut":13413,"ĠLakes":13414,"ĠWI":13415,"Ġdeleted":13416,"osa":13417,"ĠOri":13418,"Ġleak":13419,"tect":13420,"ĠVilla":13421,"Ġweren":13422,"Ġ1950":13423,"Ġregards":13424,"ificent":13425,"Ġwhereas":13426,"Ġmedal":13427,"enez":13428,"rentices":13429,"Ġpatent":13430,"rones":13431,"Ġpromises":13432,"Ġcertificates":13433,"Ġnonprofit":13434,"ĠParker":13435,"Ġdrill":13436,"ĠCorner":13437,"Ġantique":13438,"Ġfreel":13439,"Ġconducting":13440,"Connect":13441,"second":13442,"Ġadjusted":13443,"Ġproudly":13444,"Ġsurvival":13445,"uminium":13446,"Report":13447,"Ġrenewable":13448,"ĠDouglas":13449,"Small":13450,"ĠKenya":13451,"xygen":13452,"Provide":13453,"Ġacknowledge":13454,"ĠCamera":13455,"Ġprospects":13456,"ository":13457,"ĠAlberta":13458,"Ġentertaining":13459,"AV":13460,"Fun":13461,"Tim":13462,"Test":13463,"blo":13464,"cop":13465,"direct":13466,"two":13467,"Ġsits":13468,"Ġpy":13469,"anium":13470,"Ġinclusive":13471,"Ġdairy":13472,"ĠSin":13473,"Ġgre":13474,"Ġgem":13475,"Ġgross":13476,"ĠTher":13477,"ĠPerm":13478,"ĠDelta":13479,"ĠFan":13480,"ĠLan":13481,"Ġhell":13482,"ĠNZ":13483,"Ġcomposite":13484,"aph":13485,"Ġmyster":13486,"pling":13487,"Ġspir":13488,"Ġcargo":13489,"Ġreminder":13490,"Ġ98":13491,"Ġbrass":13492,"Ġreceives":13493,"ĠBefore":13494,"ĠBeijing":13495,"Ġinfection":13496,"Ġrestart":13497,"ĠBlues":13498,"Ġpromising":13499,"Ġhardly":13500,"Ġtemple":13501,"ĠEnjoy":13502,"Ġappearances":13503,"ĠIntelligence":13504,"Ġqualification":13505,"Ġsnack":13506,"ĠMorris":13507,"Ġsemester":13508,"Ġnationwide":13509,"ĠPayment":13510,"Blue":13511,"Ġpollution":13512,"Ġresistant":13513,"Perhaps":13514,"sheet":13515,"ĠCBD":13516,"ĠNASA":13517,"ĠRoute":13518,"depth":13519,"Ġnegotiations":13520,"raulic":13521,"HR":13522,"MR":13523,"lades":13524,"Ã±":13525,"Ġcaut":13526,"Ġmunicipal":13527,"Ġdoc":13528,"Ġdated":13529,"Ġlined":13530,"ĠSR":13531,"ĠSund":13532,"Ġeco":13533,"olester":13534,"ĠPent":13535,"ĠFell":13536,"ĠHire":13537,"ĠLisa":13538,"ĠWor":13539,"ĠGill":13540,"Ġseventh":13541,"ardo":13542,"Ġcompassion":13543,"inda":13544,"anship":13545,"cled":13546,"Ġmyth":13547,"Ġque":13548,"Ġprovin":13549,"othy":13550,"ussels":13551,"erness":13552,"Ġclosure":13553,"ĠIsa":13554,"ĠRespons":13555,"Ġslots":13556,"Ġlightweight":13557,"ĠTrain":13558,"scribe":13559,"Ġmovements":13560,"Ġpotato":13561,"ĠCheap":13562,"Show":13563,"Ġclosest":13564,"ĠBrun":13565,"Ġhonored":13566,"liminary":13567,"Ġdivorce":13568,"Ġdrove":13569,"Ġdropping":13570,"ĠVisit":13571,"ĠOrganic":13572,"Ġtowel":13573,"Ġrenewal":13574,"Remove":13575,"ĠChampionships":13576,"ĠUltra":13577,"Ġtasty":13578,"Ġtailored":13579,"Ġadvocacy":13580,"Ġcocktail":13581,"Ġsuddenly":13582,"Ġphrase":13583,"ĠAirlines":13584,"Browse":13585,"Ev":13586,"Fort":13587,"Power":13588,"Ver":13589,"fil":13590,"nn":13591,"su":13592,"Ġcuisine":13593,"itime":13594,"Ġfry":13595,"Ġbail":13596,"leading":13597,"Ġthy":13598,"Ġrevers":13599,"ĠSoul":13600,"ĠCoc":13601,"Ġgaining":13602,"ĠMitchell":13603,"ĠRent":13604,"Ġcomedy":13605,"ĠGab":13606,"logy":13607,"iev":13608,"Ġspell":13609,"Ġtricks":13610,"phant":13611,"Ġbeta":13612,"Ġassignment":13613,"auge":13614,"Ġfilters":13615,"Ġoptimal":13616,"Stand":13617,"Ġrealistic":13618,"afood":13619,"Therefore":13620,"ĠXP":13621,"ropract":13622,"ĠGuid":13623,"ournals":13624,"Additional":13625,"erald":13626,"2006":13627,"Ġsolving":13628,"ĠGriff":13629,"Ġaccepting":13630,"etta":13631,"Ġmounting":13632,"ĠProgramme":13633,"Ġadministrator":13634,"ĠBanking":13635,"Ġrolled":13636,"Ġcrossing":13637,"Ġ1985":13638,"Ġdeclined":13639,"Ġattempted":13640,"Ġrelaxed":13641,"Ġoccupied":13642,"Ġtuned":13643,"Ġpharmacy":13644,"Ġuncertain":13645,"ĠAdvisory":13646,"Ġpublisher":13647,"ĠBrothers":13648,"Ġwarehouse":13649,"Ġrefrigerator":13650,"ĠJerusalem":13651,"specific":13652,"ĠSettings":13653,"ĠNashville":13654,"BE":13655,"Given":13656,"HP":13657,"SI":13658,"Sever":13659,"great":13660,"orate":13661,"Ġwax":13662,"Ġfridge":13663,"ingo":13664,"Ġoct":13665,"Ġbarn":13666,"Ġdub":13667,"Ġhun":13668,"Ġhug":13669,"Ġhunt":13670,"ĠSER":13671,"Ġnerv":13672,"ĠBott":13673,"ĠBaker":13674,"ĠDipl":13675,"ĠRivers":13676,"mentia":13677,"ĠFra":13678,"ĠFly":13679,"ĠFive":13680,"ourcing":13681,"ĠLay":13682,"ĠNW":13683,"arten":13684,"thur":13685,"arer":13686,"ĠUb":13687,"Ġjazz":13688,"ĠKrist":13689,"ĠStage":13690,"ĠStorm":13691,"ĠVista":13692,"Ġappet":13693,"Ġ71":13694,"Ġreliability":13695,"Ġ83":13696,"azy":13697,"ĠHeights":13698,"ĠColomb":13699,"Ġmetab":13700,"Ġasks":13701,"Ġdemocr":13702,"ĠParks":13703,"castle":13704,"Ġcolorful":13705,"Ġacceptable":13706,"Ġworried":13707,"Ġrolls":13708,"Ġseeks":13709,"ĠGrace":13710,"Ġhospitality":13711,"Ġprecision":13712,"ĠMedicare":13713,"Ġrailway":13714,"ĠJefferson":13715,"ĠArchitecture":13716,"Ġtransparent":13717,"ĠNursing":13718,"ĠExhibition":13719,"NOTE":13720,"Ġamenities":13721,"Ġdatabases":13722,"ĠBrisbane":13723,"Bro":13724,"Fore":13725,"camp":13726,"pired":13727,"ugh":13728,"Ġsne":13729,"Ġcir":13730,"iterr":13731,"Ġfancy":13732,"isp":13733,"Ġhike":13734,"Ġhills":13735,"ĠeBay":13736,"ĠAch":13737,"igo":13738,"ĠMaj":13739,"ĠPE":13740,"ĠDuring":13741,"ĠRF":13742,"Ġshore":13743,"Ġplumbing":13744,"Ġresign":13745,"Ġtrace":13746,"Ġcolored":13747,"Ġvisibility":13748,"Ġprescription":13749,"aho":13750,"Ġreads":13751,"Ġmeditation":13752,"Ġcounties":13753,"Ġdistricts":13754,"ĠTrading":13755,"ĠFlat":13756,"Ġlinking":13757,"ropolitan":13758,"Ġtempor":13759,"Ġtablets":13760,"ĠGuest":13761,"ĠMechan":13762,"Ġwinds":13763,"Ġcompeting":13764,"Phil":13765,"Ġacceptance":13766,"Ġsuggestion":13767,"Ġdeaths":13768,"ĠEvans":13769,"Ġreplacing":13770,"ĠStandards":13771,"Ġcharts":13772,"ĠExtra":13773,"Ġforgotten":13774,"Ġderived":13775,"ĠManufacturing":13776,"Ġdefeated":13777,"Ġweapon":13778,"Ġmutual":13779,"ĠSusan":13780,"ĠUniversal":13781,"Again":13782,"Ġobligations":13783,"ĠCounsel":13784,"Ġfingers":13785,"ĠHampshire":13786,"Bring":13787,"GC":13788,"Live":13789,"Run":13790,"dings":13791,"ju":13792,"lad":13793,"uke":13794,"icular":13795,"strong":13796,"ĠCrow":13797,"ĠCBS":13798,"ĠCanyon":13799,"ushes":13800,"ĠMAR":13801,"ĠTodd":13802,"ĠBMW":13803,"ĠFat":13804,"Ġorth":13805,"ĠHad":13806,"ĠHonda":13807,"ĠLocation":13808,"ĠWee":13809,"riors":13810,"emen":13811,"quare":13812,"ĠVill":13813,"ĠChoose":13814,"ĠChrome":13815,"ended":13816,"anche":13817,"fulness":13818,"Ġbacks":13819,"Ġcarb":13820,"hesive":13821,"Ġblade":13822,"arms":13823,"ceptions":13824,"Ġapprove":13825,"Ġreceiver":13826,"ĠManaging":13827,"Ġspecification":13828,"Ġenglish":13829,"Ġgrat":13830,"ĠFlight":13831,"ĠApplications":13832,"Ġmusicians":13833,"Ġcouch":13834,"Ġvoltage":13835,"Ġbeautifully":13836,"Ġcultures":13837,"DAY":13838,"Ġcups":13839,"ĠCertification":13840,"Ġlegislative":13841,"color":13842,"Ġwelcoming":13843,"Recently":13844,"Ġcalculate":13845,"ĠFranklin":13846,"ĠColumbus":13847,"ĠCharlotte":13848,"ĠPolitical":13849,"ĠNutrition":13850,"Earlier":13851,"Es":13852,"Making":13853,"cap":13854,"ev":13855,"hop":13856,"oise":13857,"rine":13858,"Ġ!!!":13859,"itol":13860,"Ġdip":13861,"Ġlun":13862,"idity":13863,"ĠAF":13864,"ĠPun":13865,"Ġash":13866,"ĠRug":13867,"mented":13868,"ĠLie":13869,"ĠLodge":13870,"Ġranges":13871,"ĠUP":13872,"Ġenorm":13873,"owner":13874,"Ġdisorders":13875,"Ġspacious":13876,"ĠReally":13877,"ĠRelease":13878,"Ġunderlying":13879,"Ġwherever":13880,"Ġremod":13881,"Ġattributes":13882,"arness":13883,"Ġsubmitting":13884,"Ġautumn":13885,"Ġslides":13886,"Ġvegan":13887,"Ġinvestor":13888,"tended":13889,"ĠOrleans":13890,"Ġlandmark":13891,"Ġkeywords":13892,"Additionally":13893,"Ġcalories":13894,"Ġclearance":13895,"ĠDisplay":13896,"Ġbalanced":13897,"ĠSupplier":13898,"Ġrevised":13899,"ĠPhotos":13900,"ĠCampbell":13901,"Ġobserve":13902,"Ġgovernance":13903,"Ġanalyze":13904,"Overall":13905,"Ġachieving":13906,"Particip":13907,"ĠPhysical":13908,"Ġlecture":13909,"Ġmobility":13910,"Ġcryptocur":13911,"Ġincorporated":13912,"intendo":13913,"heimer":13914,"ĠBluetooth":13915,"izontal":13916,"Ġexcitement":13917,"Af":13918,"Bas":13919,"Er":13920,"Ro":13921,"cur":13922,"cost":13923,"det":13924,"fix":13925,"iov":13926,"Ġterr":13927,"Ġsail":13928,"orious":13929,"Ġcrop":13930,"Ġpole":13931,"Ġtoss":13932,"Ġdiesel":13933,"Ġlately":13934,"ĠSig":13935,"ĠMason":13936,"ĠMars":13937,"urst":13938,"Ġstroke":13939,"ĠDiet":13940,"Ġwholesale":13941,"ĠLoc":13942,"Ġvocal":13943,"achi":13944,"Ġunto":13945,"Ġtrades":13946,"ĠThink":13947,"Ġindivid":13948,"Ġrac":13949,"pending":13950,"Ġtreating":13951,"rolled":13952,"Cloud":13953,"Ġappearing":13954,"Ġhomemade":13955,"Ġconsiderable":13956,"ĠConservation":13957,"Ġweekends":13958,"Ġexecuted":13959,"Ġgraduation":13960,"Ġachievements":13961,"Ġalternatives":13962,"CAA":13963,"Ġdemonstration":13964,"Ġcheapest":13965,"Ġshelter":13966,"Ġgloss":13967,"Ġodds":13968,"ĠRailway":13969,"Ġpipeline":13970,"ĠTruck":13971,"ĠBBQ":13972,"Ġmoisture":13973,"Ġtrademark":13974,"Ġcushion":13975,"ĠMargaret":13976,"ĠArgentina":13977,"AK":13978,"Box":13979,"DO":13980,"Jul":13981,"iaries":13982,"size":13983,"help":13984,"Ġcure":13985,"isely":13986,"Ġtob":13987,"Ġmills":13988,"icts":13989,"idy":13990,"rah":13991,"immer":13992,"urd":13993,"verter":13994,"ĠHorn":13995,"ĠNative":13996,"ĠNeb":13997,"allic":13998,"Ġabund":13999,"Ġcompound":14000,"Ġneat":14001,"Ġwheat":14002,"Ġoutline":14003,"Ġ365":14004,"icked":14005,"Ġamp":14006,"Ġtwitter":14007,"ĠThai":14008,"Ġ92":14009,"ĠLeft":14010,"ĠAlf":14011,"Ġclassical":14012,"Along":14013,"Ġtreasure":14014,"Ġcoupons":14015,"ĠEmployment":14016,"Ġsensors":14017,"Ġfeeding":14018,"Ġburst":14019,"ĠBenjamin":14020,"Ġappreciation":14021,"ĠVisa":14022,"Ġvanilla":14023,"Ġreflects":14024,"ĠLighting":14025,"ĠDiscount":14026,"Ġsurgical":14027,"Ġbenchmark":14028,"uerto":14029,"ĠPictures":14030,"Ġcontroversial":14031,"Ġrehabilitation":14032,"olesterol":14033,"iterranean":14034,"Ben":14035,"Cut":14036,"Count":14037,"Miss":14038,"Name":14039,"Supp":14040,"Was":14041,"feed":14042,"hal":14043,"mid":14044,"mother":14045,"som":14046,"ĠSyn":14047,"ĠCarm":14048,"Ġnurse":14049,"imens":14050,"Ġstrive":14051,"ĠBle":14052,"Ġorg":14053,"ĠHapp":14054,"email":14055,"Ġnotified":14056,"Ġoutlets":14057,"ĠStream":14058,"Ġquar":14059,"Ġarriving":14060,"hesis":14061,"insula":14062,"rivate":14063,"Ġinteractions":14064,"Ġrunner":14065,"ennial":14066,"Ġbreach":14067,"Ġloft":14068,"ylon":14069,"ĠInstru":14070,"Ġportrait":14071,"ĠImages":14072,"Ġeconomics":14073,"2004":14074,"Ġsolic":14075,"Ġfriendship":14076,"ĠMonte":14077,"Ġenterprises":14078,"Ġinflation":14079,"Ġsweat":14080,"untu":14081,"Research":14082,"ĠMachinery":14083,"Ġprecise":14084,"Ġglobally":14085,"Ġjournalists":14086,"ĠLoan":14087,"Ġincorrect":14088,"Ġstructural":14089,"ĠPublishing":14090,"Ġmagnetic":14091,"________":14092,"ĠHorse":14093,"ĠJennifer":14094,"Ġsurveys":14095,"Ġladies":14096,"Ġenemy":14097,"ĠDatabase":14098,"Ġembedded":14099,"Ġfaucet":14100,"ĠBaptist":14101,"ĠEdinburgh":14102,"Bill":14103,"Cr":14104,"Cap":14105,"GH":14106,"HC":14107,"bus":14108,"bled":14109,"ext":14110,"kh":14111,"mart":14112,"Ġdensity":14113,"ĠCircle":14114,"Ġbeating":14115,"ĠLar":14116,"umble":14117,"Ġjar":14118,"ĠChocolate":14119,"Ġtrauma":14120,"ancies":14121,"Ġampl":14122,"Ġsecurities":14123,"Ġfinishes":14124,"Ġcarries":14125,"azines":14126,"ĠClar":14127,"Ġtechnological":14128,"Ġreflection":14129,"annes":14130,"Ġinvested":14131,"Ġinstallations":14132,"Ġaddressing":14133,"Ġ160":14134,"Ġdealers":14135,"Ġdownloading":14136,"ĠDirectory":14137,"Ġfavorites":14138,"Ġpreventing":14139,"Ġimmune":14140,"Ġaffects":14141,"Ġepisodes":14142,"track":14143,"Ġindicator":14144,"ĠMilitary":14145,"ĠPeters":14146,"ĠRobin":14147,"Ġbeside":14148,"Ġmotivated":14149,"Ġenrollment":14150,"Ġmicrowave":14151,"Return":14152,"Ġpupils":14153,"Ġopponent":14154,"Ġdiscipline":14155,"Ġexecute":14156,"Europe":14157,"Wash":14158,"laim":14159,"poke":14160,"yr":14161,"Ġcit":14162,"Ġpars":14163,"Ġpants":14164,"asury":14165,"ĠSF":14166,"ĠSierra":14167,"Ġgut":14168,"ĠAV":14169,"rament":14170,"ĠMaz":14171,"ĠMatch":14172,"ĠIl":14173,"ĠBass":14174,"ourt":14175,"Ġcombo":14176,"Ġallerg":14177,"Ġclim":14178,"Ġresil":14179,"Ġquit":14180,"Ġaccredited":14181,"Invest":14182,"Ġdesert":14183,"Ġthereby":14184,"Ġ84":14185,"Ġ86":14186,"ictions":14187,"Ġprescribed":14188,"Ġmoderate":14189,"Ġretreat":14190,"Ġlegally":14191,"Project":14192,"ĠPolish":14193,"ĠWindow":14194,"Ġcandy":14195,"ĠProfile":14196,"Ġconsultants":14197,"Ġdedication":14198,"Ġdifficulties":14199,"Ġtrainer":14200,"Ġindependence":14201,"ĠRichmond":14202,"listed":14203,"Ġbreathing":14204,"ĠSnap":14205,"onomic":14206,"ĠPowder":14207,"Ġwallet":14208,"Ġmerely":14209,"Ġpractitioners":14210,"ĠLinkedIn":14211,"ladesh":14212,"!?":14213,"Cost":14214,"Master":14215,"NAS":14216,"Service":14217,"bas":14218,"ei":14219,"jack":14220,"vt":14221,"Ġtong":14222,"Ġpear":14223,"Ġpoker":14224,"Ġinclusion":14225,"left":14226,"Ġhint":14227,"Ġrenovation":14228,"ĠSN":14229,"ĠSample":14230,"ĠSleep":14231,"Ġeager":14232,"ĠCould":14233,"ĠCurt":14234,"ĠCafe":14235,"Ġnit":14236,"ĠMob":14237,"ĠRate":14238,"ĠRav":14239,"ĠRanch":14240,"ablished":14241,"Ġvig":14242,"Ġchill":14243,"Ġleverage":14244,"ĠJoin":14245,"ieval":14246,"Ġmanually":14247,"avior":14248,"Ġdisag":14249,"ensed":14250,"Ġdesper":14251,"Ġbugs":14252,"ĠProgress":14253,"ritis":14254,"ĠShar":14255,"ĠClimate":14256,"ĠArc":14257,"Ġcharter":14258,"becca":14259,"Ġreviewing":14260,"Ġcamps":14261,"Ġelite":14262,"ĠHealthy":14263,"ĠParts":14264,"---":14265,"uki":14266,"Ġpoliticians":14267,"alties":14268,"Ġdependent":14269,"Ġstriking":14270,"ictionary":14271,"Ġpools":14272,"Ġprosper":14273,"ĠOpera":14274,"Ġemotion":14275,"Perform":14276,"Ġguns":14277,"Ġnursery":14278,"Ġscenario":14279,"ĠMurray":14280,"ĠCommonwealth":14281,"curement":14282,"ĠScholarship":14283,"ĠElementary":14284,"Card":14285,"House":14286,"OH":14287,"SQL":14288,"aic":14289,"hs":14290,"Ã¨":14291,"Ġtang":14292,"Ġthesis":14293,"Ġwool":14294,"Ġpound":14295,"anut":14296,"Ġmild":14297,"Ġmint":14298,"Ġhal":14299,"Ġthumb":14300,"rob":14301,"ĠMaintenance":14302,"ĠTes":14303,"aments":14304,"ĠPant":14305,"ĠPrad":14306,"Ġstolen":14307,"ĠBeth":14308,"eston":14309,"Ġchains":14310,"Ġchamber":14311,"uda":14312,"ĠUV":14313,"ĠTheory":14314,"ĠVel":14315,"ieces":14316,"Ġunem":14317,"ĠThor":14318,"ermat":14319,"Ġmayor":14320,"Ġcheer":14321,"ĠLex":14322,"aukee":14323,"Ġexped":14324,"ĠBlood":14325,"uckland":14326,"Altern":14327,"Ġreleasing":14328,"ĠHarbor":14329,"artha":14330,"Ġtargeting":14331,"Ġbuses":14332,"IDE":14333,"Ġembod":14334,"Ġseminar":14335,"Ġattracted":14336,"Ġinvestigations":14337,"ĠNetflix":14338,"ĠJews":14339,"Ġveterans":14340,"ĠOptim":14341,"Ġmotivation":14342,"ĠGrove":14343,"founder":14344,"Ġroyal":14345,"Ġdataset":14346,"ĠDisease":14347,"November":14348,"flo":14349,"fund":14350,
[...]
